{
  "version": "1.0",
  "truncation": null,
  "padding": null,
  "added_tokens": [
    {
      "id": 0,
      "content": "<|endoftext|>",
      "single_word": false,
      "lstrip": false,
      "rstrip": false,
      "normalized": false,
      "special": true
    }
  ],
  "normalizer": null,
  "pre_tokenizer": {
    "type": "ByteLevel",
    "add_prefix_space": true,
    "trim_offsets": true,
    "use_regex": true
  },
  "post_processor": {
    "type": "ByteLevel",
    "add_prefix_space": true,
    "trim_offsets": true,
    "use_regex": true
  },
  "decoder": {
    "type": "ByteLevel",
    "add_prefix_space": true,
    "trim_offsets": true,
    "use_regex": true
  },
  "model": {
    "type": "BPE",
    "dropout": null,
    "unk_token": null,
    "continuing_subword_prefix": null,
    "end_of_word_suffix": null,
    "fuse_unk": false,
    "byte_fallback": false,
    "ignore_merges": false,
    "vocab": {
      "<|endoftext|>": 0,
      "!": 1,
      "\"": 2,
      "#": 3,
      "$": 4,
      "%": 5,
      "&": 6,
      "'": 7,
      "(": 8,
      ")": 9,
      "*": 10,
      "+": 11,
      ",": 12,
      "-": 13,
      ".": 14,
      "/": 15,
      "0": 16,
      "1": 17,
      "2": 18,
      "3": 19,
      "4": 20,
      "5": 21,
      "6": 22,
      "7": 23,
      "8": 24,
      "9": 25,
      ":": 26,
      ";": 27,
      "<": 28,
      "=": 29,
      ">": 30,
      "?": 31,
      "@": 32,
      "A": 33,
      "B": 34,
      "C": 35,
      "D": 36,
      "E": 37,
      "F": 38,
      "G": 39,
      "H": 40,
      "I": 41,
      "J": 42,
      "K": 43,
      "L": 44,
      "M": 45,
      "N": 46,
      "O": 47,
      "P": 48,
      "Q": 49,
      "R": 50,
      "S": 51,
      "T": 52,
      "U": 53,
      "V": 54,
      "W": 55,
      "X": 56,
      "Y": 57,
      "Z": 58,
      "[": 59,
      "\\": 60,
      "]": 61,
      "^": 62,
      "_": 63,
      "`": 64,
      "a": 65,
      "b": 66,
      "c": 67,
      "d": 68,
      "e": 69,
      "f": 70,
      "g": 71,
      "h": 72,
      "i": 73,
      "j": 74,
      "k": 75,
      "l": 76,
      "m": 77,
      "n": 78,
      "o": 79,
      "p": 80,
      "q": 81,
      "r": 82,
      "s": 83,
      "t": 84,
      "u": 85,
      "v": 86,
      "w": 87,
      "x": 88,
      "y": 89,
      "z": 90,
      "{": 91,
      "|": 92,
      "}": 93,
      "~": 94,
      "¡": 95,
      "¢": 96,
      "£": 97,
      "¤": 98,
      "¥": 99,
      "¦": 100,
      "§": 101,
      "¨": 102,
      "©": 103,
      "ª": 104,
      "«": 105,
      "¬": 106,
      "®": 107,
      "¯": 108,
      "°": 109,
      "±": 110,
      "²": 111,
      "³": 112,
      "´": 113,
      "µ": 114,
      "¶": 115,
      "·": 116,
      "¸": 117,
      "¹": 118,
      "º": 119,
      "»": 120,
      "¼": 121,
      "½": 122,
      "¾": 123,
      "¿": 124,
      "À": 125,
      "Á": 126,
      "Â": 127,
      "Ã": 128,
      "Ä": 129,
      "Å": 130,
      "Æ": 131,
      "Ç": 132,
      "È": 133,
      "É": 134,
      "Ê": 135,
      "Ë": 136,
      "Ì": 137,
      "Í": 138,
      "Î": 139,
      "Ï": 140,
      "Ð": 141,
      "Ñ": 142,
      "Ò": 143,
      "Ó": 144,
      "Ô": 145,
      "Õ": 146,
      "Ö": 147,
      "×": 148,
      "Ø": 149,
      "Ù": 150,
      "Ú": 151,
      "Û": 152,
      "Ü": 153,
      "Ý": 154,
      "Þ": 155,
      "ß": 156,
      "à": 157,
      "á": 158,
      "â": 159,
      "ã": 160,
      "ä": 161,
      "å": 162,
      "æ": 163,
      "ç": 164,
      "è": 165,
      "é": 166,
      "ê": 167,
      "ë": 168,
      "ì": 169,
      "í": 170,
      "î": 171,
      "ï": 172,
      "ð": 173,
      "ñ": 174,
      "ò": 175,
      "ó": 176,
      "ô": 177,
      "õ": 178,
      "ö": 179,
      "÷": 180,
      "ø": 181,
      "ù": 182,
      "ú": 183,
      "û": 184,
      "ü": 185,
      "ý": 186,
      "þ": 187,
      "ÿ": 188,
      "Ā": 189,
      "ā": 190,
      "Ă": 191,
      "ă": 192,
      "Ą": 193,
      "ą": 194,
      "Ć": 195,
      "ć": 196,
      "Ĉ": 197,
      "ĉ": 198,
      "Ċ": 199,
      "ċ": 200,
      "Č": 201,
      "č": 202,
      "Ď": 203,
      "ď": 204,
      "Đ": 205,
      "đ": 206,
      "Ē": 207,
      "ē": 208,
      "Ĕ": 209,
      "ĕ": 210,
      "Ė": 211,
      "ė": 212,
      "Ę": 213,
      "ę": 214,
      "Ě": 215,
      "ě": 216,
      "Ĝ": 217,
      "ĝ": 218,
      "Ğ": 219,
      "ğ": 220,
      "Ġ": 221,
      "ġ": 222,
      "Ģ": 223,
      "ģ": 224,
      "Ĥ": 225,
      "ĥ": 226,
      "Ħ": 227,
      "ħ": 228,
      "Ĩ": 229,
      "ĩ": 230,
      "Ī": 231,
      "ī": 232,
      "Ĭ": 233,
      "ĭ": 234,
      "Į": 235,
      "į": 236,
      "İ": 237,
      "ı": 238,
      "Ĳ": 239,
      "ĳ": 240,
      "Ĵ": 241,
      "ĵ": 242,
      "Ķ": 243,
      "ķ": 244,
      "ĸ": 245,
      "Ĺ": 246,
      "ĺ": 247,
      "Ļ": 248,
      "ļ": 249,
      "Ľ": 250,
      "ľ": 251,
      "Ŀ": 252,
      "ŀ": 253,
      "Ł": 254,
      "ł": 255,
      "Ń": 256,
      "er": 257,
      "en": 258,
      "ch": 259,
      "Ġd": 260,
      "ei": 261,
      "un": 262,
      "ie": 263,
      "st": 264,
      "an": 265,
      "in": 266,
      "sch": 267,
      "on": 268,
      "ĠS": 269,
      "es": 270,
      "al": 271,
      "ein": 272,
      "und": 273,
      "au": 274,
      "Ġder": 275,
      "el": 276,
      "Ã¤": 277,
      "Ã¼": 278,
      "ar": 279,
      "ich": 280,
      "it": 281,
      "ĠA": 282,
      "Ġw": 283,
      "ur": 284,
      "ge": 285,
      "te": 286,
      "Ġv": 287,
      "or": 288,
      "ung": 289,
      "ĠB": 290,
      "Ġund": 291,
      "ĠD": 292,
      "Ġs": 293,
      "Ġdie": 294,
      "at": 295,
      "ĠĊ": 296,
      "Ġ1": 297,
      "ĠM": 298,
      "isch": 299,
      "Ġb": 300,
      "em": 301,
      "Ġein": 302,
      "as": 303,
      "ĠK": 304,
      "ten": 305,
      "hr": 306,
      "ĠE": 307,
      "ĠG": 308,
      "Ġz": 309,
      "Ġin": 310,
      "ĠF": 311,
      "Ġ(": 312,
      "ter": 313,
      "ĠP": 314,
      "gen": 315,
      "ol": 316,
      "Ġi": 317,
      "de": 318,
      "Ġau": 319,
      "âĢ": 320,
      "Ã¶": 321,
      "der": 322,
      "den": 323,
      "am": 324,
      "ĠH": 325,
      "Ġm": 326,
      "ĠW": 327,
      "ĠR": 328,
      "is": 329,
      "ber": 330,
      "Ġn": 331,
      "ĠL": 332,
      "et": 333,
      "ĠT": 334,
      "Ġvon": 335,
      "ĠI": 336,
      "ach": 337,
      "us": 338,
      "ĠV": 339,
      "Ġf": 340,
      "il": 341,
      "lich": 342,
      "ig": 343,
      "um": 344,
      "ut": 345,
      "ĠN": 346,
      "ĠJ": 347,
      "Ġ19": 348,
      "and": 349,
      "eit": 350,
      "ion": 351,
      "ier": 352,
      "Ġer": 353,
      "om": 354,
      "le": 355,
      "re": 356,
      "Ġden": 357,
      "Ġh": 358,
      "Ġdes": 359,
      "Ġ2": 360,
      "ik": 361,
      "ĠSt": 362,
      "Ġk": 363,
      "Ã¼r": 364,
      "ra": 365,
      "ro": 366,
      "Ġal": 367,
      "ent": 368,
      "ir": 369,
      "ÃŁ": 370,
      "ck": 371,
      "rei": 372,
      "Ġdas": 373,
      "Ġg": 374,
      "ab": 375,
      "Ġge": 376,
      "ft": 377,
      "Ġmit": 378,
      "ĠC": 379,
      "ischen": 380,
      "ĠZ": 381,
      "ĠDie": 382,
      "Ġim": 383,
      "Ġan": 384,
      "se": 385,
      "ĠSch": 386,
      "kt": 387,
      "Ġzu": 388,
      "Ġver": 389,
      "ĠâĢ": 390,
      "sen": 391,
      "ĠU": 392,
      "ann": 393,
      "Ġbe": 394,
      "ell": 395,
      "Ġauf": 396,
      "ĠO": 397,
      "ahr": 398,
      "sp": 399,
      "ben": 400,
      "icht": 401,
      "ĠVer": 402,
      "ĠIn": 403,
      "00": 404,
      "ist": 405,
      "ah": 406,
      "Ġdem": 407,
      "ff": 408,
      "Ġals": 409,
      "Ġwur": 410,
      "Ġo": 411,
      "Ã¤n": 412,
      "iel": 413,
      "ien": 414,
      "ad": 415,
      "ische": 416,
      "eh": 417,
      "wei": 418,
      "ger": 419,
      "Ġist": 420,
      "ĠfÃ¼r": 421,
      "eut": 422,
      "Ġaus": 423,
      "Ġsich": 424,
      "eich": 425,
      "Ġeine": 426,
      "men": 427,
      "ĠAn": 428,
      "he": 429,
      "ĠGe": 430,
      "ul": 431,
      "ver": 432,
      "rie": 433,
      "ungen": 434,
      "Ġl": 435,
      "ri": 436,
      "eg": 437,
      "ation": 438,
      "scha": 439,
      "Ġun": 440,
      "ischer": 441,
      "eu": 442,
      "ag": 443,
      "ot": 444,
      "eutsch": 445,
      "ĠEr": 446,
      "os": 447,
      "âĢľ": 448,
      "ĠEin": 449,
      "urch": 450,
      "ern": 451,
      "eil": 452,
      "Ġwurde": 453,
      "Ġbei": 454,
      "Ã¼n": 455,
      "ru": 456,
      "ind": 457,
      "ĠAu": 458,
      "Ã¼ber": 459,
      "ĠJahr": 460,
      "och": 461,
      "ĠâĢŀ": 462,
      "est": 463,
      "Ġsein": 464,
      "Ġst": 465,
      "ran": 466,
      "Ġauch": 467,
      "ehr": 468,
      "etz": 469,
      "hn": 470,
      "),": 471,
      "op": 472,
      "Ġp": 473,
      "ungs": 474,
      "im": 475,
      "og": 476,
      "Ġwar": 477,
      "ed": 478,
      "Ġnach": 479,
      "Ġt": 480,
      "ang": 481,
      "Ġ20": 482,
      "Ġwir": 483,
      "all": 484,
      "ĠÃ¼ber": 485,
      "schaft": 486,
      "Ġ18": 487,
      "Ġdurch": 488,
      "sten": 489,
      "ert": 490,
      "ing": 491,
      "igen": 492,
      "Ġwer": 493,
      "Ã¤t": 494,
      "chen": 495,
      "iv": 496,
      "Ã¤r": 497,
      "ĠBe": 498,
      "ĠAl": 499,
      "ort": 500,
      "Ġwerden": 501,
      "ser": 502,
      "ler": 503,
      "ĠSp": 504,
      "Ġso": 505,
      "Ġwird": 506,
      "cht": 507,
      "Ġeiner": 508,
      "Ġoder": 509,
      "ĠDer": 510,
      "ĠUn": 511,
      "Ã¶r": 512,
      "Ġunter": 513,
      "ĠAr": 514,
      "Ġnicht": 515,
      "rÃ¤": 516,
      "Ġzur": 517,
      "end": 518,
      "lie": 519,
      "ster": 520,
      "la": 521,
      "Ġj": 522,
      "Ġ3": 523,
      "Ġum": 524,
      "Ġbis": 525,
      "Ġvor": 526,
      "âĢĵ": 527,
      "stell": 528,
      "art": 529,
      "Ã¶n": 530,
      "adt": 531,
      "Ġdeutsch": 532,
      "Ġent": 533,
      "aus": 534,
      "Ġ200": 535,
      "ĠEn": 536,
      "Ġsch": 537,
      "Ġwie": 538,
      "Ġsind": 539,
      "nen": 540,
      "ĠâĢĵ": 541,
      "ige": 542,
      "ĠÃ": 543,
      "lichen": 544,
      "Ġam": 545,
      "be": 546,
      "hl": 547,
      "Ġzum": 548,
      "pp": 549,
      "hal": 550,
      "itt": 551,
      "19": 552,
      "ĠRe": 553,
      "elt": 554,
      "ste": 555,
      "oll": 556,
      "Ã¼hr": 557,
      "Ġes": 558,
      "her": 559,
      "iert": 560,
      "Ġsie": 561,
      ").": 562,
      "bl": 563,
      "gr": 564,
      "enn": 565,
      "Ġab": 566,
      "erk": 567,
      "liche": 568,
      "Ġihr": 569,
      "spiel": 570,
      "land": 571,
      "ahl": 572,
      "ĠPro": 573,
      "reich": 574,
      "ĠAus": 575,
      "zen": 576,
      "Ġa": 577,
      "Ġhat": 578,
      "geb": 579,
      "mer": 580,
      "od": 581,
      "ic": 582,
      "Ġeinem": 583,
      "bur": 584,
      "orm": 585,
      "eiter": 586,
      "zu": 587,
      "uch": 588,
      "ĠAb": 589,
      "ĠBer": 590,
      "Ã¼ck": 591,
      "ĠIm": 592,
      "eben": 593,
      "ord": 594,
      "tet": 595,
      "gt": 596,
      "Ġ201": 597,
      "ĠDas": 598,
      "gel": 599,
      "ap": 600,
      "ne": 601,
      "det": 602,
      "ĠMa": 603,
      "Ġdass": 604,
      "rach": 605,
      "ass": 606,
      "Ġsp": 607,
      "ers": 608,
      "ĠGr": 609,
      "rit": 610,
      "ges": 611,
      "lin": 612,
      "uss": 613,
      "hen": 614,
      "iz": 615,
      "ĠStadt": 616,
      "pt": 617,
      "pf": 618,
      "auf": 619,
      "Ã¤l": 620,
      "ess": 621,
      "Ġeinen": 622,
      "tern": 623,
      "Ġr": 624,
      "ant": 625,
      "id": 626,
      "ust": 627,
      "ĠAuf": 628,
      "Ġ199": 629,
      "ner": 630,
      "ob": 631,
      "keit": 632,
      "ÃŁen": 633,
      "iker": 634,
      "ĠNach": 635,
      "olit": 636,
      "ard": 637,
      "ick": 638,
      "ĠLand": 639,
      "Ġwurden": 640,
      "ĠKon": 641,
      "ĠHer": 642,
      "wie": 643,
      "alt": 644,
      "rau": 645,
      "ĠMar": 646,
      "ak": 647,
      "ill": 648,
      "Ã¤hr": 649,
      "gl": 650,
      "che": 651,
      "ud": 652,
      "fl": 653,
      "ĠIS": 654,
      "Ġ(*": 655,
      "ĠOr": 656,
      "burg": 657,
      "me": 658,
      "rich": 659,
      "Ġander": 660,
      "heit": 661,
      "ib": 662,
      "BN": 663,
      "ĠJo": 664,
      "ĠDeutsch": 665,
      "ĠISBN": 666,
      "wa": 667,
      "ekt": 668,
      "ze": 669,
      "Ġdeutscher": 670,
      "ial": 671,
      "ĠMit": 672,
      "ia": 673,
      "Ġzw": 674,
      "atur": 675,
      "ok": 676,
      "ĠVor": 677,
      "Ã¤u": 678,
      "ĠSie": 679,
      "Ġnur": 680,
      "bar": 681,
      "fen": 682,
      "eiten": 683,
      "atz": 684,
      "ech": 685,
      "zeich": 686,
      "ow": 687,
      "ild": 688,
      "Ġ17": 689,
      "ĠReg": 690,
      "onder": 691,
      "amm": 692,
      "ph": 693,
      "weise": 694,
      "ĠCh": 695,
      "reis": 696,
      "ss": 697,
      "aten": 698,
      "ĠAm": 699,
      "ĠFran": 700,
      "Ġ198": 701,
      "ĠSe": 702,
      "schl": 703,
      "omp": 704,
      "ikan": 705,
      "ĠZeit": 706,
      "ĠBei": 707,
      "arb": 708,
      "ken": 709,
      "sk": 710,
      "ĠFl": 711,
      "nis": 712,
      "fol": 713,
      "Ġre": 714,
      "Ġda": 715,
      "rÃ¼": 716,
      "Ġmehr": 717,
      "eln": 718,
      "berg": 719,
      "Ġ9": 720,
      "Ġ4": 721,
      "ĠUS": 722,
      "18": 723,
      "ktion": 724,
      "att": 725,
      "ieren": 726,
      "ian": 727,
      "Ġzwei": 728,
      "Ġ197": 729,
      "Ġet": 730,
      "ug": 731,
      "eine": 732,
      "schie": 733,
      "omm": 734,
      "per": 735,
      "Ġ(âĢ": 736,
      "ĠSo": 737,
      "fÃ¼hr": 738,
      "itÃ¤t": 739,
      "ho": 740,
      "aben": 741,
      "ĠDe": 742,
      "ichte": 743,
      "ast": 744,
      "mus": 745,
      "ierung": 746,
      "roÃŁ": 747,
      "qu": 748,
      "ex": 749,
      "Ã¶l": 750,
      "anz": 751,
      "fahr": 752,
      "itz": 753,
      "hund": 754,
      "teil": 755,
      "ale": 756,
      "Ġvom": 757,
      "olog": 758,
      "schen": 759,
      "amer": 760,
      "Ġbest": 761,
      "elle": 762,
      "eist": 763,
      "arl": 764,
      "Ã¤nd": 765,
      "Ġaber": 766,
      "Ġall": 767,
      "ĠThe": 768,
      "bau": 769,
      "Ġnoch": 770,
      "acht": 771,
      "Ġ5": 772,
      "Ġkon": 773,
      "net": 774,
      "ĠJahrhund": 775,
      "Ġ196": 776,
      "ierte": 777,
      "ĠKl": 778,
      "enz": 779,
      "Ġdar": 780,
      "ffen": 781,
      "iger": 782,
      "ahn": 783,
      "ehen": 784,
      "Ġgegen": 785,
      "Ġeines": 786,
      "rat": 787,
      "als": 788,
      "spieler": 789,
      "ks": 790,
      "Ġweiter": 791,
      "ĠUnter": 792,
      "eb": 793,
      "ĠJahrhundert": 794,
      "vers": 795,
      "imm": 796,
      "Ġ194": 797,
      "utz": 798,
      "kl": 799,
      "ommen": 800,
      "ĠEnt": 801,
      "ov": 802,
      "ften": 803,
      "ember": 804,
      "zeit": 805,
      "ĠÃľ": 806,
      "Ã¶s": 807,
      "Ġ15": 808,
      "ieder": 809,
      "Ġsowie": 810,
      "ammen": 811,
      "Ġzwischen": 812,
      "ult": 813,
      "ĠPh": 814,
      "fer": 815,
      "eits": 816,
      "issen": 817,
      "Ġbes": 818,
      "ĠChr": 819,
      "Ġ16": 820,
      "tem": 821,
      "Ġgen": 822,
      "pl": 823,
      "glich": 824,
      "ĠGesch": 825,
      "Ġneu": 826,
      "bst": 827,
      "alen": 828,
      "20": 829,
      "amen": 830,
      "ittel": 831,
      "ark": 832,
      "iet": 833,
      "lung": 834,
      "ĠMus": 835,
      "annt": 836,
      "Ġber": 837,
      "Ã©": 838,
      "dem": 839,
      "Ġgew": 840,
      "ÃŁer": 841,
      "Ġkann": 842,
      "igkeit": 843,
      "Ġ195": 844,
      "etzt": 845,
      "ha": 846,
      "wick": 847,
      "Ġ=": 848,
      "ĠGes": 849,
      "Ã¼d": 850,
      "ĠUm": 851,
      "Ã¤ch": 852,
      "pr": 853,
      "ition": 854,
      "mann": 855,
      "Ġgr": 856,
      "ober": 857,
      "yst": 858,
      "wer": 859,
      "ellen": 860,
      "sb": 861,
      "Ã¶nig": 862,
      "Ġman": 863,
      "gem": 864,
      "eim": 865,
      "aat": 866,
      "ium": 867,
      "io": 868,
      "ron": 869,
      "Ġjed": 870,
      "Ġdies": 871,
      "form": 872,
      "Ġ(âĢł": 873,
      "Ġde": 874,
      "du": 875,
      "gesch": 876,
      "Ġlie": 877,
      "rieg": 878,
      "org": 879,
      "ĠTeil": 880,
      "Ġseiner": 881,
      "aupt": 882,
      "ĠBund": 883,
      "wo": 884,
      "ĠGem": 885,
      "assen": 886,
      "ath": 887,
      "eigen": 888,
      "tra": 889,
      "Ġwaren": 890,
      "Ġ6": 891,
      "nung": 892,
      "ĠÃľber": 893,
      "rupp": 894,
      "ay": 895,
      "ĠPolit": 896,
      "usammen": 897,
      "ingen": 898,
      "ĠkÃ¶n": 899,
      "raf": 900,
      "rift": 901,
      "Ġ193": 902,
      "eld": 903,
      "ystem": 904,
      "oren": 905,
      "ĠGeb": 906,
      "Ã¤d": 907,
      "leich": 908,
      "ĠBr": 909,
      "av": 910,
      "Ã¼t": 911,
      "nah": 912,
      "Ġseit": 913,
      "Ġdieser": 914,
      "fall": 915,
      "amerikan": 916,
      "fin": 917,
      "78": 918,
      "stand": 919,
      "Ġges": 920,
      "reu": 921,
      "Ġseine": 922,
      "urop": 923,
      "inn": 924,
      "entr": 925,
      "ĠMen": 926,
      "ĠWelt": 927,
      "Ġhatte": 928,
      "els": 929,
      "Ġgeh": 930,
      "ander": 931,
      "Ġetwa": 932,
      "tschaft": 933,
      "hm": 934,
      "rad": 935,
      "ĠEs": 936,
      "ker": 937,
      "ater": 938,
      "Ã¶ff": 939,
      "Ġhin": 940,
      "ts": 941,
      "ĠKÃ¶nig": 942,
      "Ġbet": 943,
      "if": 944,
      "ĠQ": 945,
      "eter": 946,
      "off": 947,
      "Ġof": 948,
      "Ġwieder": 949,
      "ĠJahre": 950,
      "ĠSchw": 951,
      "Ġjedoch": 952,
      "ĠBau": 953,
      "ek": 954,
      "sel": 955,
      "Ã¤nder": 956,
      "deut": 957,
      "egen": 958,
      "ĠFrie": 959,
      "ive": 960,
      "ĠPl": 961,
      "ĠZu": 962,
      "000": 963,
      "ilm": 964,
      "ais": 965,
      "ĠKir": 966,
      "ĠTh": 967,
      "Ġgel": 968,
      "iter": 969,
      "Ġdiese": 970,
      "ismus": 971,
      "ĠAug": 972,
      "ĠBundes": 973,
      "ĠBl": 974,
      "ine": 975,
      "Ã¤ter": 976,
      "halten": 977,
      "Ġher": 978,
      "ett": 979,
      "zw": 980,
      "Ġle": 981,
      "ĠGemein": 982,
      "th": 983,
      "Ã¤hl": 984,
      "Ġ8": 985,
      "glie": 986,
      "ĠSchl": 987,
      "ibt": 988,
      "Ġ7": 989,
      "werk": 990,
      "Ġdam": 991,
      "anden": 992,
      "asser": 993,
      "iele": 994,
      "ĠEl": 995,
      "Ġsel": 996,
      "ym": 997,
      "ĠQu": 998,
      "ip": 999,
      "ĠAd": 1000,
      "ĠDeutschland": 1001,
      "ans": 1002,
      "ac": 1003,
      "Ġverb": 1004,
      "Ġkl": 1005,
      "ens": 1006,
      "Ġje": 1007,
      "fe": 1008,
      "ĠBerlin": 1009,
      "iden": 1010,
      "ald": 1011,
      "ionen": 1012,
      "yn": 1013,
      "ĠNe": 1014,
      "Ã¤hrend": 1015,
      "sterreich": 1016,
      "vor": 1017,
      "ĠkÃ¶nnen": 1018,
      "ÃŁe": 1019,
      "ĠLeben": 1020,
      "ierten": 1021,
      "ĠReich": 1022,
      "Ġ14": 1023,
      "ehmen": 1024,
      "unden": 1025,
      "stadt": 1026,
      "ivers": 1027,
      "kehr": 1028,
      "pro": 1029,
      "Ġsoll": 1030,
      "eid": 1031,
      "aut": 1032,
      "zial": 1033,
      "zeu": 1034,
      "orden": 1035,
      "ĠRo": 1036,
      "ĠJan": 1037,
      "zÃ¶s": 1038,
      "ĠMon": 1039,
      "len": 1040,
      "eute": 1041,
      "age": 1042,
      "ĠJahren": 1043,
      "ott": 1044,
      "licher": 1045,
      "ĠfÃ¼hr": 1046,
      "ĠGen": 1047,
      "ĠAugust": 1048,
      "lage": 1049,
      "setz": 1050,
      "Ġverw": 1051,
      "ĠBo": 1052,
      "rieb": 1053,
      "str": 1054,
      "of": 1055,
      "istor": 1056,
      "riff": 1057,
      "Ġerst": 1058,
      "ys": 1059,
      "tr": 1060,
      "ĠNeu": 1061,
      "ĠBeg": 1062,
      "lieÃŁ": 1063,
      "ĠAut": 1064,
      "ĠGrund": 1065,
      "Ġe": 1066,
      "Ġ12": 1067,
      "abe": 1068,
      "ball": 1069,
      "Ġ%": 1070,
      "ĠÃĸ": 1071,
      "Ġhaben": 1072,
      "aler": 1073,
      "ub": 1074,
      "ĠFrank": 1075,
      "iss": 1076,
      "auer": 1077,
      "ĠPr": 1078,
      "inder": 1079,
      "ultur": 1080,
      "ĠHand": 1081,
      "ĠWir": 1082,
      "Ġ13": 1083,
      "ĠEine": 1084,
      "ĠGer": 1085,
      "Ã¶glich": 1086,
      "ĠJul": 1087,
      "ĠArb": 1088,
      "issenschaft": 1089,
      "zer": 1090,
      "old": 1091,
      "eht": 1092,
      "weg": 1093,
      "Ġbek": 1094,
      "geben": 1095,
      "ĠVerl": 1096,
      "Ġ10": 1097,
      "Ġc": 1098,
      "schieden": 1099,
      "for": 1100,
      "ht": 1101,
      "olle": 1102,
      "ĠVerb": 1103,
      "Ġgibt": 1104,
      "Ġdrei": 1105,
      "recht": 1106,
      "Ġen": 1107,
      "Ġfol": 1108,
      "Ã¼l": 1109,
      "ĠLe": 1110,
      "ĠMÃ¤r": 1111,
      "tete": 1112,
      "ate": 1113,
      "rÃ¤s": 1114,
      "Ġeigen": 1115,
      "yp": 1116,
      "richt": 1117,
      "ĠPolitiker": 1118,
      "amt": 1119,
      "ma": 1120,
      "ĠLu": 1121,
      "ationen": 1122,
      "halb": 1123,
      "ĠHaupt": 1124,
      "ranzÃ¶s": 1125,
      "ĠspÃ¤ter": 1126,
      "Ġger": 1127,
      "oph": 1128,
      "ubl": 1129,
      "ke": 1130,
      "Ã¤lt": 1131,
      "ĠPers": 1132,
      "ĠKomp": 1133,
      "ce": 1134,
      "igt": 1135,
      "ius": 1136,
      "Ġ192": 1137,
      "schaften": 1138,
      "uÃŁ": 1139,
      "Ã¤nger": 1140,
      "ĠMÃ¼n": 1141,
      "uar": 1142,
      "hne": 1143,
      "wir": 1144,
      "iteratur": 1145,
      "ĠGl": 1146,
      "Ã¼rger": 1147,
      "Ġihre": 1148,
      "ĠFÃ¼r": 1149,
      "ĠStaat": 1150,
      "angen": 1151,
      "eister": 1152,
      "ĠOber": 1153,
      "Ġanderen": 1154,
      "ruck": 1155,
      "iff": 1156,
      "stein": 1157,
      "amerikanischer": 1158,
      "min": 1159,
      "Ã¤ng": 1160,
      "Ġkonn": 1161,
      "alien": 1162,
      ".)": 1163,
      "ĠgrÃ¶": 1164,
      "Ġersten": 1165,
      "stellt": 1166,
      "steller": 1167,
      "Ġausge": 1168,
      "gend": 1169,
      "ĠChrist": 1170,
      "ĠDiese": 1171,
      "gemein": 1172,
      "bt": 1173,
      "ĠII": 1174,
      "ire": 1175,
      "satz": 1176,
      "ost": 1177,
      "Ġ978": 1178,
      "ĠJun": 1179,
      "âĢĻ": 1180,
      "ĠFried": 1181,
      "hann": 1182,
      "stellung": 1183,
      "olf": 1184,
      "ĠAnt": 1185,
      "akt": 1186,
      "ĠGroÃŁ": 1187,
      "ĠOkt": 1188,
      "ĠNov": 1189,
      "ĠEx": 1190,
      "ĠMai": 1191,
      "17": 1192,
      "ielt": 1193,
      "ock": 1194,
      "ĠFor": 1195,
      "ĠJanuar": 1196,
      "onen": 1197,
      "ĠBet": 1198,
      "ĠfranzÃ¶s": 1199,
      "man": 1200,
      "ĠSchau": 1201,
      "entlich": 1202,
      "ogen": 1203,
      "ĠUnivers": 1204,
      "ings": 1205,
      "ĠVol": 1206,
      "gte": 1207,
      "abei": 1208,
      "Ġgleich": 1209,
      "Ġgem": 1210,
      "Ã¤m": 1211,
      "ĠzurÃ¼ck": 1212,
      "ĠSchrift": 1213,
      "gang": 1214,
      "ĠOktober": 1215,
      "ĠY": 1216,
      "Ġbeg": 1217,
      "ĠJohann": 1218,
      "ĠgehÃ¶r": 1219,
      "ologie": 1220,
      "ĠMÃ¤rz": 1221,
      "unst": 1222,
      "Ġpro": 1223,
      "elm": 1224,
      "sg": 1225,
      "ĠDez": 1226,
      "dr": 1227,
      "az": 1228,
      "ĠWest": 1229,
      "igung": 1230,
      "ĠAls": 1231,
      "ĠSep": 1232,
      "ĠGeschichte": 1233,
      "ĠLiteratur": 1234,
      "oge": 1235,
      "15": 1236,
      "ĠNord": 1237,
      "ĠgroÃŁ": 1238,
      "Ġheute": 1239,
      "zeichnet": 1240,
      "tt": 1241,
      "inz": 1242,
      "tember": 1243,
      "orf": 1244,
      "stÃ¤nd": 1245,
      "pril": 1246,
      "ĠÃ¶": 1247,
      "ĠWerk": 1248,
      "ĠMenschen": 1249,
      "unkt": 1250,
      "grund": 1251,
      "stra": 1252,
      "ĠDezember": 1253,
      "bild": 1254,
      "Ġfin": 1255,
      "ĠJuni": 1256,
      "St": 1257,
      "zahl": 1258,
      "ĠSeptember": 1259,
      "ĠBes": 1260,
      "ĠApril": 1261,
      "cher": 1262,
      "Ã¼nd": 1263,
      "ĠFilm": 1264,
      "ĠJuli": 1265,
      "ational": 1266,
      "zie": 1267,
      "oten": 1268,
      "gew": 1269,
      "Ġerh": 1270,
      "kon": 1271,
      "ĠBild": 1272,
      "ossen": 1273,
      "ĠFuÃŁ": 1274,
      "ĠPar": 1275,
      "gleich": 1276,
      "16": 1277,
      "ĠÃĦ": 1278,
      "ĠPhil": 1279,
      "ĠSprach": 1280,
      "our": 1281,
      "ĠNovember": 1282,
      "Ã¶m": 1283,
      "Ġihn": 1284,
      "ĠUr": 1285,
      "ĠEurop": 1286,
      "Ġerste": 1287,
      "lex": 1288,
      "10": 1289,
      "Ġdeutsche": 1290,
      "ere": 1291,
      "Ġseinen": 1292,
      "ende": 1293,
      "Ġviel": 1294,
      "wend": 1295,
      "Ġgeb": 1296,
      "ĠPart": 1297,
      "ĠStra": 1298,
      "ĠInd": 1299,
      "mal": 1300,
      "Ġihrer": 1301,
      "inger": 1302,
      "isches": 1303,
      "sw": 1304,
      "alter": 1305,
      "ĠEnde": 1306,
      "Ġwen": 1307,
      "rag": 1308,
      "orn": 1309,
      "oss": 1310,
      "Ġ190": 1311,
      "Ġverl": 1312,
      "annte": 1313,
      "ina": 1314,
      "âĢľ.": 1315,
      "Ġverschieden": 1316,
      "arten": 1317,
      "esen": 1318,
      "isten": 1319,
      "ĠAuch": 1320,
      "ĠMittel": 1321,
      "ĠWil": 1322,
      "Ġalle": 1323,
      "ĠMin": 1324,
      "ou": 1325,
      "ĠDar": 1326,
      "Ġselbst": 1327,
      "Ġthe": 1328,
      "Ġdamit": 1329,
      "ĠHoch": 1330,
      "ren": 1331,
      "ister": 1332,
      "walt": 1333,
      "Ġbesch": 1334,
      "ame": 1335,
      "Ã¶lker": 1336,
      "ĠGegen": 1337,
      "fte": 1338,
      "gung": 1339,
      "ĠDurch": 1340,
      "Ġkeine": 1341,
      "halt": 1342,
      "Ġaller": 1343,
      "ule": 1344,
      "Ġbereits": 1345,
      "Ġallem": 1346,
      "ĠFrei": 1347,
      "ĠPol": 1348,
      "rieben": 1349,
      "âĢľ,": 1350,
      "sprach": 1351,
      "Ġzusammen": 1352,
      "Ġeinz": 1353,
      "ĠKur": 1354,
      "ĠMusik": 1355,
      "amil": 1356,
      "Ġseinem": 1357,
      "unk": 1358,
      "ĠWe": 1359,
      "ĠFriedrich": 1360,
      "Ġwo": 1361,
      "lagen": 1362,
      "ĠSchauspieler": 1363,
      "essen": 1364,
      "ativ": 1365,
      "ĠRecht": 1366,
      "ĠWei": 1367,
      "ĠSchwei": 1368,
      "ĠKarl": 1369,
      "grÃ¼n": 1370,
      "ĠForm": 1371,
      "ruppen": 1372,
      "ĠArt": 1373,
      "eck": 1374,
      "ellschaft": 1375,
      "ĠwÃ¤hrend": 1376,
      "ĠEinz": 1377,
      "br": 1378,
      "Ġsehr": 1379,
      "aden": 1380,
      "Ġex": 1381,
      "ĠWasser": 1382,
      "ĠKrieg": 1383,
      "Ġdann": 1384,
      "ĠSte": 1385,
      "stoff": 1386,
      "ĠMan": 1387,
      "geh": 1388,
      "Ġeben": 1389,
      "oder": 1390,
      "are": 1391,
      "ĠKo": 1392,
      "Ġeh": 1393,
      "ĠMitglie": 1394,
      "ebru": 1395,
      "zt": 1396,
      "Ġhier": 1397,
      "ebruar": 1398,
      "Ġbzw": 1399,
      "falls": 1400,
      "uten": 1401,
      "rÃ¤siden": 1402,
      "Ġerfol": 1403,
      "ĠHein": 1404,
      "rechen": 1405,
      "endet": 1406,
      "ĠFebruar": 1407,
      "ĠBand": 1408,
      "Ġsei": 1409,
      "ĠLandes": 1410,
      "aum": 1411,
      "anis": 1412,
      "ĠfrÃ¼": 1413,
      "Ġch": 1414,
      "fr": 1415,
      "agen": 1416,
      "Ã¤ÃŁ": 1417,
      "wohn": 1418,
      "haus": 1419,
      "12": 1420,
      "schn": 1421,
      "ĠMed": 1422,
      "unktion": 1423,
      "Ġihm": 1424,
      "ĠDa": 1425,
      "ĠNieder": 1426,
      "fÃ¼": 1427,
      "reg": 1428,
      "ĠRom": 1429,
      "14": 1430,
      "Ġins": 1431,
      "ĠJu": 1432,
      "raph": 1433,
      "fÃ¼hrt": 1434,
      "fang": 1435,
      "fÃ¼r": 1436,
      "eitung": 1437,
      "Ġ202": 1438,
      "kreis": 1439,
      "Ġwenn": 1440,
      "Ã¤hn": 1441,
      "ĠFuÃŁball": 1442,
      "heim": 1443,
      "zug": 1444,
      "ank": 1445,
      "ĠKreis": 1446,
      "ĠSÃ¼d": 1447,
      "ĠZw": 1448,
      "Ġsonder": 1449,
      "chn": 1450,
      "Ġzun": 1451,
      "einen": 1452,
      "Ġ189": 1453,
      "ĠRei": 1454,
      ".,": 1455,
      "Ġsondern": 1456,
      "hof": 1457,
      "ĠKunst": 1458,
      "bert": 1459,
      "bahn": 1460,
      "ĠKais": 1461,
      "sicht": 1462,
      "Ã¤uf": 1463,
      "13": 1464,
      "sst": 1465,
      "Ġeinge": 1466,
      "ĠNamen": 1467,
      "ied": 1468,
      "ĠPf": 1469,
      "50": 1470,
      "meister": 1471,
      "hand": 1472,
      "ond": 1473,
      "Ġbeim": 1474,
      "ĠMet": 1475,
      "ehn": 1476,
      "spr": 1477,
      "Ã¤nde": 1478,
      "keiten": 1479,
      "tre": 1480,
      "Ã¼s": 1481,
      "Ġstatt": 1482,
      "lau": 1483,
      "eite": 1484,
      "achsen": 1485,
      "ilit": 1486,
      "inks": 1487,
      "ĠFrau": 1488,
      "cken": 1489,
      "ĠVers": 1490,
      "ublik": 1491,
      "Ġohne": 1492,
      "ĠDies": 1493,
      "Ġdiesem": 1494,
      "Ġange": 1495,
      "eile": 1496,
      "Ġteil": 1497,
      "hin": 1498,
      "ĠHa": 1499,
      "Ġentst": 1500,
      "Ã¼nst": 1501,
      "Ġderen": 1502,
      "fach": 1503,
      "ĠEis": 1504,
      "ations": 1505,
      "ĠSchriftsteller": 1506,
      "arr": 1507,
      "ika": 1508,
      "sche": 1509,
      "Ġwel": 1510,
      "Ġkonnte": 1511,
      "ont": 1512,
      "Ġersch": 1513,
      "buch": 1514,
      "Ġbezeichnet": 1515,
      "ct": 1516,
      "Ġletz": 1517,
      "ator": 1518,
      "eins": 1519,
      "alis": 1520,
      "sweise": 1521,
      "Ġben": 1522,
      "onist": 1523,
      "wicklung": 1524,
      "ĠOrt": 1525,
      "mals": 1526,
      "schied": 1527,
      "ĠBeispiel": 1528,
      "ĠMill": 1529,
      "ĠZwei": 1530,
      "Sch": 1531,
      "uf": 1532,
      "ondere": 1533,
      "reichen": 1534,
      "lo": 1535,
      "fahren": 1536,
      "klÃ¤r": 1537,
      "rsg": 1538,
      "son": 1539,
      "Ġnah": 1540,
      "raft": 1541,
      "Ġwas": 1542,
      "zog": 1543,
      "ĠFol": 1544,
      "Ġdeutschen": 1545,
      "ĠKultur": 1546,
      "wig": 1547,
      "kommen": 1548,
      "nahme": 1549,
      "ĠProz": 1550,
      "ĠEm": 1551,
      "rom": 1552,
      "ĠGemeinde": 1553,
      "hÃ¤lt": 1554,
      "enden": 1555,
      "Ã¼b": 1556,
      "ĠSpiel": 1557,
      "unter": 1558,
      "enk": 1559,
      "ipp": 1560,
      "ĠVerlag": 1561,
      "gebiet": 1562,
      "ĠMe": 1563,
      "Ġimmer": 1564,
      "ĠZusammen": 1565,
      "ĠBuch": 1566,
      "aul": 1567,
      "mittel": 1568,
      "ĠBÃ¼rger": 1569,
      "ĠAt": 1570,
      "ruch": 1571,
      "angel": 1572,
      "ĠSon": 1573,
      "urt": 1574,
      "krieg": 1575,
      "feld": 1576,
      "dings": 1577,
      "vÃ¶lker": 1578,
      "ruppe": 1579,
      "Ã¶ffentlich": 1580,
      "ĠMÃ¼nchen": 1581,
      "Ġdort": 1582,
      "ĠBest": 1583,
      "verb": 1584,
      "ĠBi": 1585,
      "Ġwicht": 1586,
      "Ġkam": 1587,
      "roÃŁen": 1588,
      "Ġschw": 1589,
      "Ġliegt": 1590,
      "Ġbrit": 1591,
      "helm": 1592,
      "ienst": 1593,
      "ĠInter": 1594,
      "asse": 1595,
      "annten": 1596,
      "inter": 1597,
      "eiden": 1598,
      "Ġvier": 1599,
      "ĠArch": 1600,
      "hÃ¤ng": 1601,
      "erg": 1602,
      "bach": 1603,
      "schw": 1604,
      "mar": 1605,
      "Ġbeiden": 1606,
      "Ġpolit": 1607,
      "ĠVon": 1608,
      "ĠGener": 1609,
      "ĠLa": 1610,
      "ĠOst": 1611,
      "Ġbil": 1612,
      "Ã¤tz": 1613,
      "eum": 1614,
      "Ġand": 1615,
      "ĠZahl": 1616,
      "ider": 1617,
      "ĠIs": 1618,
      "fas": 1619,
      "Ġgab": 1620,
      "ktur": 1621,
      "ez": 1622,
      "ĠTod": 1623,
      "Ã¤h": 1624,
      "icher": 1625,
      "Ġdessen": 1626,
      "ĠKomm": 1627,
      "punkt": 1628,
      "emen": 1629,
      "ĠAll": 1630,
      "Ġentwick": 1631,
      "genden": 1632,
      "dern": 1633,
      "ĠSeit": 1634,
      "na": 1635,
      "jekt": 1636,
      "ograph": 1637,
      "Ġbel": 1638,
      "ĠSu": 1639,
      "Ġ188": 1640,
      "rot": 1641,
      "aaten": 1642,
      "cke": 1643,
      "hein": 1644,
      "ange": 1645,
      "Ġdenen": 1646,
      "ĠHe": 1647,
      "gabe": 1648,
      "Ġihren": 1649,
      "gegen": 1650,
      "red": 1651,
      "ĠHerr": 1652,
      "dete": 1653,
      "Ġandere": 1654,
      "Ġbefin": 1655,
      "ausen": 1656,
      "nisse": 1657,
      "ĠHÃ¶": 1658,
      "Ġ30": 1659,
      "Ġgesch": 1660,
      "hard": 1661,
      "Ġ-": 1662,
      "Ġweitere": 1663,
      "amp": 1664,
      "ischof": 1665,
      "gesetzt": 1666,
      "ĠJahrhunderts": 1667,
      "wohl": 1668,
      "ologe": 1669,
      "ĠhÃ¶": 1670,
      "ĠNatur": 1671,
      "ĠKirche": 1672,
      "Ġfest": 1673,
      "ient": 1674,
      "ons": 1675,
      "weil": 1676,
      ".):": 1677,
      "scher": 1678,
      "elig": 1679,
      "Ã¤chst": 1680,
      "Hrsg": 1681,
      "stit": 1682,
      "einander": 1683,
      "ilt": 1684,
      "zentr": 1685,
      "Ġho": 1686,
      "ĠGott": 1687,
      "ĠVerein": 1688,
      "ĠBas": 1689,
      "ĠSk": 1690,
      "ĠgrÃ¶ÃŁ": 1691,
      "raum": 1692,
      "ĠKaiser": 1693,
      "ĠKomponist": 1694,
      "ĠWeiter": 1695,
      "ĠHeinrich": 1696,
      "schlossen": 1697,
      "Ġkomm": 1698,
      "ennt": 1699,
      "ution": 1700,
      "ĠWilhelm": 1701,
      "stru": 1702,
      "arch": 1703,
      "lieÃŁlich": 1704,
      "unde": 1705,
      "ĠFern": 1706,
      "Ġverm": 1707,
      "ĠStud": 1708,
      "Ver": 1709,
      "ĠTr": 1710,
      "sbes": 1711,
      "urz": 1712,
      "ide": 1713,
      "ĠMo": 1714,
      "Ġoft": 1715,
      "Ġentsp": 1716,
      "Ġmitt": 1717,
      "erst": 1718,
      "orie": 1719,
      "Ġworden": 1720,
      "Ġgef": 1721,
      "ĠLin": 1722,
      "Ġ11": 1723,
      "Ġzahl": 1724,
      "Ġverwendet": 1725,
      "ĠWo": 1726,
      "ĠWien": 1727,
      "Ġmus": 1728,
      "iner": 1729,
      "Ġu": 1730,
      "umen": 1731,
      "Ġdabei": 1732,
      "ument": 1733,
      "ĠÃ¶sterreich": 1734,
      "iere": 1735,
      "Ġ0": 1736,
      "Ġ25": 1737,
      "gestellt": 1738,
      "Ġbestimm": 1739,
      "ĠMann": 1740,
      "ĠBur": 1741,
      "40": 1742,
      "Ġstell": 1743,
      "ĠDr": 1744,
      "yr": 1745,
      "ffiz": 1746,
      "osoph": 1747,
      "athol": 1748,
      "ĠPeter": 1749,
      "yl": 1750,
      "ĠFre": 1751,
      "ĠWebl": 1752,
      "ĠSystem": 1753,
      "chte": 1754,
      "ĠFamil": 1755,
      "eren": 1756,
      "igten": 1757,
      "ĠDi": 1758,
      "assung": 1759,
      "druck": 1760,
      "ĠWeblinks": 1761,
      "ĠWirtschaft": 1762,
      "vol": 1763,
      "euer": 1764,
      "ĠRad": 1765,
      "ĠOb": 1766,
      "Ã¤re": 1767,
      "ĠProdu": 1768,
      "hol": 1769,
      "Ã¡": 1770,
      "esse": 1771,
      "bung": 1772,
      "publik": 1773,
      "ats": 1774,
      "Ġalso": 1775,
      "eisten": 1776,
      "utt": 1777,
      "ĠmÃ¶glich": 1778,
      "italien": 1779,
      "ĠEd": 1780,
      "ĠCo": 1781,
      "mit": 1782,
      "so": 1783,
      "Ã¶t": 1784,
      "ĠBegriff": 1785,
      "ilitÃ¤r": 1786,
      "ĠGra": 1787,
      "prÃ¤": 1788,
      "ute": 1789,
      "sbesondere": 1790,
      "ies": 1791,
      "Ġbede": 1792,
      "Ġstark": 1793,
      "ĠUntern": 1794,
      "riv": 1795,
      "ĠIntern": 1796,
      "elte": 1797,
      "ĠJe": 1798,
      "ĠSal": 1799,
      "emal": 1800,
      "Ġur": 1801,
      "ĠHans": 1802,
      "ĠUniversitÃ¤t": 1803,
      "ĠPer": 1804,
      "ĠFuÃŁballspieler": 1805,
      "inen": 1806,
      "ament": 1807,
      "ĠFahr": 1808,
      "ĠBevÃ¶lker": 1809,
      "Ã¤hlt": 1810,
      "Ġ186": 1811,
      "zieh": 1812,
      "achen": 1813,
      "ichten": 1814,
      "ĠBedeut": 1815,
      "ore": 1816,
      "ign": 1817,
      "ritt": 1818,
      "ĠFlug": 1819,
      "ĠLebens": 1820,
      "ade": 1821,
      "Ġneue": 1822,
      "ĠOl": 1823,
      "vangel": 1824,
      "Ġinner": 1825,
      "von": 1826,
      "emat": 1827,
      "ĠFest": 1828,
      "schul": 1829,
      "reiche": 1830,
      "ĠHam": 1831,
      "ĠBar": 1832,
      "Ġ187": 1833,
      "Ã¤ft": 1834,
      "aher": 1835,
      "ĠHo": 1836,
      "ĠNew": 1837,
      "ĠDeutschen": 1838,
      "ampf": 1839,
      "ĠWahl": 1840,
      "stalt": 1841,
      "ĠMich": 1842,
      "ĠTex": 1843,
      "fern": 1844,
      "ĠKinder": 1845,
      "Ġmeist": 1846,
      "co": 1847,
      "Ã¤ufig": 1848,
      "ĠSchul": 1849,
      "ĠHaus": 1850,
      "Ġgilt": 1851,
      "Ġviele": 1852,
      "schluss": 1853,
      "isk": 1854,
      "rÃ¤ger": 1855,
      "ĠX": 1856,
      "trag": 1857,
      "itel": 1858,
      "ele": 1859,
      "ĠLuft": 1860,
      "folge": 1861,
      "Ġbekannt": 1862,
      "ĠÃĸsterreich": 1863,
      "setzung": 1864,
      "ĠDem": 1865,
      "Ġfrei": 1866,
      "ĠHistor": 1867,
      "we": 1868,
      "ĠRÃ¼ck": 1869,
      "Ġweit": 1870,
      "11": 1871,
      "Ġanderem": 1872,
      "Ġebenfalls": 1873,
      "ins": 1874,
      "Ġschon": 1875,
      "one": 1876,
      "30": 1877,
      "anten": 1878,
      "ĠSa": 1879,
      "ĠauÃŁer": 1880,
      "Ġjeweil": 1881,
      "techn": 1882,
      "Ã¼tz": 1883,
      "ĠHal": 1884,
      "wert": 1885,
      "ĠKirchen": 1886,
      "ĠAk": 1887,
      "ĠOrg": 1888,
      "ikt": 1889,
      "lei": 1890,
      "such": 1891,
      "aren": 1892,
      "Ġheut": 1893,
      "ĠZentr": 1894,
      "igte": 1895,
      "schule": 1896,
      "ĠKr": 1897,
      "Ġerw": 1898,
      "Ã¶rper": 1899,
      "furt": 1900,
      "ity": 1901,
      "wohner": 1902,
      "onders": 1903,
      "echs": 1904,
      "ĠBay": 1905,
      "ĠJohn": 1906,
      "ums": 1907,
      "Ġvoll": 1908,
      "Ġel": 1909,
      "indung": 1910,
      "deck": 1911,
      "ucht": 1912,
      "ĠStÃ¤d": 1913,
      "rop": 1914,
      "kir": 1915,
      "gesetz": 1916,
      "achweise": 1917,
      "ĠLud": 1918,
      "ĠEinzeln": 1919,
      "gende": 1920,
      "Ġengl": 1921,
      "ĠBedeutung": 1922,
      "Ã¤nge": 1923,
      "ven": 1924,
      "Ã¼ss": 1925,
      "ĠWill": 1926,
      "ĠEinzelnachweise": 1927,
      "gaben": 1928,
      "ych": 1929,
      "ĠBel": 1930,
      "ĠMag": 1931,
      "anzen": 1932,
      "gar": 1933,
      "alten": 1934,
      "ĠFranz": 1935,
      "ĠArbeit": 1936,
      "Ġneuen": 1937,
      "ograf": 1938,
      "fluss": 1939,
      "ĠStand": 1940,
      "lungen": 1941,
      "rÃ¤sident": 1942,
      "echn": 1943,
      "ĠÂ": 1944,
      "rank": 1945,
      "Ã¼nf": 1946,
      "ĠsÃ¼d": 1947,
      "heiten": 1948,
      "ĠEntwicklung": 1949,
      "ĠgroÃŁe": 1950,
      "ĠFrankreich": 1951,
      "Ġgenannt": 1952,
      "racht": 1953,
      "zir": 1954,
      "omit": 1955,
      "innen": 1956,
      "ions": 1957,
      "stellen": 1958,
      "istischen": 1959,
      "eitet": 1960,
      "ĠPartei": 1961,
      "Ġgest": 1962,
      "spielsweise": 1963,
      "Ġitalien": 1964,
      "fÃ¼hrung": 1965,
      "ichter": 1966,
      "ĠSel": 1967,
      "zeichnung": 1968,
      "ĠMitglied": 1969,
      "ĠVolks": 1970,
      "45": 1971,
      "Ġneben": 1972,
      "itzen": 1973,
      "Ġ2005": 1974,
      "Ġallerdings": 1975,
      "ĠgroÃŁen": 1976,
      "ĠLehr": 1977,
      "ĠGew": 1978,
      "ĠzunÃ¤chst": 1979,
      "ĠHol": 1980,
      "lichkeit": 1981,
      "hren": 1982,
      "200": 1983,
      "geschichte": 1984,
      "ĠBereich": 1985,
      "ĠBern": 1986,
      "egt": 1987,
      "Ġern": 1988,
      "genommen": 1989,
      "schnitt": 1990,
      "ĠErn": 1991,
      "Ġdiesen": 1992,
      "Ġverst": 1993,
      "Ġrund": 1994,
      "ase": 1995,
      "opp": 1996,
      "osition": 1997,
      "schrift": 1998,
      "ĠEigen": 1999,
      "Ã¤ten": 2000,
      "Ã¤us": 2001,
      "Ġ24": 2002,
      "ĠNeben": 2003,
      "ĠHerzog": 2004,
      "Ġob": 2005,
      "ĠLandkreis": 2006,
      "25": 2007,
      "Ġeinige": 2008,
      "ĠErz": 2009,
      "ĠStr": 2010,
      "nahmen": 2011,
      "ichts": 2012,
      "ack": 2013,
      "Ġehemal": 2014,
      "ix": 2015,
      "reuz": 2016,
      "irekt": 2017,
      "ĠPaul": 2018,
      "ĠAlt": 2019,
      ".âĢľ": 2020,
      "ĠNational": 2021,
      "Ġ2006": 2022,
      "ĠMaler": 2023,
      "ĠgegrÃ¼n": 2024,
      "iste": 2025,
      "ork": 2026,
      "ĠSchweizer": 2027,
      "nete": 2028,
      "ĠBahn": 2029,
      "In": 2030,
      "radition": 2031,
      "urn": 2032,
      "Ġbef": 2033,
      "Ġsol": 2034,
      "ĠJose": 2035,
      "ĠGebiet": 2036,
      "Ġ1990": 2037,
      "Ġunterschied": 2038,
      "ĠCl": 2039,
      "ĠSer": 2040,
      "ĠHil": 2041,
      "ĠWa": 2042,
      "ĠBerg": 2043,
      "rÃ¤n": 2044,
      "ĠHeil": 2045,
      "Ġ23": 2046,
      "ĠDan": 2047,
      "gramm": 2048,
      "iges": 2049,
      "kte": 2050,
      "Ġabge": 2051,
      "ĠGeneral": 2052,
      "ĠRu": 2053,
      "Ġ2007": 2054,
      "ĠRegel": 2055,
      "Ġkm": 2056,
      "Ġsteht": 2057,
      "Ġkein": 2058,
      "jahr": 2059,
      "schrei": 2060,
      "iven": 2061,
      "ĠEle": 2062,
      "ĠPap": 2063,
      "Ġaufge": 2064,
      "Ġwegen": 2065,
      "ink": 2066,
      "arm": 2067,
      "flÃ¤": 2068,
      "ĠKap": 2069,
      "fÃ¤l": 2070,
      "ĠTag": 2071,
      "Ġ21": 2072,
      "Ġdazu": 2073,
      "Ġhatten": 2074,
      "sych": 2075,
      "eig": 2076,
      "abhÃ¤ng": 2077,
      "ement": 2078,
      "Ġ(âĢŀ": 2079,
      "Ġbesteht": 2080,
      "Ġmeisten": 2081,
      "uren": 2082,
      "lÃ¤nd": 2083,
      "ĠLudwig": 2084,
      "ĠRegion": 2085,
      "ĠStaats": 2086,
      "ĠRaum": 2087,
      "Ġdieses": 2088,
      "Ġ2000": 2089,
      "Ġbeispielsweise": 2090,
      "ieg": 2091,
      "schein": 2092,
      "ative": 2093,
      "iver": 2094,
      "ingt": 2095,
      "omin": 2096,
      "Ġ22": 2097,
      "ĠrÃ¶m": 2098,
      "Ġmehrere": 2099,
      "ĠfranzÃ¶sischer": 2100,
      "ese": 2101,
      "eigt": 2102,
      "zeug": 2103,
      "fel": 2104,
      "mÃ¤ÃŁ": 2105,
      "schung": 2106,
      "Ġ2008": 2107,
      "unft": 2108,
      "Ġ2010": 2109,
      "wirtschaft": 2110,
      "ox": 2111,
      "Ã¤ss": 2112,
      "ĠHier": 2113,
      "80": 2114,
      "wendung": 2115,
      "Ġ26": 2116,
      "alitÃ¤t": 2117,
      "Ġsollte": 2118,
      "ppen": 2119,
      "jÃ¤hr": 2120,
      "ĠgegenÃ¼ber": 2121,
      "ĠMillionen": 2122,
      "straÃŁe": 2123,
      "ĠLei": 2124,
      "ĠKar": 2125,
      "ko": 2126,
      "An": 2127,
      "obei": 2128,
      "Ġsogen": 2129,
      "iken": 2130,
      "ĠGrÃ¼n": 2131,
      "ĠWÃ¤hrend": 2132,
      "ure": 2133,
      "verkehr": 2134,
      "Ġ2009": 2135,
      "ĠPerson": 2136,
      "ĠSc": 2137,
      "frei": 2138,
      "Ġinsbesondere": 2139,
      "othe": 2140,
      "Ġ2004": 2141,
      "ift": 2142,
      "eiÃŁ": 2143,
      "derung": 2144,
      "herr": 2145,
      "Ġnieder": 2146,
      "ĠStaaten": 2147,
      "schutz": 2148,
      "ĠGraf": 2149,
      "ienen": 2150,
      "ĠgrÃ¶ÃŁer": 2151,
      "ĠTran": 2152,
      "ĠAlex": 2153,
      "ĠAnfang": 2154,
      "ĠGeorg": 2155,
      "ĠGel": 2156,
      "sh": 2157,
      "Ġklein": 2158,
      "ĠPersonen": 2159,
      "frie": 2160,
      "hlen": 2161,
      "ommer": 2162,
      "apan": 2163,
      "sprÃ¼n": 2164,
      "âĢľ)": 2165,
      "zogen": 2166,
      "dent": 2167,
      "ĠSh": 2168,
      "system": 2169,
      "ĠFra": 2170,
      "Ġ&": 2171,
      "pfer": 2172,
      "ax": 2173,
      "Ġlang": 2174,
      "Ġ,": 2175,
      "ĠTer": 2176,
      "riften": 2177,
      "Ġwobei": 2178,
      "ĠfÃ¼nf": 2179,
      "Ã¼cke": 2180,
      "dert": 2181,
      "ane": 2182,
      "Ġ2011": 2183,
      "istische": 2184,
      "ordnung": 2185,
      "oc": 2186,
      "emie": 2187,
      "ĠAutor": 2188,
      "Ġerstmals": 2189,
      "ĠUSA": 2190,
      "dorf": 2191,
      "deten": 2192,
      "ĠCon": 2193,
      "Ġmuss": 2194,
      "ose": 2195,
      "ĠFr": 2196,
      "ĠfÃ¼hrte": 2197,
      "ĠBen": 2198,
      "utter": 2199,
      "ĠPat": 2200,
      "zept": 2201,
      "vent": 2202,
      "ĠÃ¤l": 2203,
      "inde": 2204,
      "Ġkommt": 2205,
      "Ġhand": 2206,
      "ĠWer": 2207,
      "ĠhÃ¤ufig": 2208,
      "ĠFunktion": 2209,
      "burger": 2210,
      "Ã¼nstler": 2211,
      "ĠWolf": 2212,
      "ĠAnd": 2213,
      "Ġnun": 2214,
      "Ġhistor": 2215,
      "ĠLie": 2216,
      "scheid": 2217,
      "volution": 2218,
      "Ġdarauf": 2219,
      "ierungs": 2220,
      "Ġind": 2221,
      "ĠMal": 2222,
      "bei": 2223,
      "Ġerhalten": 2224,
      "lauf": 2225,
      "PD": 2226,
      "Ġ2003": 2227,
      "minister": 2228,
      "ĠTem": 2229,
      "Ġbefindet": 2230,
      "ari": 2231,
      "duz": 2232,
      "ritten": 2233,
      "dens": 2234,
      "Ġ.": 2235,
      "ĠVerwalt": 2236,
      "utzt": 2237,
      "Ġerm": 2238,
      "ester": 2239,
      "fahrer": 2240,
      "ĠMart": 2241,
      "ĠTechn": 2242,
      "Ġseines": 2243,
      "tin": 2244,
      "Ġ28": 2245,
      "urm": 2246,
      "ĠKol": 2247,
      "Ġ/": 2248,
      "Ġ27": 2249,
      "ichtung": 2250,
      "sport": 2251,
      "okrat": 2252,
      "ael": 2253,
      "bereich": 2254,
      "ĠGesetz": 2255,
      "60": 2256,
      "obert": 2257,
      "ĠAlb": 2258,
      "jet": 2259,
      "ĠStein": 2260,
      "lan": 2261,
      "ĠMod": 2262,
      "Ã³": 2263,
      "ĠBis": 2264,
      "23": 2265,
      "ĠFrauen": 2266,
      "arz": 2267,
      "ĠErst": 2268,
      "ĠKn": 2269,
      "ĠWie": 2270,
      "48": 2271,
      "II": 2272,
      "ĠDabei": 2273,
      "ĠRa": 2274,
      "licht": 2275,
      "lag": 2276,
      "ichtet": 2277,
      "wort": 2278,
      "eth": 2279,
      "wand": 2280,
      "ĠProzent": 2281,
      "ehl": 2282,
      "Ġbegann": 2283,
      "ĠFrankfurt": 2284,
      "echsel": 2285,
      "ae": 2286,
      "ĠBetrieb": 2287,
      "Ġ[": 2288,
      "iell": 2289,
      "ĠFolge": 2290,
      "ĠBevÃ¶lkerung": 2291,
      "tag": 2292,
      "ĠMot": 2293,
      "ĠOtt": 2294,
      "Ġentsprechen": 2295,
      "ĠSchm": 2296,
      "Ġletzten": 2297,
      "ĠIt": 2298,
      "isse": 2299,
      "ielle": 2300,
      "eller": 2301,
      "uer": 2302,
      "fasst": 2303,
      "par": 2304,
      "Ġintern": 2305,
      "akter": 2306,
      "cker": 2307,
      "Ã¶st": 2308,
      "ai": 2309,
      "ĠParis": 2310,
      "Ġaufgrund": 2311,
      "ĠFall": 2312,
      "ĠKat": 2313,
      "Ġ180": 2314,
      "kung": 2315,
      "bli": 2316,
      "ĠGesellschaft": 2317,
      "DR": 2318,
      "ĠMax": 2319,
      "Ġerhielt": 2320,
      "sie": 2321,
      "bildung": 2322,
      "fra": 2323,
      "Ġ2012": 2324,
      "Ã¤ren": 2325,
      "ĠUnternehmen": 2326,
      "omb": 2327,
      "89": 2328,
      "rech": 2329,
      "Ġakt": 2330,
      "Ġ185": 2331,
      "):": 2332,
      "ĠEinwohner": 2333,
      "Ġreg": 2334,
      "Ġerrich": 2335,
      "stre": 2336,
      "aktion": 2337,
      "wissenschaft": 2338,
      "Ġdaher": 2339,
      "hre": 2340,
      "Ġ2002": 2341,
      "Ġblie": 2342,
      "Ġar": 2343,
      "ĠRhein": 2344,
      "ief": 2345,
      "orben": 2346,
      "22": 2347,
      "ĠEisen": 2348,
      "ĠÃ¼b": 2349,
      "ĠCarl": 2350,
      "ĠMark": 2351,
      "pen": 2352,
      "ĠverÃ¶ffentlich": 2353,
      "Ġrecht": 2354,
      "Ã¤ndern": 2355,
      "Ġgemeins": 2356,
      "Ġbesonders": 2357,
      "ĠVerkehr": 2358,
      "hÃ¶": 2359,
      "ĠEuropa": 2360,
      "rim": 2361,
      "ĠThom": 2362,
      "Ġeinzel": 2363,
      "ĠPhilosoph": 2364,
      "ĠWissenschaft": 2365,
      "ergie": 2366,
      "ĠDaten": 2367,
      "70": 2368,
      "port": 2369,
      "Ġ1945": 2370,
      "49": 2371,
      "int": 2372,
      "ile": 2373,
      "ĠRolle": 2374,
      "ise": 2375,
      "Ġkomp": 2376,
      "ĠRegierung": 2377,
      "rist": 2378,
      "ĠMor": 2379,
      "ĠAuflage": 2380,
      "teilt": 2381,
      "ĠSohn": 2382,
      "setzt": 2383,
      "igkeiten": 2384,
      "Ġ100": 2385,
      "Ġwest": 2386,
      "immen": 2387,
      "199": 2388,
      "ĠSozial": 2389,
      "Ġfinden": 2390,
      "bes": 2391,
      "eint": 2392,
      "Ġ2013": 2393,
      "Ã¤sst": 2394,
      "ĠWeltkrieg": 2395,
      "ĠSprache": 2396,
      "ĠDen": 2397,
      "Ġ2014": 2398,
      "ĠFrÃ¼": 2399,
      "ite": 2400,
      "west": 2401,
      "ĠRah": 2402,
      "ca": 2403,
      "ĠWort": 2404,
      "Ã¤ischen": 2405,
      "ĠSport": 2406,
      "tragen": 2407,
      "wegung": 2408,
      "Ġwelche": 2409,
      "ĠKommun": 2410,
      "ĠUl": 2411,
      "Ġhabe": 2412,
      "Ġ29": 2413,
      "Ġheraus": 2414,
      "omen": 2415,
      "athemat": 2416,
      "ĠAmer": 2417,
      "neh": 2418,
      "Ġfindet": 2419,
      "ĠHin": 2420,
      "ĠKu": 2421,
      "Ġverschiedenen": 2422,
      "ĠTon": 2423,
      "zÃ¼": 2424,
      "Ġ2001": 2425,
      "ĠSchauspielerin": 2426,
      "ĠKrit": 2427,
      "Ġentstanden": 2428,
      "ĠBÃ¼": 2429,
      "ka": 2430,
      "ĠKÃ¶l": 2431,
      "Ġfast": 2432,
      "ĠmÃ¼s": 2433,
      "ĠIns": 2434,
      "teilung": 2435,
      "liches": 2436,
      "fess": 2437,
      "bet": 2438,
      "bel": 2439,
      "Ġbr": 2440,
      "gesamt": 2441,
      "Ġem": 2442,
      "ustrie": 2443,
      "ĠInform": 2444,
      "Ġallen": 2445,
      "ias": 2446,
      "ĠSchn": 2447,
      "gart": 2448,
      "ekte": 2449,
      "ĠProv": 2450,
      "lungs": 2451,
      "Ġdeut": 2452,
      "ÃŃ": 2453,
      "organis": 2454,
      "bte": 2455,
      "weis": 2456,
      "ĠRelig": 2457,
      "yt": 2458,
      "ĠKan": 2459,
      "nungen": 2460,
      "ĠPolitik": 2461,
      "ĠBischof": 2462,
      "Un": 2463,
      "ve": 2464,
      "Ġ1980": 2465,
      "Ġinnerhalb": 2466,
      "Ġweil": 2467,
      "enzen": 2468,
      "Ã¤tze": 2469,
      "ĠComp": 2470,
      "Ġschwer": 2471,
      "ĠDeutsche": 2472,
      "ochen": 2473,
      "ĠZur": 2474,
      "ĠMichael": 2475,
      "treten": 2476,
      "ĠBed": 2477,
      "Ġmoder": 2478,
      "ĠDre": 2479,
      "Ġ2015": 2480,
      "ĠVerf": 2481,
      "wahl": 2482,
      "Ġlassen": 2483,
      "ĠRuss": 2484,
      "ĠJugend": 2485,
      "Ġruss": 2486,
      "hausen": 2487,
      "heits": 2488,
      "urs": 2489,
      "weit": 2490,
      "Ã¼ndung": 2491,
      "kan": 2492,
      "ĠStutt": 2493,
      "ammlung": 2494,
      "ĠDam": 2495,
      "yd": 2496,
      "hil": 2497,
      "Ã¶rd": 2498,
      "welt": 2499,
      "Ġihrem": 2500,
      "35": 2501,
      "Ġ1970": 2502,
      "itekt": 2503,
      "ĠRoman": 2504,
      "schlag": 2505,
      "lig": 2506,
      "ĠSan": 2507,
      "ole": 2508,
      "rid": 2509,
      "ĠGleich": 2510,
      "ĠPal": 2511,
      "iete": 2512,
      "ĠEur": 2513,
      "ĠThomas": 2514,
      "ĠDieser": 2515,
      "lang": 2516,
      "stens": 2517,
      "Ġspiel": 2518,
      "blem": 2519,
      "atten": 2520,
      "die": 2521,
      "ĠMehr": 2522,
      "Ġkommen": 2523,
      "ĠFach": 2524,
      "ĠfrÃ¼her": 2525,
      "los": 2526,
      "Ġ2016": 2527,
      "bo": 2528,
      "ĠerklÃ¤r": 2529,
      "iam": 2530,
      "ache": 2531,
      "ĠZiel": 2532,
      "ĠDav": 2533,
      "see": 2534,
      "Ġsozial": 2535,
      "Ã¤ude": 2536,
      "ĠRahmen": 2537,
      "ĠursprÃ¼n": 2538,
      "ĠIII": 2539,
      "Ġfor": 2540,
      "ĠStu": 2541,
      "Ġdavon": 2542,
      "zig": 2543,
      "ĠFin": 2544,
      "Ġsetz": 2545,
      "Ġerg": 2546,
      "Ġ2017": 2547,
      "ĠJahres": 2548,
      "ĠDes": 2549,
      "stitut": 2550,
      "immt": 2551,
      "kr": 2552,
      "ette": 2553,
      "itter": 2554,
      "sam": 2555,
      "ĠGu": 2556,
      "Ġwei": 2557,
      "Ġvielen": 2558,
      "ĠfÃ¼hrt": 2559,
      "ong": 2560,
      "ieten": 2561,
      "omat": 2562,
      "ruktur": 2563,
      "46": 2564,
      "Ġgesam": 2565,
      "ĠKÃ¼": 2566,
      "ollen": 2567,
      "Ġpol": 2568,
      "ĠErd": 2569,
      "ome": 2570,
      "ĠArbeits": 2571,
      "ĠRobert": 2572,
      "ĠSelbst": 2573,
      "ĠBeh": 2574,
      "denburg": 2575,
      "ĠVert": 2576,
      "glichen": 2577,
      "ĠInsel": 2578,
      "uter": 2579,
      "ĠÃ¶ff": 2580,
      "eicht": 2581,
      "ĠÃ¶sterreichischer": 2582,
      "ager": 2583,
      "spro": 2584,
      "Ġ2019": 2585,
      "ĠMain": 2586,
      "ĠwÃ¼r": 2587,
      "ĠFernse": 2588,
      "geord": 2589,
      "fest": 2590,
      "Ġkonnten": 2591,
      "riech": 2592,
      "neten": 2593,
      "ĠÃ¤hn": 2594,
      "peratur": 2595,
      "ĠElekt": 2596,
      "auch": 2597,
      "anischen": 2598,
      "usÃ¤tz": 2599,
      "Ġelekt": 2600,
      "ĠAuft": 2601,
      "Ġverschiedene": 2602,
      "86": 2603,
      "Ar": 2604,
      "arbeit": 2605,
      "ationalen": 2606,
      "Ġheutigen": 2607,
      "elten": 2608,
      "ital": 2609,
      "zeichen": 2610,
      "best": 2611,
      "ĠRechts": 2612,
      "ĠTitel": 2613,
      "reicht": 2614,
      "Ġverk": 2615,
      "Ã¶rt": 2616,
      "teten": 2617,
      "adurch": 2618,
      "uk": 2619,
      "ry": 2620,
      "ĠSin": 2621,
      "opf": 2622,
      "reten": 2623,
      "ica": 2624,
      "allen": 2625,
      "rauch": 2626,
      "dienst": 2627,
      "ĠChristian": 2628,
      "leben": 2629,
      "stag": 2630,
      "21": 2631,
      "ĠHamburg": 2632,
      "ĠWieder": 2633,
      "lt": 2634,
      "ĠPort": 2635,
      "itu": 2636,
      "ĠMuseum": 2637,
      "ĠBra": 2638,
      "Ġ2018": 2639,
      "weiter": 2640,
      "29": 2641,
      "ĠStuttgart": 2642,
      "amerikanische": 2643,
      "ĠhÃ¶her": 2644,
      "47": 2645,
      "Ġ50": 2646,
      "ĠMitte": 2647,
      "schau": 2648,
      "scheiden": 2649,
      "ĠYork": 2650,
      "iten": 2651,
      "Ġteilweise": 2652,
      "ĠTa": 2653,
      "Ġ2020": 2654,
      "arf": 2655,
      "aterial": 2656,
      "hle": 2657,
      "iens": 2658,
      "Ġeigenen": 2659,
      "ĠSen": 2660,
      "reuÃŁen": 2661,
      "Ġ1999": 2662,
      "ĠSil": 2663,
      "ĠCar": 2664,
      "wasser": 2665,
      "ĠKor": 2666,
      "Ġwes": 2667,
      "ille": 2668,
      "ĠJur": 2669,
      "oth": 2670,
      "27": 2671,
      "ĠDruck": 2672,
      "ĠKal": 2673,
      "ĠMilitÃ¤r": 2674,
      "Ġbedeuten": 2675,
      "ode": 2676,
      "ĠTra": 2677,
      "Ġbestehen": 2678,
      "met": 2679,
      "oz": 2680,
      "Ġstehen": 2681,
      "ĠSitz": 2682,
      "ĠSÃ¼": 2683,
      "ĠHeim": 2684,
      "rÃ¤gt": 2685,
      "ĠPhys": 2686,
      "Ġexist": 2687,
      "26": 2688,
      "Ġfand": 2689,
      "ĠFeld": 2690,
      "33": 2691,
      "gehen": 2692,
      "ĠEben": 2693,
      "ĠWohn": 2694,
      "ĠAp": 2695,
      "izin": 2696,
      "wiesen": 2697,
      "ĠlÃ¤sst": 2698,
      "ĠKriegs": 2699,
      "ĠWider": 2700,
      "Ġkurz": 2701,
      "ĠEinsatz": 2702,
      "Ġleben": 2703,
      "Sp": 2704,
      "ationale": 2705,
      "je": 2706,
      "ĠOper": 2707,
      "Ġ(=": 2708,
      "Ġjeweils": 2709,
      "ĠHar": 2710,
      "ĠgegrÃ¼ndet": 2711,
      "eitete": 2712,
      "ondon": 2713,
      "lÃ¤u": 2714,
      "platz": 2715,
      "ission": 2716,
      "Ã¼cken": 2717,
      "sprache": 2718,
      "ĠMarkt": 2719,
      "ĠBurg": 2720,
      "ĠStÃ¤dte": 2721,
      "ĠGeh": 2722,
      "Ġweniger": 2723,
      "Ġnie": 2724,
      "spiele": 2725,
      "Ġzeit": 2726,
      "richtung": 2727,
      "Ġ1960": 2728,
      "Ġsowohl": 2729,
      "ĠHof": 2730,
      "Ġzwar": 2731,
      "ĠZweiten": 2732,
      "Ġeurop": 2733,
      "sol": 2734,
      "achten": 2735,
      "Ġwelt": 2736,
      "ĠKil": 2737,
      "ĠSchweiz": 2738,
      "ĠEng": 2739,
      "eier": 2740,
      "ike": 2741,
      "wind": 2742,
      "ĠPa": 2743,
      "lieÃŁen": 2744,
      "ĠBru": 2745,
      "-,": 2746,
      "Ġitalienischer": 2747,
      "ĠOtto": 2748,
      "ĠSiehe": 2749,
      "Ġweiteren": 2750,
      "ĠBeginn": 2751,
      "ĠText": 2752,
      "sburg": 2753,
      "entlichen": 2754,
      "ĠSyn": 2755,
      "ĠFamilie": 2756,
      "ĠItalien": 2757,
      "ĠStre": 2758,
      "ĠDu": 2759,
      "ikel": 2760,
      "ĠgehÃ¶rt": 2761,
      "ĠRepublik": 2762,
      "han": 2763,
      "ĠMacht": 2764,
      "ĠEt": 2765,
      "ennfahrer": 2766,
      "ĠZeich": 2767,
      "lager": 2768,
      "ĠSchiff": 2769,
      "ilder": 2770,
      "Ġ31": 2771,
      "ĠErnst": 2772,
      "ĠverfÃ¼": 2773,
      "ĠgrÃ¶ÃŁten": 2774,
      "Ã¤chlich": 2775,
      "36": 2776,
      "ikation": 2777,
      "ĠGo": 2778,
      "ĠRich": 2779,
      "ĠMartin": 2780,
      "zeitig": 2781,
      "Ġ2021": 2782,
      "Ġihnen": 2783,
      "28": 2784,
      "bek": 2785,
      "alist": 2786,
      "ĠFer": 2787,
      "ĠAnder": 2788,
      "ĠListe": 2789,
      "ski": 2790,
      "ĠStraÃŁen": 2791,
      "bliothe": 2792,
      "ufen": 2793,
      "oster": 2794,
      "Ġschn": 2795,
      "ĠHen": 2796,
      "ĠArten": 2797,
      "engl": 2798,
      "ĠGemeinden": 2799,
      "ĠAng": 2800,
      "Ġarb": 2801,
      "Ġ179": 2802,
      "rotz": 2803,
      "Ġzahlreiche": 2804,
      "ĠDon": 2805,
      "echt": 2806,
      "ifiz": 2807,
      "ĠLondon": 2808,
      "ĠBezeichnung": 2809,
      "ĠOrganis": 2810,
      "fred": 2811,
      "Ġwahr": 2812,
      "ĠAmt": 2813,
      "37": 2814,
      "ĠHerrschaft": 2815,
      "ĠSol": 2816,
      "Ġant": 2817,
      "Ã¤dag": 2818,
      "Ã¼rt": 2819,
      "Ġ1998": 2820,
      "gangen": 2821,
      "Ġangeb": 2822,
      "iegel": 2823,
      "39": 2824,
      "hang": 2825,
      "Ġvers": 2826,
      "gten": 2827,
      "bare": 2828,
      "ĠJohannes": 2829,
      "orge": 2830,
      "Ġbritischer": 2831,
      "Ġwichtig": 2832,
      "Ġoffen": 2833,
      "ote": 2834,
      "inzip": 2835,
      "Ġsog": 2836,
      "iellen": 2837,
      "reuÃŁ": 2838,
      "gelegt": 2839,
      "aur": 2840,
      "atein": 2841,
      "ith": 2842,
      "tum": 2843,
      "Ġzweiten": 2844,
      "Ġspez": 2845,
      "les": 2846,
      "ĠRes": 2847,
      "baren": 2848,
      "abr": 2849,
      "ĠAkt": 2850,
      "etten": 2851,
      "ĠPlatz": 2852,
      "ĠZug": 2853,
      "wÃ¤r": 2854,
      "ĠVerm": 2855,
      "ĠSachsen": 2856,
      "ĠIde": 2857,
      "Ġging": 2858,
      "gehend": 2859,
      "ĠTruppen": 2860,
      "Ã¼rz": 2861,
      "38": 2862,
      "ĠWeg": 2863,
      "gef": 2864,
      "yer": 2865,
      "Ġdeutlich": 2866,
      "ĠKern": 2867,
      "Ġlange": 2868,
      "ĠReichs": 2869,
      "ĠKlein": 2870,
      "ographie": 2871,
      "unt": 2872,
      "stÃ¼tz": 2873,
      "Ã¤nden": 2874,
      "ĠlieÃŁ": 2875,
      "alz": 2876,
      "amb": 2877,
      "ĠschlieÃŁlich": 2878,
      "ĠAuÃŁer": 2879,
      "Ġganz": 2880,
      "ors": 2881,
      "ĠKraft": 2882,
      "enze": 2883,
      "nahm": 2884,
      "Ã¶sung": 2885,
      "ĠgehÃ¶ren": 2886,
      "ino": 2887,
      "ĠGeist": 2888,
      "ice": 2889,
      "Ġentstand": 2890,
      "rug": 2891,
      "rigen": 2892,
      "fahrt": 2893,
      "lam": 2894,
      "ĠWald": 2895,
      "ĠPrÃ¤": 2896,
      "Ġeinfach": 2897,
      "test": 2898,
      "stÃ¤ndig": 2899,
      "Ġeingesetzt": 2900,
      "Ã¶tt": 2901,
      "Ġfl": 2902,
      "polit": 2903,
      "ĠRen": 2904,
      "Ġhinaus": 2905,
      "schaffen": 2906,
      "ĠLeip": 2907,
      "ĠTheater": 2908,
      "ĠEp": 2909,
      "Ġbew": 2910,
      "hÃ¤ltnis": 2911,
      "Ã¤mpf": 2912,
      "ĠGruppe": 2913,
      "ĠGesamt": 2914,
      "Ġbed": 2915,
      "esser": 2916,
      "ĠEinfluss": 2917,
      "24": 2918,
      "ĠSÃ¤nger": 2919,
      "ĠFort": 2920,
      "flÃ¤che": 2921,
      "staat": 2922,
      "stellungen": 2923,
      "Ġgeht": 2924,
      "ĠHÃ¶he": 2925,
      "kirche": 2926,
      "Pro": 2927,
      "ĠStat": 2928,
      "Ġevangel": 2929,
      "ennung": 2930,
      "ĠWar": 2931,
      "Ġinter": 2932,
      "baut": 2933,
      "Ġeinigen": 2934,
      "inal": 2935,
      "isiert": 2936,
      "obil": 2937,
      "ines": 2938,
      "reise": 2939,
      "ĠName": 2940,
      "ĠZum": 2941,
      "ĠDrei": 2942,
      "up": 2943,
      "Ã¼hrung": 2944,
      "ĠnÃ¶rd": 2945,
      "ĠKÃ¶ln": 2946,
      "Ġ40": 2947,
      "ĠgrÃ¼n": 2948,
      "arakter": 2949,
      "nach": 2950,
      "grÃ¶": 2951,
      "ymp": 2952,
      "ull": 2953,
      "ĠEnergie": 2954,
      "ĠKreuz": 2955,
      "ĠGebur": 2956,
      "gesehen": 2957,
      "ĠJoseph": 2958,
      "res": 2959,
      "ĠWert": 2960,
      "ĠHann": 2961,
      "75": 2962,
      "also": 2963,
      "ĠBezir": 2964,
      "ames": 2965,
      "ĠBayern": 2966,
      "ara": 2967,
      "arlament": 2968,
      "ologische": 2969,
      "ue": 2970,
      "ĠHel": 2971,
      "ĠSchutz": 2972,
      "ĠWerke": 2973,
      "ĠMaria": 2974,
      "ĠLauf": 2975,
      "line": 2976,
      "immung": 2977,
      "kten": 2978,
      "Ġvert": 2979,
      "ĠAnton": 2980,
      "mee": 2981,
      "Ġfolgenden": 2982,
      "ĠSeite": 2983,
      "ĠdafÃ¼r": 2984,
      "Ġâ": 2985,
      "Ġca": 2986,
      "ĠAndre": 2987,
      "fried": 2988,
      "fÃ¤h": 2989,
      "weisen": 2990,
      "ĠSchlacht": 2991,
      "ikal": 2992,
      "Ġ1994": 2993,
      "geber": 2994,
      "ĠWeitere": 2995,
      "Ġblieb": 2996,
      "zess": 2997,
      "Ġverbunden": 2998,
      "79": 2999,
      "beh": 3000,
      "des": 3001,
      "wehr": 3002,
      "ĠVolk": 3003,
      "Ġsechs": 3004,
      "anstalt": 3005,
      "stÃ¤t": 3006,
      "berger": 3007,
      "Ġ1996": 3008,
      "ĠBad": 3009,
      "siehe": 3010,
      "ĠJourn": 3011,
      "ĠWahr": 3012,
      "Ġgelang": 3013,
      "rief": 3014,
      "haft": 3015,
      "Ġfort": 3016,
      "ĠMÃ¶glich": 3017,
      "itÃ¤ten": 3018,
      "Ġhoch": 3019,
      "Ġverbrei": 3020,
      "ĠKÃ¶rper": 3021,
      "isierung": 3022,
      "gefÃ¼hrt": 3023,
      "was": 3024,
      "ĠDDR": 3025,
      "ja": 3026,
      "ĠAlter": 3027,
      "spruch": 3028,
      "Ġverh": 3029,
      "ĠBon": 3030,
      "schiff": 3031,
      "Ġnahm": 3032,
      "ĠAlexander": 3033,
      "ĠGrÃ¶": 3034,
      "Ġsiehe": 3035,
      "osten": 3036,
      "ikanischen": 3037,
      "Ġkathol": 3038,
      "Ġ1991": 3039,
      "ĠRud": 3040,
      "ĠMÃ¤n": 3041,
      "Al": 3042,
      "ĠPhilipp": 3043,
      "eder": 3044,
      "ometer": 3045,
      "ĠProduktion": 3046,
      "Ġ1997": 3047,
      "uth": 3048,
      "ĠKÃ¼nstler": 3049,
      "44": 3050,
      "76": 3051,
      "ĠZust": 3052,
      "Äģ": 3053,
      "anische": 3054,
      "Ġ1989": 3055,
      "auft": 3056,
      "ĠSpe": 3057,
      "85": 3058,
      "ĠSommer": 3059,
      "usst": 3060,
      "ĠZwischen": 3061,
      "wald": 3062,
      "Ġ1995": 3063,
      "ĠNorden": 3064,
      "ĠMathemat": 3065,
      "ton": 3066,
      "alle": 3067,
      "ĠRichard": 3068,
      "ĠDamit": 3069,
      "Ġschl": 3070,
      "lav": 3071,
      "ĠEhren": 3072,
      "ain": 3073,
      "ĠWind": 3074,
      "ammer": 3075,
      "âĢĺ": 3076,
      "ĠzusÃ¤tz": 3077,
      "ĠNation": 3078,
      "Ġ1950": 3079,
      "190": 3080,
      "elativ": 3081,
      "ranken": 3082,
      "Ġbisher": 3083,
      "ĠhÃ¶ch": 3084,
      "ĠDienst": 3085,
      "ĠmÃ¼ssen": 3086,
      "stelle": 3087,
      "Ġmusste": 3088,
      "Ġne": 3089,
      "Ġdenn": 3090,
      "anien": 3091,
      "ĠSicher": 3092,
      "werke": 3093,
      "dig": 3094,
      "ĠSeine": 3095,
      "Ġstand": 3096,
      "Ġerf": 3097,
      "rakt": 3098,
      "bruch": 3099,
      "Ã¨": 3100,
      "ĠArchitekt": 3101,
      "folg": 3102,
      "Ġ1992": 3103,
      "Ã¼lt": 3104,
      "steil": 3105,
      "31": 3106,
      "asen": 3107,
      "ĠSied": 3108,
      "ana": 3109,
      "okument": 3110,
      "ĠWal": 3111,
      "Ġerfolg": 3112,
      "ĠRein": 3113,
      "achte": 3114,
      "ĠGed": 3115,
      "Ġsomit": 3116,
      "ĠHochschul": 3117,
      "Ġbilden": 3118,
      "ĠSein": 3119,
      "ĠFil": 3120,
      "Ġbrach": 3121,
      "ĠIl": 3122,
      "ets": 3123,
      "ĠMutter": 3124,
      "fÃ¶r": 3125,
      "ĠNor": 3126,
      "Ġblei": 3127,
      "ĠVater": 3128,
      "Ã¤uÃŁer": 3129,
      "ĠTe": 3130,
      "ĠVerwaltungs": 3131,
      "reifen": 3132,
      "ymb": 3133,
      "ĠOn": 3134,
      "ĠAs": 3135,
      "chten": 3136,
      "Ġ1993": 3137,
      "Ġwirtschaft": 3138,
      "ĠEinzel": 3139,
      "Ġerreich": 3140,
      "ros": 3141,
      "ĠLeist": 3142,
      "ict": 3143,
      "anken": 3144,
      "sph": 3145,
      "uther": 3146,
      "ĠgrÃ¶ÃŁte": 3147,
      "di": 3148,
      "ĠSow": 3149,
      "ĠSee": 3150,
      "ĠBoden": 3151,
      "34": 3152,
      "ĠWilliam": 3153,
      "get": 3154,
      "Ġgut": 3155,
      "Ġeigene": 3156,
      "eiger": 3157,
      "ĠfranzÃ¶sischen": 3158,
      "reiben": 3159,
      "issenschaften": 3160,
      "ling": 3161,
      "ĠNot": 3162,
      "Ġinsgesamt": 3163,
      "tex": 3164,
      "Ġnahe": 3165,
      "orp": 3166,
      "ume": 3167,
      "Ġ2022": 3168,
      "rÃ¤ge": 3169,
      "ĠCharl": 3170,
      "itten": 3171,
      "yth": 3172,
      "ĠErk": 3173,
      "forder": 3174,
      "struktur": 3175,
      "ĠMinister": 3176,
      "Ġqu": 3177,
      "ĠPfl": 3178,
      "onnen": 3179,
      "haupt": 3180,
      "folger": 3181,
      "rÃ¤sent": 3182,
      "beg": 3183,
      "eis": 3184,
      "erner": 3185,
      "use": 3186,
      "ĠPapst": 3187,
      "189": 3188,
      "ĠPlan": 3189,
      "ĠSeiten": 3190,
      "ward": 3191,
      "ierenden": 3192,
      "ĠTeile": 3193,
      "Ġehemaligen": 3194,
      "ĠBu": 3195,
      "Ġung": 3196,
      "ĠOs": 3197,
      "Ġerk": 3198,
      "schlieÃŁ": 3199,
      "ĠBÃ¼rgermeister": 3200,
      "ĠRegen": 3201,
      "indungen": 3202,
      "schlieÃŁlich": 3203,
      "Ġdoch": 3204,
      "itze": 3205,
      "ĠHolz": 3206,
      "196": 3207,
      "ĠEhe": 3208,
      "ĠMil": 3209,
      "88": 3210,
      "ĠVar": 3211,
      "Ġpolitischen": 3212,
      "bischof": 3213,
      "ĠWeb": 3214,
      "ĠKont": 3215,
      "ĠEuro": 3216,
      "ime": 3217,
      "ĠLage": 3218,
      "ĠHermann": 3219,
      "ĠKÃ¶nigs": 3220,
      "gebaut": 3221,
      "ĠDreh": 3222,
      "Ġoffiz": 3223,
      "ĠTour": 3224,
      "wart": 3225,
      "ĠFar": 3226,
      "ĠProblem": 3227,
      "Ġzunehmen": 3228,
      "mÃ¤ÃŁig": 3229,
      "ĠMaÃŁ": 3230,
      "ware": 3231,
      "Ġdamals": 3232,
      "ĠPriv": 3233,
      "Ã¤ngen": 3234,
      "Ġhervor": 3235,
      "Ġgelegen": 3236,
      "ĠgewÃ¤hlt": 3237,
      "ĠKant": 3238,
      "Ġallgemein": 3239,
      "Ġzeigt": 3240,
      "ĠProgramm": 3241,
      "iber": 3242,
      "ĠRot": 3243,
      "Ġsogar": 3244,
      "ĠTri": 3245,
      "ande": 3246,
      "formen": 3247,
      "heorie": 3248,
      "ĠPsych": 3249,
      "utet": 3250,
      "ĠWinter": 3251,
      "over": 3252,
      "fert": 3253,
      "leist": 3254,
      "ima": 3255,
      "produ": 3256,
      "seit": 3257,
      "lecht": 3258,
      "ĠfÃ¼hren": 3259,
      "rÃ¤sidenten": 3260,
      "ĠGold": 3261,
      "ĠMeer": 3262,
      "ĠAg": 3263,
      "Ġober": 3264,
      "igit": 3265,
      "alsozial": 3266,
      "Ġkur": 3267,
      "Ġliegen": 3268,
      "Ġdarunter": 3269,
      "Ġpoln": 3270,
      "ĠLicht": 3271,
      "nehmen": 3272,
      "Ġdirekt": 3273,
      "Ġper": 3274,
      "Ã¤cht": 3275,
      "Ġalten": 3276,
      "ĠâĢļ": 3277,
      "ĠLeipzig": 3278,
      "ĠErgeb": 3279,
      "part": 3280,
      "Ġpers": 3281,
      "Ġselten": 3282,
      "ĠUniversity": 3283,
      "ennen": 3284,
      "ĠAmts": 3285,
      "ĠAc": 3286,
      "ĠAbs": 3287,
      "32": 3288,
      "Ġklass": 3289,
      "zeuge": 3290,
      "ĠBÃ¶": 3291,
      "zehn": 3292,
      "Ġstellt": 3293,
      "ĠWolfgang": 3294,
      "deutsch": 3295,
      "Ġhandelt": 3296,
      "ĠDort": 3297,
      "Ġerster": 3298,
      "ĠGef": 3299,
      "iqu": 3300,
      "Ġentwickelte": 3301,
      "temberg": 3302,
      "Ã¤te": 3303,
      "verein": 3304,
      "wiegend": 3305,
      "isseur": 3306,
      "ĠVerwendung": 3307,
      "ĠBeruf": 3308,
      "wesen": 3309,
      "59": 3310,
      "tens": 3311,
      "da": 3312,
      "ĠMitglieder": 3313,
      "atÃ¼r": 3314,
      "ĠMeter": 3315,
      "aff": 3316,
      "Ġentwickelt": 3317,
      "ĠMer": 3318,
      "ĠRichtung": 3319,
      "Ã¼sse": 3320,
      "ĠerÃ¶ff": 3321,
      "tere": 3322,
      "ĠTyp": 3323,
      "kraft": 3324,
      "anischer": 3325,
      "ĠDichter": 3326,
      "ĠAuÃŁen": 3327,
      "ĠBran": 3328,
      "ĠArn": 3329,
      "ama": 3330,
      "ĠGegensatz": 3331,
      "treter": 3332,
      "77": 3333,
      "ĠFamilien": 3334,
      "ĠUntersuch": 3335,
      "uchs": 3336,
      "ĠAst": 3337,
      "ĠStruktur": 3338,
      "ĠSam": 3339,
      "lÃ¤ss": 3340,
      "ĠSchloss": 3341,
      "gruppe": 3342,
      "ochter": 3343,
      "ografie": 3344,
      "schinen": 3345,
      "ĠÃ¤uÃŁer": 3346,
      "ĠAuÃŁerdem": 3347,
      "ĠBro": 3348,
      "ĠForsch": 3349,
      "Ã¤s": 3350,
      "ĠTrans": 3351,
      "ologischen": 3352,
      "ep": 3353,
      "ĠKampf": 3354,
      "Ã¶hn": 3355,
      "ĠHor": 3356,
      "Ġgriech": 3357,
      "ĠHinter": 3358,
      "low": 3359,
      "ĠKrie": 3360,
      "Ġwoll": 3361,
      "flug": 3362,
      "Ã¼gel": 3363,
      "ĠgeprÃ¤": 3364,
      "Ġstar": 3365,
      "prochen": 3366,
      "tegr": 3367,
      "ĠSÃ¼den": 3368,
      "lass": 3369,
      "iment": 3370,
      "ĠVerbindung": 3371,
      "Ġ1988": 3372,
      "ĠTage": 3373,
      "bliothek": 3374,
      "Ġstellte": 3375,
      "ĠFlÃ¤": 3376,
      "ĠWor": 3377,
      "etter": 3378,
      "Ġzuvor": 3379,
      "55": 3380,
      "opul": 3381,
      "ola": 3382,
      "Ġzehn": 3383,
      "ĠMedien": 3384,
      "Ġhohen": 3385,
      "ĠReihe": 3386,
      "aly": 3387,
      "arbeiter": 3388,
      "windigkeit": 3389,
      "ĠHei": 3390,
      "ĠTrÃ¤ger": 3391,
      "ĠNutz": 3392,
      "Ġzentr": 3393,
      "lehr": 3394,
      "voll": 3395,
      "ante": 3396,
      "ĠNetz": 3397,
      "ĠTradition": 3398,
      "Ġget": 3399,
      "ĠKolon": 3400,
      "Ġor": 3401,
      "ĠLang": 3402,
      "ĠGottes": 3403,
      "Åį": 3404,
      "ĠMess": 3405,
      "iti": 3406,
      "ĠheiÃŁ": 3407,
      "ĠStudien": 3408,
      "gebung": 3409,
      "gra": 3410,
      "denk": 3411,
      "gesellschaft": 3412,
      "ars": 3413,
      "Ã¶sen": 3414,
      "ment": 3415,
      "wor": 3416,
      "tlich": 3417,
      "ĠWein": 3418,
      "uel": 3419,
      "Ġbekannte": 3420,
      "ical": 3421,
      "ativen": 3422,
      "ademie": 3423,
      "bed": 3424,
      "win": 3425,
      "ĠFeuer": 3426,
      "ĠAnzahl": 3427,
      "ĠGest": 3428,
      "ĠâĢł": 3429,
      "ierungen": 3430,
      "republik": 3431,
      "ĠProvinz": 3432,
      "ĠNr": 3433,
      "ĠFÃ¼rst": 3434,
      "zentrum": 3435,
      "antin": 3436,
      "hafen": 3437,
      "ĠKloster": 3438,
      "chter": 3439,
      "Ġmehreren": 3440,
      "ĠRest": 3441,
      "Ġgenutzt": 3442,
      "schei": 3443,
      "grenz": 3444,
      "sver": 3445,
      "ĠGruppen": 3446,
      "ĠfranzÃ¶sische": 3447,
      "osit": 3448,
      "42": 3449,
      "Ġwenig": 3450,
      "ĠDavid": 3451,
      "Ġkrit": 3452,
      "ĠOsten": 3453,
      "Ġamer": 3454,
      "law": 3455,
      "Ġsetzte": 3456,
      "scht": 3457,
      "ĠWalter": 3458,
      "igur": 3459,
      "ĠJean": 3460,
      "ĠHum": 3461,
      "ĠerwÃ¤hn": 3462,
      "komm": 3463,
      "Ġ1987": 3464,
      "ĠNÃ¤": 3465,
      "Ġzudem": 3466,
      "pel": 3467,
      "ĠSold": 3468,
      ".:": 3469,
      "Ġregel": 3470,
      "ĠBaden": 3471,
      "heb": 3472,
      "ema": 3473,
      "schriften": 3474,
      "ĠjÃ¼d": 3475,
      "Ġform": 3476,
      "af": 3477,
      "reig": 3478,
      "Ġerreicht": 3479,
      "itsch": 3480,
      "barkeit": 3481,
      "alb": 3482,
      "Ġwohl": 3483,
      "Ġeher": 3484,
      "ĠWesten": 3485,
      "mitt": 3486,
      "gegeben": 3487,
      "Ġkamen": 3488,
      "ĠMittelalter": 3489,
      "Ã¼rk": 3490,
      "Die": 3491,
      "ĠRegie": 3492,
      "ĠPo": 3493,
      "ĠAnteil": 3494,
      "ĠGebÃ¤ude": 3495,
      "ĠFot": 3496,
      "ĠÃ¤lte": 3497,
      "Ġgewesen": 3498,
      "Er": 3499,
      "lingen": 3500,
      "zi": 3501,
      "sehen": 3502,
      "mund": 3503,
      "ĠPress": 3504,
      "uchen": 3505,
      "Ġeinzelnen": 3506,
      "Ġzerst": 3507,
      "Ã¼tzen": 3508,
      "Ġph": 3509,
      "ata": 3510,
      "ĠBildung": 3511,
      "Ġetwas": 3512,
      "Ġhinter": 3513,
      "43": 3514,
      "Ġverein": 3515,
      "Ġtrat": 3516,
      "Ġ1986": 3517,
      "Ġerrichtet": 3518,
      "Ã¼ter": 3519,
      "Ġpolitische": 3520,
      "ĠHilfe": 3521,
      "reibt": 3522,
      "Ġabgel": 3523,
      "Ã¤lfte": 3524,
      "ĠTheologe": 3525,
      "ches": 3526,
      "ĠSprachen": 3527,
      "innt": 3528,
      "Ġlag": 3529,
      "ingungen": 3530,
      "ĠRat": 3531,
      "ĠFir": 3532,
      "handen": 3533,
      "ĠBezieh": 3534,
      "ĠReform": 3535,
      "ini": 3536,
      "acher": 3537,
      "rÃ¤fte": 3538,
      "abel": 3539,
      "Ġis": 3540,
      "90": 3541,
      "ĠRevolution": 3542,
      "altung": 3543,
      "ĠBek": 3544,
      "ĠParlament": 3545,
      "ildet": 3546,
      "Ġ1985": 3547,
      "ĠhÃ¤t": 3548,
      "ĠViel": 3549,
      "ĠZÃ¼r": 3550,
      "hÃ¤us": 3551,
      "ĠVergleich": 3552,
      "iffer": 3553,
      "ĠKÃ¶nigreich": 3554,
      "ĠniederlÃ¤nd": 3555,
      "Ġwissenschaft": 3556,
      "ĠInstitut": 3557,
      "ĠÃ¶st": 3558,
      "wagen": 3559,
      "andt": 3560,
      "ley": 3561,
      "uelle": 3562,
      "emente": 3563,
      "attung": 3564,
      "din": 3565,
      "assungs": 3566,
      "ĠfrÃ¼hen": 3567,
      "ĠInnen": 3568,
      "fÃ¼hrer": 3569,
      "ĠGlau": 3570,
      "Ġtechn": 3571,
      "frika": 3572,
      "ĠPrÃ¤sident": 3573,
      "Ġjapan": 3574,
      "Ġ1984": 3575,
      "Ġempf": 3576,
      "Ġnot": 3577,
      "Ġ:": 3578,
      "ĠEnd": 3579,
      "ilien": 3580,
      "schech": 3581,
      "Ġsogenannten": 3582,
      "Ġ1933": 3583,
      "ĠRussland": 3584,
      "ĠHalb": 3585,
      "film": 3586,
      "Ġ1972": 3587,
      "ance": 3588,
      "ĠBerliner": 3589,
      "steh": 3590,
      "ĠTor": 3591,
      "Ã¼rttemberg": 3592,
      "ĠFrage": 3593,
      "ĠHeimat": 3594,
      "Ġtradition": 3595,
      "ĠEreig": 3596,
      "uche": 3597,
      "reffen": 3598,
      "Ġrelativ": 3599,
      "bÃ¼rger": 3600,
      "ĠGi": 3601,
      "ĠheiÃŁt": 3602,
      "Ġdadurch": 3603,
      "ĠPra": 3604,
      "mod": 3605,
      "gress": 3606,
      "ĠZusammenhang": 3607,
      "ĠSim": 3608,
      "Ġgenau": 3609,
      "ĠmilitÃ¤r": 3610,
      "ĠIndustrie": 3611,
      "ash": 3612,
      "Ġstamm": 3613,
      "Ġgelten": 3614,
      "ierende": 3615,
      "bten": 3616,
      "preis": 3617,
      "Ġbezeich": 3618,
      "ĠzÃ¤hl": 3619,
      "aÃŁ": 3620,
      "hung": 3621,
      "unkte": 3622,
      "ĠReligion": 3623,
      "ĠSinne": 3624,
      "ĠStell": 3625,
      "ĠVereinigten": 3626,
      "ĠBeit": 3627,
      "ĠWiderstand": 3628,
      "igungs": 3629,
      "last": 3630,
      "ĠIr": 3631,
      "ĠFÃ¤l": 3632,
      "ĠMos": 3633,
      "unn": 3634,
      "ienten": 3635,
      "Ġ1974": 3636,
      "ĠZentrum": 3637,
      "ĠBesch": 3638,
      "ragen": 3639,
      "undes": 3640,
      "Ġbefinden": 3641,
      "ĠEngland": 3642,
      "ĠStraÃŁe": 3643,
      "ĠAlbert": 3644,
      "ĠSalz": 3645,
      "mo": 3646,
      "56": 3647,
      "ĠRegierungs": 3648,
      "ĠArmee": 3649,
      "Ġ1969": 3650,
      "Ġdefin": 3651,
      "Ġ1975": 3652,
      "Ġmittler": 3653,
      "Ġdamal": 3654,
      "aw": 3655,
      "ĠTemperatur": 3656,
      "iums": 3657,
      "anad": 3658,
      "Ġgez": 3659,
      "Ã¼tzt": 3660,
      "Ġerschien": 3661,
      "ĠGeld": 3662,
      "Ġjeder": 3663,
      "Ġdan": 3664,
      "ois": 3665,
      "ustr": 3666,
      "Ġebenso": 3667,
      "ĠkÃ¶nn": 3668,
      "Ġ1982": 3669,
      "ĠEvangel": 3670,
      "Ã¼hl": 3671,
      "ĠDieses": 3672,
      "ĠBor": 3673,
      "Ġ1976": 3674,
      "Ġversch": 3675,
      "Ġend": 3676,
      "ĠJuden": 3677,
      "bs": 3678,
      "mon": 3679,
      "ivid": 3680,
      "ĠunabhÃ¤ng": 3681,
      "ĠAss": 3682,
      "ĠMensch": 3683,
      "richtungen": 3684,
      "zy": 3685,
      "Verlag": 3686,
      "englisch": 3687,
      "Ġsieben": 3688,
      "altet": 3689,
      "Ġ1979": 3690,
      "Ġ60": 3691,
      "antwort": 3692,
      "kunft": 3693,
      "ĠDom": 3694,
      "ĠPost": 3695,
      "rennfahrer": 3696,
      "ĠLou": 3697,
      "ĠOffiz": 3698,
      "ĠJes": 3699,
      "ritann": 3700,
      "ĠSieg": 3701,
      "ĠFluss": 3702,
      "ĠQuellen": 3703,
      "ĠRudolf": 3704,
      "spekt": 3705,
      "Ġnord": 3706,
      "angs": 3707,
      "lehrer": 3708,
      "urg": 3709,
      "abil": 3710,
      "ĠNachdem": 3711,
      "itzt": 3712,
      "ĠstÃ¤r": 3713,
      "wÃ¼r": 3714,
      "ric": 3715,
      "Ġ1968": 3716,
      "Ġhohe": 3717,
      "ĠVen": 3718,
      "ham": 3719,
      "kel": 3720,
      "press": 3721,
      "azz": 3722,
      "ĠMel": 3723,
      "Ġ1983": 3724,
      "Ġ()": 3725,
      "Ġindem": 3726,
      "ĠRed": 3727,
      "41": 3728,
      "eira": 3729,
      "kur": 3730,
      "ĠTochter": 3731,
      "ibel": 3732,
      "ensch": 3733,
      "Ġchrist": 3734,
      "oret": 3735,
      "ĠTier": 3736,
      "ĠVertrag": 3737,
      "ĠIV": 3738,
      "ĠEisenbahn": 3739,
      "ĠModer": 3740,
      "ĠpreuÃŁ": 3741,
      "anc": 3742,
      "Ġletzte": 3743,
      "ĠÃĸff": 3744,
      "Ġ1973": 3745,
      "aufen": 3746,
      "schreibung": 3747,
      "funktion": 3748,
      "alog": 3749,
      "fan": 3750,
      "Ġunterst": 3751,
      "ierter": 3752,
      "herap": 3753,
      "ĠKritik": 3754,
      "istik": 3755,
      "Ġzweite": 3756,
      "inner": 3757,
      "Ġbetrach": 3758,
      "ary": 3759,
      "orth": 3760,
      "ĠOp": 3761,
      "ĠursprÃ¼nglich": 3762,
      "87": 3763,
      "ĠKind": 3764,
      "ĠSchwe": 3765,
      "ymbol": 3766,
      "merk": 3767,
      "ĠMetho": 3768,
      "ĠSchÃ¶n": 3769,
      "fÃ¼hren": 3770,
      "ĠNik": 3771,
      "ĠAller": 3772,
      "erseits": 3773,
      "ĠLÃ¶": 3774,
      "bus": 3775,
      "scheidung": 3776,
      "ĠPark": 3777,
      "Ġdi": 3778,
      "ĠTest": 3779,
      "Ġerfolgte": 3780,
      "Ġfolgende": 3781,
      "Ġgegeben": 3782,
      "ĠAngel": 3783,
      "funk": 3784,
      "ĠKonz": 3785,
      "ĠProzess": 3786,
      "irche": 3787,
      "ĠJurist": 3788,
      "ĠenthÃ¤lt": 3789,
      "ĠMÃ¼l": 3790,
      "Ġstaat": 3791,
      "ekten": 3792,
      "hoben": 3793,
      "ĠMerk": 3794,
      "ĠVerfahren": 3795,
      "GB": 3796,
      "mb": 3797,
      "ĠFranc": 3798,
      "zeichnungen": 3799,
      "Ġvorhanden": 3800,
      "Ġerfolgt": 3801,
      "ĠMein": 3802,
      "ĠNachfolger": 3803,
      "ĠCol": 3804,
      "ĠFel": 3805,
      "Ġmachen": 3806,
      "ĠHistoriker": 3807,
      "ĠEinfÃ¼hrung": 3808,
      "ĠRund": 3809,
      "zeugen": 3810,
      "ritte": 3811,
      "ĠMaterial": 3812,
      "ĠerhÃ¶": 3813,
      "ĠVerbr": 3814,
      "ĠSowjet": 3815,
      "ischem": 3816,
      "ĠGeorge": 3817,
      "egel": 3818,
      "ĠCal": 3819,
      "ĠMatt": 3820,
      "ĠNicht": 3821,
      "Ġ1981": 3822,
      "ace": 3823,
      "ĠSonder": 3824,
      "ĠSchwer": 3825,
      "ĠSpr": 3826,
      "Ġacht": 3827,
      "Ġenthalten": 3828,
      "legen": 3829,
      "agt": 3830,
      "Ġkleine": 3831,
      "ĠDisk": 3832,
      "gericht": 3833,
      "Ġgek": 3834,
      "ĠLÃ¤ndern": 3835,
      "ake": 3836,
      "izei": 3837,
      "ĠPass": 3838,
      "Ġ1930": 3839,
      "ĠHauptstadt": 3840,
      "raten": 3841,
      "stieg": 3842,
      "ĠWes": 3843,
      "Ġgrund": 3844,
      "ielten": 3845,
      "ĠKauf": 3846,
      "ĠHit": 3847,
      "olden": 3848,
      "Ġ1978": 3849,
      "Ġbildet": 3850,
      "ĠHÃ¤lfte": 3851,
      "ahnen": 3852,
      "ritz": 3853,
      "83": 3854,
      "ĠHan": 3855,
      "sto": 3856,
      "lÃ¤ufer": 3857,
      "quenz": 3858,
      "ivil": 3859,
      "gn": 3860,
      "rael": 3861,
      "ĠgehÃ¶rte": 3862,
      "ffekt": 3863,
      "bi": 3864,
      "roffen": 3865,
      "ĠProt": 3866,
      "ĠKilometer": 3867,
      "Or": 3868,
      "med": 3869,
      "ĠnatÃ¼r": 3870,
      "ktor": 3871,
      "deutschen": 3872,
      "eien": 3873,
      "ĠGrÃ¼ndung": 3874,
      "ĠChem": 3875,
      "ĠHu": 3876,
      "union": 3877,
      "ĠLes": 3878,
      "ĠAuff": 3879,
      "Ġ1938": 3880,
      "Ġ1971": 3881,
      "ĠFinanz": 3882,
      "hei": 3883,
      "ĠChina": 3884,
      "Ġ1920": 3885,
      "ĠLau": 3886,
      "ĠGrenz": 3887,
      "ĠKonst": 3888,
      "osen": 3889,
      "ĠDel": 3890,
      "Ġsogenannte": 3891,
      "unsch": 3892,
      "Aus": 3893,
      "ĠMusiker": 3894,
      "ombin": 3895,
      "Ġschwed": 3896,
      "klÃ¤rung": 3897,
      "ĠSchriften": 3898,
      "ĠCharles": 3899,
      "Ġkleinen": 3900,
      "Ã¤chs": 3901,
      "ĠBrÃ¼": 3902,
      "ĠDenk": 3903,
      "ĠNorm": 3904,
      "sitzen": 3905,
      "rang": 3906,
      "ĠJac": 3907,
      "mat": 3908,
      "ilian": 3909,
      "ĠVerfÃ¼": 3910,
      "museum": 3911,
      "Ġschrieb": 3912,
      "adem": 3913,
      "ĠStamm": 3914,
      "riffen": 3915,
      "bezir": 3916,
      "ĠDial": 3917,
      "iat": 3918,
      "Ġkaum": 3919,
      "ĠBasis": 3920,
      "schafts": 3921,
      "anze": 3922,
      "ĠJames": 3923,
      "Ġpriv": 3924,
      "Ġnachdem": 3925,
      "Ġbeide": 3926,
      "bÃ¼": 3927,
      "82": 3928,
      "ĠBesitz": 3929,
      "stat": 3930,
      "ĠFischer": 3931,
      "setzungen": 3932,
      "ford": 3933,
      "ĠAufl": 3934,
      "Ġ1944": 3935,
      "entliche": 3936,
      "ĠDis": 3937,
      "Ġla": 3938,
      "kungen": 3939,
      "urf": 3940,
      "ders": 3941,
      "Ã¼nger": 3942,
      "ĠKurz": 3943,
      "ĠPflanzen": 3944,
      "ĠOrd": 3945,
      "ĠStrom": 3946,
      "ĠStelle": 3947,
      "serv": 3948,
      "ĠZahlen": 3949,
      "ĠTodes": 3950,
      "vis": 3951,
      "ĠErde": 3952,
      "text": 3953,
      "ĠHÃ¶r": 3954,
      "verband": 3955,
      "ĠDarstellung": 3956,
      "orien": 3957,
      "mel": 3958,
      "Ġdagegen": 3959,
      "abl": 3960,
      "atte": 3961,
      "Ġbestimmten": 3962,
      "ĠFrÃ¼h": 3963,
      "oper": 3964,
      "ĠJapan": 3965,
      "ymn": 3966,
      "Ġ1977": 3967,
      "Ġgleichen": 3968,
      "ateg": 3969,
      "ĠBeim": 3970,
      "ĠEngl": 3971,
      "ĠAutom": 3972,
      "inge": 3973,
      "verfahren": 3974,
      "ĠPolen": 3975,
      "65": 3976,
      "ĠFernseh": 3977,
      "schaf": 3978,
      "uellen": 3979,
      "omie": 3980,
      "ĠRh": 3981,
      "Ġsollten": 3982,
      "ĠjÃ¤hr": 3983,
      "setzen": 3984,
      "erv": 3985,
      "ĠNS": 3986,
      "ĠStraf": 3987,
      "Ġ1967": 3988,
      "rÃ¼f": 3989,
      "ĠStandard": 3990,
      "okal": 3991,
      "ĠBus": 3992,
      "lassen": 3993,
      "inden": 3994,
      "hnen": 3995,
      "gehÃ¶": 3996,
      "Ġhaupt": 3997,
      "ĠZÃ¼rich": 3998,
      "leg": 3999,
      "Ġbevor": 4000,
      "Ġerz": 4001,
      "oy": 4002,
      "Ġsollen": 4003,
      "rhein": 4004,
      "zwischen": 4005,
      "arte": 4006,
      "Ġsah": 4007,
      "Ġbeteil": 4008,
      "reisen": 4009,
      "verwalt": 4010,
      "ĠAdel": 4011,
      "enntnis": 4012,
      "pol": 4013,
      "ĠPosition": 4014,
      "ĠMu": 4015,
      "dung": 4016,
      "ÅĤ": 4017,
      "arn": 4018,
      "ĠErfolg": 4019,
      "Ġweiterhin": 4020,
      "ĠBot": 4021,
      "ĠMitt": 4022,
      "ĠSteuer": 4023,
      "ĠHerz": 4024,
      "ĠeuropÃ¤ischen": 4025,
      "ĠNÃ¤he": 4026,
      "71": 4027,
      "nam": 4028,
      "ail": 4029,
      "recher": 4030,
      "ĠTal": 4031,
      "ĠForschung": 4032,
      "ĠMotor": 4033,
      "Ġmittel": 4034,
      "stu": 4035,
      "estag": 4036,
      "ĠJak": 4037,
      "ĠVort": 4038,
      "Ã¤ische": 4039,
      "etr": 4040,
      "Ġpl": 4041,
      "oppel": 4042,
      "Ġseien": 4043,
      "Ġsehen": 4044,
      "Ġerneut": 4045,
      "jÃ¤hrigen": 4046,
      "Ã¶rder": 4047,
      "ĠPil": 4048,
      "eligi": 4049,
      "ĠGÃ¶tt": 4050,
      "ĠTro": 4051,
      "Ġbelie": 4052,
      "ĠBlut": 4053,
      "band": 4054,
      "ziehen": 4055,
      "iew": 4056,
      "ĠWenn": 4057,
      "Ã¤ngt": 4058,
      "ĠNacht": 4059,
      "Ġsolche": 4060,
      "ĠGre": 4061,
      "rans": 4062,
      "wander": 4063,
      "anne": 4064,
      "ios": 4065,
      "macht": 4066,
      "ĠJournalist": 4067,
      "ĠBereits": 4068,
      "swahl": 4069,
      "park": 4070,
      "Ã¶rter": 4071,
      "Ġweltweit": 4072,
      "ĠauÃŁerdem": 4073,
      "Ġminde": 4074,
      "ĠLÃ¤nder": 4075,
      "ĠUrs": 4076,
      "pers": 4077,
      "ĠTur": 4078,
      "ĠverÃ¶ffentlicht": 4079,
      "utzen": 4080,
      "Ġbeh": 4081,
      "Ġmindestens": 4082,
      "gliche": 4083,
      "74": 4084,
      "xis": 4085,
      "Ġ1946": 4086,
      "En": 4087,
      "ĠSoldaten": 4088,
      "Ã¼ler": 4089,
      "Ġak": 4090,
      "West": 4091,
      "ssystem": 4092,
      "ĠErsten": 4093,
      "Ġledig": 4094,
      "ican": 4095
    },
    "merges": [
      [
        "e",
        "r"
      ],
      [
        "e",
        "n"
      ],
      [
        "c",
        "h"
      ],
      [
        "Ġ",
        "d"
      ],
      [
        "e",
        "i"
      ],
      [
        "u",
        "n"
      ],
      [
        "i",
        "e"
      ],
      [
        "s",
        "t"
      ],
      [
        "a",
        "n"
      ],
      [
        "i",
        "n"
      ],
      [
        "s",
        "ch"
      ],
      [
        "o",
        "n"
      ],
      [
        "Ġ",
        "S"
      ],
      [
        "e",
        "s"
      ],
      [
        "a",
        "l"
      ],
      [
        "ei",
        "n"
      ],
      [
        "un",
        "d"
      ],
      [
        "a",
        "u"
      ],
      [
        "Ġd",
        "er"
      ],
      [
        "e",
        "l"
      ],
      [
        "Ã",
        "¤"
      ],
      [
        "Ã",
        "¼"
      ],
      [
        "a",
        "r"
      ],
      [
        "i",
        "ch"
      ],
      [
        "i",
        "t"
      ],
      [
        "Ġ",
        "A"
      ],
      [
        "Ġ",
        "w"
      ],
      [
        "u",
        "r"
      ],
      [
        "g",
        "e"
      ],
      [
        "t",
        "e"
      ],
      [
        "Ġ",
        "v"
      ],
      [
        "o",
        "r"
      ],
      [
        "un",
        "g"
      ],
      [
        "Ġ",
        "B"
      ],
      [
        "Ġ",
        "und"
      ],
      [
        "Ġ",
        "D"
      ],
      [
        "Ġ",
        "s"
      ],
      [
        "Ġd",
        "ie"
      ],
      [
        "a",
        "t"
      ],
      [
        "Ġ",
        "Ċ"
      ],
      [
        "Ġ",
        "1"
      ],
      [
        "Ġ",
        "M"
      ],
      [
        "i",
        "sch"
      ],
      [
        "Ġ",
        "b"
      ],
      [
        "e",
        "m"
      ],
      [
        "Ġ",
        "ein"
      ],
      [
        "a",
        "s"
      ],
      [
        "Ġ",
        "K"
      ],
      [
        "t",
        "en"
      ],
      [
        "h",
        "r"
      ],
      [
        "Ġ",
        "E"
      ],
      [
        "Ġ",
        "G"
      ],
      [
        "Ġ",
        "z"
      ],
      [
        "Ġ",
        "in"
      ],
      [
        "Ġ",
        "F"
      ],
      [
        "Ġ",
        "("
      ],
      [
        "t",
        "er"
      ],
      [
        "Ġ",
        "P"
      ],
      [
        "g",
        "en"
      ],
      [
        "o",
        "l"
      ],
      [
        "Ġ",
        "i"
      ],
      [
        "d",
        "e"
      ],
      [
        "Ġ",
        "au"
      ],
      [
        "â",
        "Ģ"
      ],
      [
        "Ã",
        "¶"
      ],
      [
        "d",
        "er"
      ],
      [
        "d",
        "en"
      ],
      [
        "a",
        "m"
      ],
      [
        "Ġ",
        "H"
      ],
      [
        "Ġ",
        "m"
      ],
      [
        "Ġ",
        "W"
      ],
      [
        "Ġ",
        "R"
      ],
      [
        "i",
        "s"
      ],
      [
        "b",
        "er"
      ],
      [
        "Ġ",
        "n"
      ],
      [
        "Ġ",
        "L"
      ],
      [
        "e",
        "t"
      ],
      [
        "Ġ",
        "T"
      ],
      [
        "Ġv",
        "on"
      ],
      [
        "Ġ",
        "I"
      ],
      [
        "a",
        "ch"
      ],
      [
        "u",
        "s"
      ],
      [
        "Ġ",
        "V"
      ],
      [
        "Ġ",
        "f"
      ],
      [
        "i",
        "l"
      ],
      [
        "l",
        "ich"
      ],
      [
        "i",
        "g"
      ],
      [
        "u",
        "m"
      ],
      [
        "u",
        "t"
      ],
      [
        "Ġ",
        "N"
      ],
      [
        "Ġ",
        "J"
      ],
      [
        "Ġ1",
        "9"
      ],
      [
        "an",
        "d"
      ],
      [
        "ei",
        "t"
      ],
      [
        "i",
        "on"
      ],
      [
        "i",
        "er"
      ],
      [
        "Ġ",
        "er"
      ],
      [
        "o",
        "m"
      ],
      [
        "l",
        "e"
      ],
      [
        "r",
        "e"
      ],
      [
        "Ġd",
        "en"
      ],
      [
        "Ġ",
        "h"
      ],
      [
        "Ġd",
        "es"
      ],
      [
        "Ġ",
        "2"
      ],
      [
        "i",
        "k"
      ],
      [
        "ĠS",
        "t"
      ],
      [
        "Ġ",
        "k"
      ],
      [
        "Ã¼",
        "r"
      ],
      [
        "r",
        "a"
      ],
      [
        "r",
        "o"
      ],
      [
        "Ġ",
        "al"
      ],
      [
        "en",
        "t"
      ],
      [
        "i",
        "r"
      ],
      [
        "Ã",
        "Ł"
      ],
      [
        "c",
        "k"
      ],
      [
        "r",
        "ei"
      ],
      [
        "Ġd",
        "as"
      ],
      [
        "Ġ",
        "g"
      ],
      [
        "a",
        "b"
      ],
      [
        "Ġ",
        "ge"
      ],
      [
        "f",
        "t"
      ],
      [
        "Ġm",
        "it"
      ],
      [
        "Ġ",
        "C"
      ],
      [
        "isch",
        "en"
      ],
      [
        "Ġ",
        "Z"
      ],
      [
        "ĠD",
        "ie"
      ],
      [
        "Ġi",
        "m"
      ],
      [
        "Ġ",
        "an"
      ],
      [
        "s",
        "e"
      ],
      [
        "ĠS",
        "ch"
      ],
      [
        "k",
        "t"
      ],
      [
        "Ġz",
        "u"
      ],
      [
        "Ġv",
        "er"
      ],
      [
        "Ġ",
        "âĢ"
      ],
      [
        "s",
        "en"
      ],
      [
        "Ġ",
        "U"
      ],
      [
        "an",
        "n"
      ],
      [
        "Ġb",
        "e"
      ],
      [
        "el",
        "l"
      ],
      [
        "Ġau",
        "f"
      ],
      [
        "Ġ",
        "O"
      ],
      [
        "a",
        "hr"
      ],
      [
        "s",
        "p"
      ],
      [
        "b",
        "en"
      ],
      [
        "ich",
        "t"
      ],
      [
        "ĠV",
        "er"
      ],
      [
        "ĠI",
        "n"
      ],
      [
        "0",
        "0"
      ],
      [
        "i",
        "st"
      ],
      [
        "a",
        "h"
      ],
      [
        "Ġd",
        "em"
      ],
      [
        "f",
        "f"
      ],
      [
        "Ġal",
        "s"
      ],
      [
        "Ġw",
        "ur"
      ],
      [
        "Ġ",
        "o"
      ],
      [
        "Ã¤",
        "n"
      ],
      [
        "ie",
        "l"
      ],
      [
        "i",
        "en"
      ],
      [
        "a",
        "d"
      ],
      [
        "isch",
        "e"
      ],
      [
        "e",
        "h"
      ],
      [
        "w",
        "ei"
      ],
      [
        "g",
        "er"
      ],
      [
        "Ġi",
        "st"
      ],
      [
        "Ġf",
        "Ã¼r"
      ],
      [
        "e",
        "ut"
      ],
      [
        "Ġau",
        "s"
      ],
      [
        "Ġs",
        "ich"
      ],
      [
        "ei",
        "ch"
      ],
      [
        "Ġein",
        "e"
      ],
      [
        "m",
        "en"
      ],
      [
        "ĠA",
        "n"
      ],
      [
        "h",
        "e"
      ],
      [
        "ĠG",
        "e"
      ],
      [
        "u",
        "l"
      ],
      [
        "v",
        "er"
      ],
      [
        "r",
        "ie"
      ],
      [
        "ung",
        "en"
      ],
      [
        "Ġ",
        "l"
      ],
      [
        "r",
        "i"
      ],
      [
        "e",
        "g"
      ],
      [
        "at",
        "ion"
      ],
      [
        "sch",
        "a"
      ],
      [
        "Ġ",
        "un"
      ],
      [
        "isch",
        "er"
      ],
      [
        "e",
        "u"
      ],
      [
        "a",
        "g"
      ],
      [
        "o",
        "t"
      ],
      [
        "eut",
        "sch"
      ],
      [
        "ĠE",
        "r"
      ],
      [
        "o",
        "s"
      ],
      [
        "âĢ",
        "ľ"
      ],
      [
        "ĠE",
        "in"
      ],
      [
        "ur",
        "ch"
      ],
      [
        "er",
        "n"
      ],
      [
        "ei",
        "l"
      ],
      [
        "Ġwur",
        "de"
      ],
      [
        "Ġb",
        "ei"
      ],
      [
        "Ã¼",
        "n"
      ],
      [
        "r",
        "u"
      ],
      [
        "in",
        "d"
      ],
      [
        "ĠA",
        "u"
      ],
      [
        "Ã¼",
        "ber"
      ],
      [
        "ĠJ",
        "ahr"
      ],
      [
        "o",
        "ch"
      ],
      [
        "ĠâĢ",
        "ŀ"
      ],
      [
        "e",
        "st"
      ],
      [
        "Ġs",
        "ein"
      ],
      [
        "Ġ",
        "st"
      ],
      [
        "r",
        "an"
      ],
      [
        "Ġau",
        "ch"
      ],
      [
        "e",
        "hr"
      ],
      [
        "et",
        "z"
      ],
      [
        "h",
        "n"
      ],
      [
        ")",
        ","
      ],
      [
        "o",
        "p"
      ],
      [
        "Ġ",
        "p"
      ],
      [
        "ung",
        "s"
      ],
      [
        "i",
        "m"
      ],
      [
        "o",
        "g"
      ],
      [
        "Ġw",
        "ar"
      ],
      [
        "e",
        "d"
      ],
      [
        "Ġn",
        "ach"
      ],
      [
        "Ġ",
        "t"
      ],
      [
        "an",
        "g"
      ],
      [
        "Ġ2",
        "0"
      ],
      [
        "Ġw",
        "ir"
      ],
      [
        "al",
        "l"
      ],
      [
        "Ġ",
        "Ã¼ber"
      ],
      [
        "scha",
        "ft"
      ],
      [
        "Ġ1",
        "8"
      ],
      [
        "Ġd",
        "urch"
      ],
      [
        "st",
        "en"
      ],
      [
        "er",
        "t"
      ],
      [
        "in",
        "g"
      ],
      [
        "i",
        "gen"
      ],
      [
        "Ġw",
        "er"
      ],
      [
        "Ã¤",
        "t"
      ],
      [
        "ch",
        "en"
      ],
      [
        "i",
        "v"
      ],
      [
        "Ã¤",
        "r"
      ],
      [
        "ĠB",
        "e"
      ],
      [
        "ĠA",
        "l"
      ],
      [
        "or",
        "t"
      ],
      [
        "Ġwer",
        "den"
      ],
      [
        "s",
        "er"
      ],
      [
        "l",
        "er"
      ],
      [
        "ĠS",
        "p"
      ],
      [
        "Ġs",
        "o"
      ],
      [
        "Ġwir",
        "d"
      ],
      [
        "ch",
        "t"
      ],
      [
        "Ġein",
        "er"
      ],
      [
        "Ġo",
        "der"
      ],
      [
        "ĠD",
        "er"
      ],
      [
        "ĠU",
        "n"
      ],
      [
        "Ã¶",
        "r"
      ],
      [
        "Ġun",
        "ter"
      ],
      [
        "ĠA",
        "r"
      ],
      [
        "Ġn",
        "icht"
      ],
      [
        "r",
        "Ã¤"
      ],
      [
        "Ġz",
        "ur"
      ],
      [
        "en",
        "d"
      ],
      [
        "l",
        "ie"
      ],
      [
        "st",
        "er"
      ],
      [
        "l",
        "a"
      ],
      [
        "Ġ",
        "j"
      ],
      [
        "Ġ",
        "3"
      ],
      [
        "Ġ",
        "um"
      ],
      [
        "Ġb",
        "is"
      ],
      [
        "Ġv",
        "or"
      ],
      [
        "âĢ",
        "ĵ"
      ],
      [
        "st",
        "ell"
      ],
      [
        "ar",
        "t"
      ],
      [
        "Ã¶",
        "n"
      ],
      [
        "ad",
        "t"
      ],
      [
        "Ġd",
        "eutsch"
      ],
      [
        "Ġ",
        "ent"
      ],
      [
        "au",
        "s"
      ],
      [
        "Ġ2",
        "00"
      ],
      [
        "ĠE",
        "n"
      ],
      [
        "Ġ",
        "sch"
      ],
      [
        "Ġw",
        "ie"
      ],
      [
        "Ġs",
        "ind"
      ],
      [
        "n",
        "en"
      ],
      [
        "ĠâĢ",
        "ĵ"
      ],
      [
        "i",
        "ge"
      ],
      [
        "Ġ",
        "Ã"
      ],
      [
        "lich",
        "en"
      ],
      [
        "Ġ",
        "am"
      ],
      [
        "b",
        "e"
      ],
      [
        "h",
        "l"
      ],
      [
        "Ġz",
        "um"
      ],
      [
        "p",
        "p"
      ],
      [
        "h",
        "al"
      ],
      [
        "it",
        "t"
      ],
      [
        "1",
        "9"
      ],
      [
        "ĠR",
        "e"
      ],
      [
        "el",
        "t"
      ],
      [
        "st",
        "e"
      ],
      [
        "ol",
        "l"
      ],
      [
        "Ã¼",
        "hr"
      ],
      [
        "Ġ",
        "es"
      ],
      [
        "h",
        "er"
      ],
      [
        "ier",
        "t"
      ],
      [
        "Ġs",
        "ie"
      ],
      [
        ")",
        "."
      ],
      [
        "b",
        "l"
      ],
      [
        "g",
        "r"
      ],
      [
        "en",
        "n"
      ],
      [
        "Ġ",
        "ab"
      ],
      [
        "er",
        "k"
      ],
      [
        "lich",
        "e"
      ],
      [
        "Ġi",
        "hr"
      ],
      [
        "sp",
        "iel"
      ],
      [
        "l",
        "and"
      ],
      [
        "ah",
        "l"
      ],
      [
        "ĠP",
        "ro"
      ],
      [
        "rei",
        "ch"
      ],
      [
        "ĠA",
        "us"
      ],
      [
        "z",
        "en"
      ],
      [
        "Ġ",
        "a"
      ],
      [
        "Ġh",
        "at"
      ],
      [
        "ge",
        "b"
      ],
      [
        "m",
        "er"
      ],
      [
        "o",
        "d"
      ],
      [
        "i",
        "c"
      ],
      [
        "Ġein",
        "em"
      ],
      [
        "b",
        "ur"
      ],
      [
        "or",
        "m"
      ],
      [
        "ei",
        "ter"
      ],
      [
        "z",
        "u"
      ],
      [
        "u",
        "ch"
      ],
      [
        "ĠA",
        "b"
      ],
      [
        "ĠB",
        "er"
      ],
      [
        "Ã¼",
        "ck"
      ],
      [
        "ĠI",
        "m"
      ],
      [
        "e",
        "ben"
      ],
      [
        "or",
        "d"
      ],
      [
        "te",
        "t"
      ],
      [
        "g",
        "t"
      ],
      [
        "Ġ20",
        "1"
      ],
      [
        "ĠD",
        "as"
      ],
      [
        "g",
        "el"
      ],
      [
        "a",
        "p"
      ],
      [
        "n",
        "e"
      ],
      [
        "de",
        "t"
      ],
      [
        "ĠM",
        "a"
      ],
      [
        "Ġdas",
        "s"
      ],
      [
        "r",
        "ach"
      ],
      [
        "as",
        "s"
      ],
      [
        "Ġs",
        "p"
      ],
      [
        "er",
        "s"
      ],
      [
        "ĠG",
        "r"
      ],
      [
        "r",
        "it"
      ],
      [
        "g",
        "es"
      ],
      [
        "l",
        "in"
      ],
      [
        "us",
        "s"
      ],
      [
        "h",
        "en"
      ],
      [
        "i",
        "z"
      ],
      [
        "ĠSt",
        "adt"
      ],
      [
        "p",
        "t"
      ],
      [
        "p",
        "f"
      ],
      [
        "au",
        "f"
      ],
      [
        "Ã¤",
        "l"
      ],
      [
        "es",
        "s"
      ],
      [
        "Ġein",
        "en"
      ],
      [
        "ter",
        "n"
      ],
      [
        "Ġ",
        "r"
      ],
      [
        "an",
        "t"
      ],
      [
        "i",
        "d"
      ],
      [
        "u",
        "st"
      ],
      [
        "ĠAu",
        "f"
      ],
      [
        "Ġ19",
        "9"
      ],
      [
        "n",
        "er"
      ],
      [
        "o",
        "b"
      ],
      [
        "k",
        "eit"
      ],
      [
        "ÃŁ",
        "en"
      ],
      [
        "ik",
        "er"
      ],
      [
        "ĠN",
        "ach"
      ],
      [
        "ol",
        "it"
      ],
      [
        "ar",
        "d"
      ],
      [
        "i",
        "ck"
      ],
      [
        "ĠL",
        "and"
      ],
      [
        "Ġwur",
        "den"
      ],
      [
        "ĠK",
        "on"
      ],
      [
        "ĠH",
        "er"
      ],
      [
        "w",
        "ie"
      ],
      [
        "al",
        "t"
      ],
      [
        "r",
        "au"
      ],
      [
        "ĠM",
        "ar"
      ],
      [
        "a",
        "k"
      ],
      [
        "il",
        "l"
      ],
      [
        "Ã¤",
        "hr"
      ],
      [
        "g",
        "l"
      ],
      [
        "ch",
        "e"
      ],
      [
        "u",
        "d"
      ],
      [
        "f",
        "l"
      ],
      [
        "ĠI",
        "S"
      ],
      [
        "Ġ(",
        "*"
      ],
      [
        "ĠO",
        "r"
      ],
      [
        "bur",
        "g"
      ],
      [
        "m",
        "e"
      ],
      [
        "r",
        "ich"
      ],
      [
        "Ġan",
        "der"
      ],
      [
        "h",
        "eit"
      ],
      [
        "i",
        "b"
      ],
      [
        "B",
        "N"
      ],
      [
        "ĠJ",
        "o"
      ],
      [
        "ĠD",
        "eutsch"
      ],
      [
        "ĠIS",
        "BN"
      ],
      [
        "w",
        "a"
      ],
      [
        "e",
        "kt"
      ],
      [
        "z",
        "e"
      ],
      [
        "Ġdeutsch",
        "er"
      ],
      [
        "i",
        "al"
      ],
      [
        "ĠM",
        "it"
      ],
      [
        "i",
        "a"
      ],
      [
        "Ġz",
        "w"
      ],
      [
        "at",
        "ur"
      ],
      [
        "o",
        "k"
      ],
      [
        "ĠV",
        "or"
      ],
      [
        "Ã¤",
        "u"
      ],
      [
        "ĠS",
        "ie"
      ],
      [
        "Ġn",
        "ur"
      ],
      [
        "b",
        "ar"
      ],
      [
        "f",
        "en"
      ],
      [
        "ei",
        "ten"
      ],
      [
        "at",
        "z"
      ],
      [
        "e",
        "ch"
      ],
      [
        "z",
        "eich"
      ],
      [
        "o",
        "w"
      ],
      [
        "il",
        "d"
      ],
      [
        "Ġ1",
        "7"
      ],
      [
        "ĠR",
        "eg"
      ],
      [
        "on",
        "der"
      ],
      [
        "am",
        "m"
      ],
      [
        "p",
        "h"
      ],
      [
        "wei",
        "se"
      ],
      [
        "ĠC",
        "h"
      ],
      [
        "rei",
        "s"
      ],
      [
        "s",
        "s"
      ],
      [
        "at",
        "en"
      ],
      [
        "ĠA",
        "m"
      ],
      [
        "ĠF",
        "ran"
      ],
      [
        "Ġ19",
        "8"
      ],
      [
        "ĠS",
        "e"
      ],
      [
        "sch",
        "l"
      ],
      [
        "om",
        "p"
      ],
      [
        "ik",
        "an"
      ],
      [
        "ĠZ",
        "eit"
      ],
      [
        "ĠB",
        "ei"
      ],
      [
        "ar",
        "b"
      ],
      [
        "k",
        "en"
      ],
      [
        "s",
        "k"
      ],
      [
        "ĠF",
        "l"
      ],
      [
        "n",
        "is"
      ],
      [
        "f",
        "ol"
      ],
      [
        "Ġ",
        "re"
      ],
      [
        "Ġd",
        "a"
      ],
      [
        "r",
        "Ã¼"
      ],
      [
        "Ġm",
        "ehr"
      ],
      [
        "el",
        "n"
      ],
      [
        "ber",
        "g"
      ],
      [
        "Ġ",
        "9"
      ],
      [
        "Ġ",
        "4"
      ],
      [
        "ĠU",
        "S"
      ],
      [
        "1",
        "8"
      ],
      [
        "kt",
        "ion"
      ],
      [
        "at",
        "t"
      ],
      [
        "ier",
        "en"
      ],
      [
        "i",
        "an"
      ],
      [
        "Ġz",
        "wei"
      ],
      [
        "Ġ19",
        "7"
      ],
      [
        "Ġ",
        "et"
      ],
      [
        "u",
        "g"
      ],
      [
        "ein",
        "e"
      ],
      [
        "sch",
        "ie"
      ],
      [
        "om",
        "m"
      ],
      [
        "p",
        "er"
      ],
      [
        "Ġ(",
        "âĢ"
      ],
      [
        "ĠS",
        "o"
      ],
      [
        "f",
        "Ã¼hr"
      ],
      [
        "it",
        "Ã¤t"
      ],
      [
        "h",
        "o"
      ],
      [
        "ab",
        "en"
      ],
      [
        "ĠD",
        "e"
      ],
      [
        "ich",
        "te"
      ],
      [
        "a",
        "st"
      ],
      [
        "m",
        "us"
      ],
      [
        "ier",
        "ung"
      ],
      [
        "ro",
        "ÃŁ"
      ],
      [
        "q",
        "u"
      ],
      [
        "e",
        "x"
      ],
      [
        "Ã¶",
        "l"
      ],
      [
        "an",
        "z"
      ],
      [
        "f",
        "ahr"
      ],
      [
        "it",
        "z"
      ],
      [
        "h",
        "und"
      ],
      [
        "t",
        "eil"
      ],
      [
        "al",
        "e"
      ],
      [
        "Ġv",
        "om"
      ],
      [
        "ol",
        "og"
      ],
      [
        "sch",
        "en"
      ],
      [
        "am",
        "er"
      ],
      [
        "Ġbe",
        "st"
      ],
      [
        "el",
        "le"
      ],
      [
        "ei",
        "st"
      ],
      [
        "ar",
        "l"
      ],
      [
        "Ã¤n",
        "d"
      ],
      [
        "Ġa",
        "ber"
      ],
      [
        "Ġal",
        "l"
      ],
      [
        "ĠT",
        "he"
      ],
      [
        "b",
        "au"
      ],
      [
        "Ġn",
        "och"
      ],
      [
        "ach",
        "t"
      ],
      [
        "Ġ",
        "5"
      ],
      [
        "Ġk",
        "on"
      ],
      [
        "n",
        "et"
      ],
      [
        "ĠJahr",
        "hund"
      ],
      [
        "Ġ19",
        "6"
      ],
      [
        "ier",
        "te"
      ],
      [
        "ĠK",
        "l"
      ],
      [
        "en",
        "z"
      ],
      [
        "Ġd",
        "ar"
      ],
      [
        "ff",
        "en"
      ],
      [
        "ig",
        "er"
      ],
      [
        "ah",
        "n"
      ],
      [
        "eh",
        "en"
      ],
      [
        "Ġge",
        "gen"
      ],
      [
        "Ġein",
        "es"
      ],
      [
        "r",
        "at"
      ],
      [
        "al",
        "s"
      ],
      [
        "spiel",
        "er"
      ],
      [
        "k",
        "s"
      ],
      [
        "Ġw",
        "eiter"
      ],
      [
        "ĠUn",
        "ter"
      ],
      [
        "e",
        "b"
      ],
      [
        "ĠJahrhund",
        "ert"
      ],
      [
        "ver",
        "s"
      ],
      [
        "im",
        "m"
      ],
      [
        "Ġ19",
        "4"
      ],
      [
        "ut",
        "z"
      ],
      [
        "k",
        "l"
      ],
      [
        "om",
        "men"
      ],
      [
        "ĠEn",
        "t"
      ],
      [
        "o",
        "v"
      ],
      [
        "f",
        "ten"
      ],
      [
        "em",
        "ber"
      ],
      [
        "z",
        "eit"
      ],
      [
        "ĠÃ",
        "ľ"
      ],
      [
        "Ã¶",
        "s"
      ],
      [
        "Ġ1",
        "5"
      ],
      [
        "ie",
        "der"
      ],
      [
        "Ġso",
        "wie"
      ],
      [
        "am",
        "men"
      ],
      [
        "Ġzw",
        "ischen"
      ],
      [
        "ul",
        "t"
      ],
      [
        "ĠP",
        "h"
      ],
      [
        "f",
        "er"
      ],
      [
        "eit",
        "s"
      ],
      [
        "is",
        "sen"
      ],
      [
        "Ġb",
        "es"
      ],
      [
        "ĠC",
        "hr"
      ],
      [
        "Ġ1",
        "6"
      ],
      [
        "te",
        "m"
      ],
      [
        "Ġ",
        "gen"
      ],
      [
        "p",
        "l"
      ],
      [
        "g",
        "lich"
      ],
      [
        "ĠGe",
        "sch"
      ],
      [
        "Ġn",
        "eu"
      ],
      [
        "b",
        "st"
      ],
      [
        "al",
        "en"
      ],
      [
        "2",
        "0"
      ],
      [
        "am",
        "en"
      ],
      [
        "itt",
        "el"
      ],
      [
        "ar",
        "k"
      ],
      [
        "ie",
        "t"
      ],
      [
        "l",
        "ung"
      ],
      [
        "ĠM",
        "us"
      ],
      [
        "ann",
        "t"
      ],
      [
        "Ġb",
        "er"
      ],
      [
        "Ã",
        "©"
      ],
      [
        "d",
        "em"
      ],
      [
        "Ġge",
        "w"
      ],
      [
        "ÃŁ",
        "er"
      ],
      [
        "Ġk",
        "ann"
      ],
      [
        "ig",
        "keit"
      ],
      [
        "Ġ19",
        "5"
      ],
      [
        "etz",
        "t"
      ],
      [
        "h",
        "a"
      ],
      [
        "w",
        "ick"
      ],
      [
        "Ġ",
        "="
      ],
      [
        "ĠG",
        "es"
      ],
      [
        "Ã¼",
        "d"
      ],
      [
        "ĠU",
        "m"
      ],
      [
        "Ã¤",
        "ch"
      ],
      [
        "p",
        "r"
      ],
      [
        "it",
        "ion"
      ],
      [
        "m",
        "ann"
      ],
      [
        "Ġg",
        "r"
      ],
      [
        "o",
        "ber"
      ],
      [
        "y",
        "st"
      ],
      [
        "w",
        "er"
      ],
      [
        "ell",
        "en"
      ],
      [
        "s",
        "b"
      ],
      [
        "Ã¶n",
        "ig"
      ],
      [
        "Ġm",
        "an"
      ],
      [
        "ge",
        "m"
      ],
      [
        "ei",
        "m"
      ],
      [
        "a",
        "at"
      ],
      [
        "i",
        "um"
      ],
      [
        "i",
        "o"
      ],
      [
        "r",
        "on"
      ],
      [
        "Ġj",
        "ed"
      ],
      [
        "Ġdie",
        "s"
      ],
      [
        "f",
        "orm"
      ],
      [
        "Ġ(âĢ",
        "ł"
      ],
      [
        "Ġd",
        "e"
      ],
      [
        "d",
        "u"
      ],
      [
        "ge",
        "sch"
      ],
      [
        "Ġl",
        "ie"
      ],
      [
        "rie",
        "g"
      ],
      [
        "or",
        "g"
      ],
      [
        "ĠT",
        "eil"
      ],
      [
        "Ġsein",
        "er"
      ],
      [
        "au",
        "pt"
      ],
      [
        "ĠB",
        "und"
      ],
      [
        "w",
        "o"
      ],
      [
        "ĠG",
        "em"
      ],
      [
        "as",
        "sen"
      ],
      [
        "at",
        "h"
      ],
      [
        "ei",
        "gen"
      ],
      [
        "t",
        "ra"
      ],
      [
        "Ġwar",
        "en"
      ],
      [
        "Ġ",
        "6"
      ],
      [
        "n",
        "ung"
      ],
      [
        "ĠÃľ",
        "ber"
      ],
      [
        "ru",
        "pp"
      ],
      [
        "a",
        "y"
      ],
      [
        "ĠP",
        "olit"
      ],
      [
        "us",
        "ammen"
      ],
      [
        "in",
        "gen"
      ],
      [
        "Ġk",
        "Ã¶n"
      ],
      [
        "ra",
        "f"
      ],
      [
        "ri",
        "ft"
      ],
      [
        "Ġ19",
        "3"
      ],
      [
        "el",
        "d"
      ],
      [
        "yst",
        "em"
      ],
      [
        "or",
        "en"
      ],
      [
        "ĠGe",
        "b"
      ],
      [
        "Ã¤",
        "d"
      ],
      [
        "l",
        "eich"
      ],
      [
        "ĠB",
        "r"
      ],
      [
        "a",
        "v"
      ],
      [
        "Ã¼",
        "t"
      ],
      [
        "n",
        "ah"
      ],
      [
        "Ġs",
        "eit"
      ],
      [
        "Ġdie",
        "ser"
      ],
      [
        "f",
        "all"
      ],
      [
        "amer",
        "ikan"
      ],
      [
        "f",
        "in"
      ],
      [
        "7",
        "8"
      ],
      [
        "st",
        "and"
      ],
      [
        "Ġg",
        "es"
      ],
      [
        "re",
        "u"
      ],
      [
        "Ġsein",
        "e"
      ],
      [
        "ur",
        "op"
      ],
      [
        "in",
        "n"
      ],
      [
        "ent",
        "r"
      ],
      [
        "ĠM",
        "en"
      ],
      [
        "ĠW",
        "elt"
      ],
      [
        "Ġhat",
        "te"
      ],
      [
        "el",
        "s"
      ],
      [
        "Ġge",
        "h"
      ],
      [
        "an",
        "der"
      ],
      [
        "Ġet",
        "wa"
      ],
      [
        "t",
        "schaft"
      ],
      [
        "h",
        "m"
      ],
      [
        "ra",
        "d"
      ],
      [
        "ĠE",
        "s"
      ],
      [
        "k",
        "er"
      ],
      [
        "at",
        "er"
      ],
      [
        "Ã¶",
        "ff"
      ],
      [
        "Ġh",
        "in"
      ],
      [
        "t",
        "s"
      ],
      [
        "ĠK",
        "Ã¶nig"
      ],
      [
        "Ġb",
        "et"
      ],
      [
        "i",
        "f"
      ],
      [
        "Ġ",
        "Q"
      ],
      [
        "e",
        "ter"
      ],
      [
        "o",
        "ff"
      ],
      [
        "Ġo",
        "f"
      ],
      [
        "Ġwie",
        "der"
      ],
      [
        "ĠJahr",
        "e"
      ],
      [
        "ĠSch",
        "w"
      ],
      [
        "Ġjed",
        "och"
      ],
      [
        "ĠB",
        "au"
      ],
      [
        "e",
        "k"
      ],
      [
        "s",
        "el"
      ],
      [
        "Ã¤n",
        "der"
      ],
      [
        "de",
        "ut"
      ],
      [
        "e",
        "gen"
      ],
      [
        "ĠF",
        "rie"
      ],
      [
        "iv",
        "e"
      ],
      [
        "ĠP",
        "l"
      ],
      [
        "ĠZ",
        "u"
      ],
      [
        "00",
        "0"
      ],
      [
        "il",
        "m"
      ],
      [
        "a",
        "is"
      ],
      [
        "ĠK",
        "ir"
      ],
      [
        "ĠT",
        "h"
      ],
      [
        "Ġg",
        "el"
      ],
      [
        "it",
        "er"
      ],
      [
        "Ġdie",
        "se"
      ],
      [
        "is",
        "mus"
      ],
      [
        "ĠAu",
        "g"
      ],
      [
        "ĠBund",
        "es"
      ],
      [
        "ĠB",
        "l"
      ],
      [
        "in",
        "e"
      ],
      [
        "Ã¤",
        "ter"
      ],
      [
        "hal",
        "ten"
      ],
      [
        "Ġh",
        "er"
      ],
      [
        "et",
        "t"
      ],
      [
        "z",
        "w"
      ],
      [
        "Ġ",
        "le"
      ],
      [
        "ĠGem",
        "ein"
      ],
      [
        "t",
        "h"
      ],
      [
        "Ã¤",
        "hl"
      ],
      [
        "Ġ",
        "8"
      ],
      [
        "g",
        "lie"
      ],
      [
        "ĠSch",
        "l"
      ],
      [
        "ib",
        "t"
      ],
      [
        "Ġ",
        "7"
      ],
      [
        "w",
        "erk"
      ],
      [
        "Ġd",
        "am"
      ],
      [
        "an",
        "den"
      ],
      [
        "as",
        "ser"
      ],
      [
        "ie",
        "le"
      ],
      [
        "ĠE",
        "l"
      ],
      [
        "Ġs",
        "el"
      ],
      [
        "y",
        "m"
      ],
      [
        "ĠQ",
        "u"
      ],
      [
        "i",
        "p"
      ],
      [
        "ĠA",
        "d"
      ],
      [
        "ĠDeutsch",
        "land"
      ],
      [
        "an",
        "s"
      ],
      [
        "a",
        "c"
      ],
      [
        "Ġver",
        "b"
      ],
      [
        "Ġk",
        "l"
      ],
      [
        "en",
        "s"
      ],
      [
        "Ġj",
        "e"
      ],
      [
        "f",
        "e"
      ],
      [
        "ĠBer",
        "lin"
      ],
      [
        "i",
        "den"
      ],
      [
        "al",
        "d"
      ],
      [
        "ion",
        "en"
      ],
      [
        "y",
        "n"
      ],
      [
        "ĠN",
        "e"
      ],
      [
        "Ã¤hr",
        "end"
      ],
      [
        "ster",
        "reich"
      ],
      [
        "v",
        "or"
      ],
      [
        "ĠkÃ¶n",
        "nen"
      ],
      [
        "ÃŁ",
        "e"
      ],
      [
        "ĠL",
        "eben"
      ],
      [
        "ier",
        "ten"
      ],
      [
        "ĠR",
        "eich"
      ],
      [
        "Ġ1",
        "4"
      ],
      [
        "eh",
        "men"
      ],
      [
        "und",
        "en"
      ],
      [
        "st",
        "adt"
      ],
      [
        "i",
        "vers"
      ],
      [
        "k",
        "ehr"
      ],
      [
        "p",
        "ro"
      ],
      [
        "Ġs",
        "oll"
      ],
      [
        "ei",
        "d"
      ],
      [
        "au",
        "t"
      ],
      [
        "z",
        "ial"
      ],
      [
        "z",
        "eu"
      ],
      [
        "or",
        "den"
      ],
      [
        "ĠR",
        "o"
      ],
      [
        "ĠJ",
        "an"
      ],
      [
        "z",
        "Ã¶s"
      ],
      [
        "ĠM",
        "on"
      ],
      [
        "l",
        "en"
      ],
      [
        "eu",
        "te"
      ],
      [
        "a",
        "ge"
      ],
      [
        "ĠJahr",
        "en"
      ],
      [
        "ot",
        "t"
      ],
      [
        "lich",
        "er"
      ],
      [
        "Ġf",
        "Ã¼hr"
      ],
      [
        "ĠG",
        "en"
      ],
      [
        "ĠAug",
        "ust"
      ],
      [
        "la",
        "ge"
      ],
      [
        "s",
        "etz"
      ],
      [
        "Ġver",
        "w"
      ],
      [
        "ĠB",
        "o"
      ],
      [
        "rie",
        "b"
      ],
      [
        "st",
        "r"
      ],
      [
        "o",
        "f"
      ],
      [
        "ist",
        "or"
      ],
      [
        "ri",
        "ff"
      ],
      [
        "Ġer",
        "st"
      ],
      [
        "y",
        "s"
      ],
      [
        "t",
        "r"
      ],
      [
        "ĠN",
        "eu"
      ],
      [
        "ĠB",
        "eg"
      ],
      [
        "lie",
        "ÃŁ"
      ],
      [
        "ĠA",
        "ut"
      ],
      [
        "ĠGr",
        "und"
      ],
      [
        "Ġ",
        "e"
      ],
      [
        "Ġ1",
        "2"
      ],
      [
        "ab",
        "e"
      ],
      [
        "b",
        "all"
      ],
      [
        "Ġ",
        "%"
      ],
      [
        "ĠÃ",
        "ĸ"
      ],
      [
        "Ġh",
        "aben"
      ],
      [
        "al",
        "er"
      ],
      [
        "u",
        "b"
      ],
      [
        "ĠFran",
        "k"
      ],
      [
        "is",
        "s"
      ],
      [
        "au",
        "er"
      ],
      [
        "ĠP",
        "r"
      ],
      [
        "in",
        "der"
      ],
      [
        "ult",
        "ur"
      ],
      [
        "ĠH",
        "and"
      ],
      [
        "ĠW",
        "ir"
      ],
      [
        "Ġ1",
        "3"
      ],
      [
        "ĠEin",
        "e"
      ],
      [
        "ĠG",
        "er"
      ],
      [
        "Ã¶",
        "glich"
      ],
      [
        "ĠJ",
        "ul"
      ],
      [
        "ĠAr",
        "b"
      ],
      [
        "issen",
        "schaft"
      ],
      [
        "z",
        "er"
      ],
      [
        "ol",
        "d"
      ],
      [
        "eh",
        "t"
      ],
      [
        "w",
        "eg"
      ],
      [
        "Ġbe",
        "k"
      ],
      [
        "ge",
        "ben"
      ],
      [
        "ĠVer",
        "l"
      ],
      [
        "Ġ1",
        "0"
      ],
      [
        "Ġ",
        "c"
      ],
      [
        "schie",
        "den"
      ],
      [
        "f",
        "or"
      ],
      [
        "h",
        "t"
      ],
      [
        "ol",
        "le"
      ],
      [
        "ĠVer",
        "b"
      ],
      [
        "Ġg",
        "ibt"
      ],
      [
        "Ġd",
        "rei"
      ],
      [
        "re",
        "cht"
      ],
      [
        "Ġ",
        "en"
      ],
      [
        "Ġf",
        "ol"
      ],
      [
        "Ã¼",
        "l"
      ],
      [
        "ĠL",
        "e"
      ],
      [
        "ĠM",
        "Ã¤r"
      ],
      [
        "te",
        "te"
      ],
      [
        "a",
        "te"
      ],
      [
        "rÃ¤",
        "s"
      ],
      [
        "Ġ",
        "eigen"
      ],
      [
        "y",
        "p"
      ],
      [
        "r",
        "icht"
      ],
      [
        "ĠPolit",
        "iker"
      ],
      [
        "am",
        "t"
      ],
      [
        "m",
        "a"
      ],
      [
        "ĠL",
        "u"
      ],
      [
        "ation",
        "en"
      ],
      [
        "hal",
        "b"
      ],
      [
        "ĠH",
        "aupt"
      ],
      [
        "ran",
        "zÃ¶s"
      ],
      [
        "Ġsp",
        "Ã¤ter"
      ],
      [
        "Ġg",
        "er"
      ],
      [
        "op",
        "h"
      ],
      [
        "u",
        "bl"
      ],
      [
        "k",
        "e"
      ],
      [
        "Ã¤l",
        "t"
      ],
      [
        "ĠP",
        "ers"
      ],
      [
        "ĠK",
        "omp"
      ],
      [
        "c",
        "e"
      ],
      [
        "ig",
        "t"
      ],
      [
        "i",
        "us"
      ],
      [
        "Ġ19",
        "2"
      ],
      [
        "scha",
        "ften"
      ],
      [
        "u",
        "ÃŁ"
      ],
      [
        "Ã¤n",
        "ger"
      ],
      [
        "ĠM",
        "Ã¼n"
      ],
      [
        "u",
        "ar"
      ],
      [
        "hn",
        "e"
      ],
      [
        "w",
        "ir"
      ],
      [
        "iter",
        "atur"
      ],
      [
        "ĠG",
        "l"
      ],
      [
        "Ã¼r",
        "ger"
      ],
      [
        "Ġihr",
        "e"
      ],
      [
        "ĠF",
        "Ã¼r"
      ],
      [
        "ĠSt",
        "aat"
      ],
      [
        "an",
        "gen"
      ],
      [
        "ei",
        "ster"
      ],
      [
        "ĠO",
        "ber"
      ],
      [
        "Ġander",
        "en"
      ],
      [
        "ru",
        "ck"
      ],
      [
        "i",
        "ff"
      ],
      [
        "st",
        "ein"
      ],
      [
        "amerikan",
        "ischer"
      ],
      [
        "m",
        "in"
      ],
      [
        "Ã¤n",
        "g"
      ],
      [
        "Ġkon",
        "n"
      ],
      [
        "al",
        "ien"
      ],
      [
        ".",
        ")"
      ],
      [
        "Ġgr",
        "Ã¶"
      ],
      [
        "Ġer",
        "sten"
      ],
      [
        "stell",
        "t"
      ],
      [
        "stell",
        "er"
      ],
      [
        "Ġaus",
        "ge"
      ],
      [
        "gen",
        "d"
      ],
      [
        "ĠChr",
        "ist"
      ],
      [
        "ĠDie",
        "se"
      ],
      [
        "gem",
        "ein"
      ],
      [
        "b",
        "t"
      ],
      [
        "ĠI",
        "I"
      ],
      [
        "i",
        "re"
      ],
      [
        "s",
        "atz"
      ],
      [
        "o",
        "st"
      ],
      [
        "Ġ9",
        "78"
      ],
      [
        "ĠJ",
        "un"
      ],
      [
        "âĢ",
        "Ļ"
      ],
      [
        "ĠFrie",
        "d"
      ],
      [
        "h",
        "ann"
      ],
      [
        "stell",
        "ung"
      ],
      [
        "ol",
        "f"
      ],
      [
        "ĠAn",
        "t"
      ],
      [
        "a",
        "kt"
      ],
      [
        "ĠG",
        "roÃŁ"
      ],
      [
        "ĠO",
        "kt"
      ],
      [
        "ĠN",
        "ov"
      ],
      [
        "ĠE",
        "x"
      ],
      [
        "ĠMa",
        "i"
      ],
      [
        "1",
        "7"
      ],
      [
        "iel",
        "t"
      ],
      [
        "o",
        "ck"
      ],
      [
        "ĠF",
        "or"
      ],
      [
        "ĠJan",
        "uar"
      ],
      [
        "on",
        "en"
      ],
      [
        "ĠB",
        "et"
      ],
      [
        "Ġf",
        "ranzÃ¶s"
      ],
      [
        "m",
        "an"
      ],
      [
        "ĠSch",
        "au"
      ],
      [
        "ent",
        "lich"
      ],
      [
        "o",
        "gen"
      ],
      [
        "ĠUn",
        "ivers"
      ],
      [
        "ing",
        "s"
      ],
      [
        "ĠV",
        "ol"
      ],
      [
        "g",
        "te"
      ],
      [
        "ab",
        "ei"
      ],
      [
        "Ġg",
        "leich"
      ],
      [
        "Ġge",
        "m"
      ],
      [
        "Ã¤",
        "m"
      ],
      [
        "Ġzur",
        "Ã¼ck"
      ],
      [
        "ĠSch",
        "rift"
      ],
      [
        "g",
        "ang"
      ],
      [
        "ĠOkt",
        "ober"
      ],
      [
        "Ġ",
        "Y"
      ],
      [
        "Ġbe",
        "g"
      ],
      [
        "ĠJo",
        "hann"
      ],
      [
        "Ġgeh",
        "Ã¶r"
      ],
      [
        "olog",
        "ie"
      ],
      [
        "ĠMÃ¤r",
        "z"
      ],
      [
        "un",
        "st"
      ],
      [
        "Ġp",
        "ro"
      ],
      [
        "el",
        "m"
      ],
      [
        "s",
        "g"
      ],
      [
        "ĠDe",
        "z"
      ],
      [
        "d",
        "r"
      ],
      [
        "a",
        "z"
      ],
      [
        "ĠW",
        "est"
      ],
      [
        "ig",
        "ung"
      ],
      [
        "ĠAl",
        "s"
      ],
      [
        "ĠSe",
        "p"
      ],
      [
        "ĠGesch",
        "ichte"
      ],
      [
        "ĠL",
        "iteratur"
      ],
      [
        "o",
        "ge"
      ],
      [
        "1",
        "5"
      ],
      [
        "ĠN",
        "ord"
      ],
      [
        "Ġg",
        "roÃŁ"
      ],
      [
        "Ġh",
        "eute"
      ],
      [
        "zeich",
        "net"
      ],
      [
        "t",
        "t"
      ],
      [
        "in",
        "z"
      ],
      [
        "tem",
        "ber"
      ],
      [
        "or",
        "f"
      ],
      [
        "st",
        "Ã¤nd"
      ],
      [
        "pr",
        "il"
      ],
      [
        "Ġ",
        "Ã¶"
      ],
      [
        "ĠW",
        "erk"
      ],
      [
        "ĠMen",
        "schen"
      ],
      [
        "un",
        "kt"
      ],
      [
        "gr",
        "und"
      ],
      [
        "st",
        "ra"
      ],
      [
        "ĠDez",
        "ember"
      ],
      [
        "b",
        "ild"
      ],
      [
        "Ġf",
        "in"
      ],
      [
        "ĠJun",
        "i"
      ],
      [
        "S",
        "t"
      ],
      [
        "z",
        "ahl"
      ],
      [
        "ĠSep",
        "tember"
      ],
      [
        "ĠB",
        "es"
      ],
      [
        "ĠA",
        "pril"
      ],
      [
        "ch",
        "er"
      ],
      [
        "Ã¼n",
        "d"
      ],
      [
        "ĠF",
        "ilm"
      ],
      [
        "ĠJul",
        "i"
      ],
      [
        "ation",
        "al"
      ],
      [
        "z",
        "ie"
      ],
      [
        "o",
        "ten"
      ],
      [
        "ge",
        "w"
      ],
      [
        "Ġer",
        "h"
      ],
      [
        "k",
        "on"
      ],
      [
        "ĠB",
        "ild"
      ],
      [
        "os",
        "sen"
      ],
      [
        "ĠF",
        "uÃŁ"
      ],
      [
        "ĠP",
        "ar"
      ],
      [
        "gl",
        "eich"
      ],
      [
        "1",
        "6"
      ],
      [
        "ĠÃ",
        "Ħ"
      ],
      [
        "ĠPh",
        "il"
      ],
      [
        "ĠSp",
        "rach"
      ],
      [
        "o",
        "ur"
      ],
      [
        "ĠNov",
        "ember"
      ],
      [
        "Ã¶",
        "m"
      ],
      [
        "Ġi",
        "hn"
      ],
      [
        "ĠU",
        "r"
      ],
      [
        "ĠE",
        "urop"
      ],
      [
        "Ġer",
        "ste"
      ],
      [
        "le",
        "x"
      ],
      [
        "1",
        "0"
      ],
      [
        "Ġdeutsch",
        "e"
      ],
      [
        "er",
        "e"
      ],
      [
        "Ġsein",
        "en"
      ],
      [
        "en",
        "de"
      ],
      [
        "Ġv",
        "iel"
      ],
      [
        "w",
        "end"
      ],
      [
        "Ġge",
        "b"
      ],
      [
        "ĠP",
        "art"
      ],
      [
        "ĠSt",
        "ra"
      ],
      [
        "ĠIn",
        "d"
      ],
      [
        "m",
        "al"
      ],
      [
        "Ġihr",
        "er"
      ],
      [
        "in",
        "ger"
      ],
      [
        "isch",
        "es"
      ],
      [
        "s",
        "w"
      ],
      [
        "al",
        "ter"
      ],
      [
        "ĠEn",
        "de"
      ],
      [
        "Ġw",
        "en"
      ],
      [
        "ra",
        "g"
      ],
      [
        "or",
        "n"
      ],
      [
        "os",
        "s"
      ],
      [
        "Ġ19",
        "0"
      ],
      [
        "Ġver",
        "l"
      ],
      [
        "ann",
        "te"
      ],
      [
        "in",
        "a"
      ],
      [
        "âĢľ",
        "."
      ],
      [
        "Ġver",
        "schieden"
      ],
      [
        "ar",
        "ten"
      ],
      [
        "es",
        "en"
      ],
      [
        "ist",
        "en"
      ],
      [
        "ĠAu",
        "ch"
      ],
      [
        "ĠM",
        "ittel"
      ],
      [
        "ĠW",
        "il"
      ],
      [
        "Ġal",
        "le"
      ],
      [
        "ĠM",
        "in"
      ],
      [
        "o",
        "u"
      ],
      [
        "ĠD",
        "ar"
      ],
      [
        "Ġsel",
        "bst"
      ],
      [
        "Ġt",
        "he"
      ],
      [
        "Ġdam",
        "it"
      ],
      [
        "ĠH",
        "och"
      ],
      [
        "r",
        "en"
      ],
      [
        "ist",
        "er"
      ],
      [
        "w",
        "alt"
      ],
      [
        "Ġbe",
        "sch"
      ],
      [
        "am",
        "e"
      ],
      [
        "Ã¶l",
        "ker"
      ],
      [
        "ĠGe",
        "gen"
      ],
      [
        "f",
        "te"
      ],
      [
        "g",
        "ung"
      ],
      [
        "ĠD",
        "urch"
      ],
      [
        "Ġk",
        "eine"
      ],
      [
        "hal",
        "t"
      ],
      [
        "Ġal",
        "ler"
      ],
      [
        "u",
        "le"
      ],
      [
        "Ġber",
        "eits"
      ],
      [
        "Ġall",
        "em"
      ],
      [
        "ĠF",
        "rei"
      ],
      [
        "ĠP",
        "ol"
      ],
      [
        "rie",
        "ben"
      ],
      [
        "âĢľ",
        ","
      ],
      [
        "sp",
        "rach"
      ],
      [
        "Ġz",
        "usammen"
      ],
      [
        "Ġein",
        "z"
      ],
      [
        "ĠK",
        "ur"
      ],
      [
        "ĠMus",
        "ik"
      ],
      [
        "am",
        "il"
      ],
      [
        "Ġsein",
        "em"
      ],
      [
        "un",
        "k"
      ],
      [
        "ĠW",
        "e"
      ],
      [
        "ĠFried",
        "rich"
      ],
      [
        "Ġw",
        "o"
      ],
      [
        "la",
        "gen"
      ],
      [
        "ĠSchau",
        "spieler"
      ],
      [
        "es",
        "sen"
      ],
      [
        "at",
        "iv"
      ],
      [
        "ĠRe",
        "cht"
      ],
      [
        "ĠW",
        "ei"
      ],
      [
        "ĠSch",
        "wei"
      ],
      [
        "ĠK",
        "arl"
      ],
      [
        "gr",
        "Ã¼n"
      ],
      [
        "ĠF",
        "orm"
      ],
      [
        "rupp",
        "en"
      ],
      [
        "ĠAr",
        "t"
      ],
      [
        "e",
        "ck"
      ],
      [
        "ell",
        "schaft"
      ],
      [
        "Ġw",
        "Ã¤hrend"
      ],
      [
        "ĠEin",
        "z"
      ],
      [
        "b",
        "r"
      ],
      [
        "Ġs",
        "ehr"
      ],
      [
        "a",
        "den"
      ],
      [
        "Ġ",
        "ex"
      ],
      [
        "ĠW",
        "asser"
      ],
      [
        "ĠK",
        "rieg"
      ],
      [
        "Ġd",
        "ann"
      ],
      [
        "ĠS",
        "te"
      ],
      [
        "st",
        "off"
      ],
      [
        "ĠM",
        "an"
      ],
      [
        "ge",
        "h"
      ],
      [
        "Ġ",
        "eben"
      ],
      [
        "o",
        "der"
      ],
      [
        "ar",
        "e"
      ],
      [
        "ĠK",
        "o"
      ],
      [
        "Ġ",
        "eh"
      ],
      [
        "ĠMit",
        "glie"
      ],
      [
        "eb",
        "ru"
      ],
      [
        "z",
        "t"
      ],
      [
        "Ġh",
        "ier"
      ],
      [
        "ebru",
        "ar"
      ],
      [
        "Ġb",
        "zw"
      ],
      [
        "fall",
        "s"
      ],
      [
        "u",
        "ten"
      ],
      [
        "rÃ¤s",
        "iden"
      ],
      [
        "Ġer",
        "fol"
      ],
      [
        "ĠH",
        "ein"
      ],
      [
        "re",
        "chen"
      ],
      [
        "en",
        "det"
      ],
      [
        "ĠF",
        "ebruar"
      ],
      [
        "ĠB",
        "and"
      ],
      [
        "Ġs",
        "ei"
      ],
      [
        "ĠLand",
        "es"
      ],
      [
        "au",
        "m"
      ],
      [
        "an",
        "is"
      ],
      [
        "Ġf",
        "rÃ¼"
      ],
      [
        "Ġ",
        "ch"
      ],
      [
        "f",
        "r"
      ],
      [
        "a",
        "gen"
      ],
      [
        "Ã¤",
        "ÃŁ"
      ],
      [
        "wo",
        "hn"
      ],
      [
        "h",
        "aus"
      ],
      [
        "1",
        "2"
      ],
      [
        "sch",
        "n"
      ],
      [
        "ĠM",
        "ed"
      ],
      [
        "un",
        "ktion"
      ],
      [
        "Ġi",
        "hm"
      ],
      [
        "ĠD",
        "a"
      ],
      [
        "ĠN",
        "ieder"
      ],
      [
        "f",
        "Ã¼"
      ],
      [
        "re",
        "g"
      ],
      [
        "ĠR",
        "om"
      ],
      [
        "1",
        "4"
      ],
      [
        "Ġin",
        "s"
      ],
      [
        "ĠJ",
        "u"
      ],
      [
        "ra",
        "ph"
      ],
      [
        "fÃ¼hr",
        "t"
      ],
      [
        "f",
        "ang"
      ],
      [
        "f",
        "Ã¼r"
      ],
      [
        "eit",
        "ung"
      ],
      [
        "Ġ20",
        "2"
      ],
      [
        "k",
        "reis"
      ],
      [
        "Ġw",
        "enn"
      ],
      [
        "Ã¤",
        "hn"
      ],
      [
        "ĠFuÃŁ",
        "ball"
      ],
      [
        "h",
        "eim"
      ],
      [
        "zu",
        "g"
      ],
      [
        "an",
        "k"
      ],
      [
        "ĠK",
        "reis"
      ],
      [
        "ĠS",
        "Ã¼d"
      ],
      [
        "ĠZ",
        "w"
      ],
      [
        "Ġs",
        "onder"
      ],
      [
        "ch",
        "n"
      ],
      [
        "Ġz",
        "un"
      ],
      [
        "ein",
        "en"
      ],
      [
        "Ġ18",
        "9"
      ],
      [
        "ĠR",
        "ei"
      ],
      [
        ".",
        ","
      ],
      [
        "Ġsonder",
        "n"
      ],
      [
        "ho",
        "f"
      ],
      [
        "ĠK",
        "unst"
      ],
      [
        "ber",
        "t"
      ],
      [
        "b",
        "ahn"
      ],
      [
        "ĠK",
        "ais"
      ],
      [
        "s",
        "icht"
      ],
      [
        "Ã¤u",
        "f"
      ],
      [
        "1",
        "3"
      ],
      [
        "s",
        "st"
      ],
      [
        "Ġein",
        "ge"
      ],
      [
        "ĠN",
        "amen"
      ],
      [
        "ie",
        "d"
      ],
      [
        "ĠP",
        "f"
      ],
      [
        "5",
        "0"
      ],
      [
        "m",
        "eister"
      ],
      [
        "h",
        "and"
      ],
      [
        "on",
        "d"
      ],
      [
        "Ġbei",
        "m"
      ],
      [
        "ĠM",
        "et"
      ],
      [
        "eh",
        "n"
      ],
      [
        "sp",
        "r"
      ],
      [
        "Ã¤n",
        "de"
      ],
      [
        "k",
        "eiten"
      ],
      [
        "t",
        "re"
      ],
      [
        "Ã¼",
        "s"
      ],
      [
        "Ġst",
        "att"
      ],
      [
        "l",
        "au"
      ],
      [
        "ei",
        "te"
      ],
      [
        "ach",
        "sen"
      ],
      [
        "il",
        "it"
      ],
      [
        "in",
        "ks"
      ],
      [
        "ĠF",
        "rau"
      ],
      [
        "ck",
        "en"
      ],
      [
        "ĠVer",
        "s"
      ],
      [
        "ubl",
        "ik"
      ],
      [
        "Ġo",
        "hne"
      ],
      [
        "ĠDie",
        "s"
      ],
      [
        "Ġdies",
        "em"
      ],
      [
        "Ġan",
        "ge"
      ],
      [
        "ei",
        "le"
      ],
      [
        "Ġt",
        "eil"
      ],
      [
        "h",
        "in"
      ],
      [
        "ĠH",
        "a"
      ],
      [
        "Ġent",
        "st"
      ],
      [
        "Ã¼n",
        "st"
      ],
      [
        "Ġder",
        "en"
      ],
      [
        "f",
        "ach"
      ],
      [
        "ĠE",
        "is"
      ],
      [
        "ation",
        "s"
      ],
      [
        "ĠSchrift",
        "steller"
      ],
      [
        "ar",
        "r"
      ],
      [
        "ik",
        "a"
      ],
      [
        "sch",
        "e"
      ],
      [
        "Ġw",
        "el"
      ],
      [
        "Ġkonn",
        "te"
      ],
      [
        "on",
        "t"
      ],
      [
        "Ġer",
        "sch"
      ],
      [
        "b",
        "uch"
      ],
      [
        "Ġbe",
        "zeichnet"
      ],
      [
        "c",
        "t"
      ],
      [
        "Ġl",
        "etz"
      ],
      [
        "at",
        "or"
      ],
      [
        "ein",
        "s"
      ],
      [
        "al",
        "is"
      ],
      [
        "s",
        "weise"
      ],
      [
        "Ġb",
        "en"
      ],
      [
        "on",
        "ist"
      ],
      [
        "wick",
        "lung"
      ],
      [
        "ĠOr",
        "t"
      ],
      [
        "m",
        "als"
      ],
      [
        "schie",
        "d"
      ],
      [
        "ĠBei",
        "spiel"
      ],
      [
        "ĠM",
        "ill"
      ],
      [
        "ĠZ",
        "wei"
      ],
      [
        "S",
        "ch"
      ],
      [
        "u",
        "f"
      ],
      [
        "onder",
        "e"
      ],
      [
        "rei",
        "chen"
      ],
      [
        "l",
        "o"
      ],
      [
        "fahr",
        "en"
      ],
      [
        "kl",
        "Ã¤r"
      ],
      [
        "r",
        "sg"
      ],
      [
        "s",
        "on"
      ],
      [
        "Ġn",
        "ah"
      ],
      [
        "ra",
        "ft"
      ],
      [
        "Ġw",
        "as"
      ],
      [
        "z",
        "og"
      ],
      [
        "ĠF",
        "ol"
      ],
      [
        "Ġdeutsch",
        "en"
      ],
      [
        "ĠK",
        "ultur"
      ],
      [
        "w",
        "ig"
      ],
      [
        "k",
        "ommen"
      ],
      [
        "nah",
        "me"
      ],
      [
        "ĠPro",
        "z"
      ],
      [
        "ĠE",
        "m"
      ],
      [
        "r",
        "om"
      ],
      [
        "ĠGemein",
        "de"
      ],
      [
        "h",
        "Ã¤lt"
      ],
      [
        "en",
        "den"
      ],
      [
        "Ã¼",
        "b"
      ],
      [
        "ĠSp",
        "iel"
      ],
      [
        "un",
        "ter"
      ],
      [
        "en",
        "k"
      ],
      [
        "i",
        "pp"
      ],
      [
        "ĠVerl",
        "ag"
      ],
      [
        "geb",
        "iet"
      ],
      [
        "ĠM",
        "e"
      ],
      [
        "Ġim",
        "mer"
      ],
      [
        "ĠZ",
        "usammen"
      ],
      [
        "ĠB",
        "uch"
      ],
      [
        "au",
        "l"
      ],
      [
        "m",
        "ittel"
      ],
      [
        "ĠB",
        "Ã¼rger"
      ],
      [
        "ĠA",
        "t"
      ],
      [
        "ru",
        "ch"
      ],
      [
        "ang",
        "el"
      ],
      [
        "ĠS",
        "on"
      ],
      [
        "ur",
        "t"
      ],
      [
        "k",
        "rieg"
      ],
      [
        "f",
        "eld"
      ],
      [
        "d",
        "ings"
      ],
      [
        "v",
        "Ã¶lker"
      ],
      [
        "rupp",
        "e"
      ],
      [
        "Ã¶ff",
        "entlich"
      ],
      [
        "ĠMÃ¼n",
        "chen"
      ],
      [
        "Ġd",
        "ort"
      ],
      [
        "ĠB",
        "est"
      ],
      [
        "ver",
        "b"
      ],
      [
        "ĠB",
        "i"
      ],
      [
        "Ġw",
        "icht"
      ],
      [
        "Ġk",
        "am"
      ],
      [
        "ro",
        "ÃŁen"
      ],
      [
        "Ġsch",
        "w"
      ],
      [
        "Ġlie",
        "gt"
      ],
      [
        "Ġb",
        "rit"
      ],
      [
        "h",
        "elm"
      ],
      [
        "ien",
        "st"
      ],
      [
        "ĠIn",
        "ter"
      ],
      [
        "as",
        "se"
      ],
      [
        "ann",
        "ten"
      ],
      [
        "in",
        "ter"
      ],
      [
        "ei",
        "den"
      ],
      [
        "Ġv",
        "ier"
      ],
      [
        "ĠAr",
        "ch"
      ],
      [
        "h",
        "Ã¤ng"
      ],
      [
        "er",
        "g"
      ],
      [
        "b",
        "ach"
      ],
      [
        "sch",
        "w"
      ],
      [
        "m",
        "ar"
      ],
      [
        "Ġbei",
        "den"
      ],
      [
        "Ġp",
        "olit"
      ],
      [
        "ĠV",
        "on"
      ],
      [
        "ĠGen",
        "er"
      ],
      [
        "ĠL",
        "a"
      ],
      [
        "ĠO",
        "st"
      ],
      [
        "Ġb",
        "il"
      ],
      [
        "Ã¤t",
        "z"
      ],
      [
        "e",
        "um"
      ],
      [
        "Ġ",
        "and"
      ],
      [
        "ĠZ",
        "ahl"
      ],
      [
        "i",
        "der"
      ],
      [
        "ĠI",
        "s"
      ],
      [
        "f",
        "as"
      ],
      [
        "Ġg",
        "ab"
      ],
      [
        "kt",
        "ur"
      ],
      [
        "e",
        "z"
      ],
      [
        "ĠT",
        "od"
      ],
      [
        "Ã¤",
        "h"
      ],
      [
        "ich",
        "er"
      ],
      [
        "Ġdes",
        "sen"
      ],
      [
        "ĠK",
        "omm"
      ],
      [
        "p",
        "unkt"
      ],
      [
        "em",
        "en"
      ],
      [
        "ĠAl",
        "l"
      ],
      [
        "Ġent",
        "wick"
      ],
      [
        "gen",
        "den"
      ],
      [
        "der",
        "n"
      ],
      [
        "ĠS",
        "eit"
      ],
      [
        "n",
        "a"
      ],
      [
        "j",
        "ekt"
      ],
      [
        "og",
        "raph"
      ],
      [
        "Ġb",
        "el"
      ],
      [
        "ĠS",
        "u"
      ],
      [
        "Ġ18",
        "8"
      ],
      [
        "ro",
        "t"
      ],
      [
        "a",
        "aten"
      ],
      [
        "ck",
        "e"
      ],
      [
        "h",
        "ein"
      ],
      [
        "an",
        "ge"
      ],
      [
        "Ġden",
        "en"
      ],
      [
        "ĠH",
        "e"
      ],
      [
        "g",
        "abe"
      ],
      [
        "Ġihr",
        "en"
      ],
      [
        "ge",
        "gen"
      ],
      [
        "re",
        "d"
      ],
      [
        "ĠHer",
        "r"
      ],
      [
        "de",
        "te"
      ],
      [
        "Ġander",
        "e"
      ],
      [
        "Ġbe",
        "fin"
      ],
      [
        "au",
        "sen"
      ],
      [
        "nis",
        "se"
      ],
      [
        "ĠH",
        "Ã¶"
      ],
      [
        "Ġ3",
        "0"
      ],
      [
        "Ġge",
        "sch"
      ],
      [
        "h",
        "ard"
      ],
      [
        "Ġ",
        "-"
      ],
      [
        "Ġweiter",
        "e"
      ],
      [
        "am",
        "p"
      ],
      [
        "isch",
        "of"
      ],
      [
        "ges",
        "etzt"
      ],
      [
        "ĠJahrhundert",
        "s"
      ],
      [
        "wo",
        "hl"
      ],
      [
        "ol",
        "oge"
      ],
      [
        "Ġh",
        "Ã¶"
      ],
      [
        "ĠN",
        "atur"
      ],
      [
        "ĠKir",
        "che"
      ],
      [
        "Ġf",
        "est"
      ],
      [
        "i",
        "ent"
      ],
      [
        "on",
        "s"
      ],
      [
        "wei",
        "l"
      ],
      [
        ".)",
        ":"
      ],
      [
        "sch",
        "er"
      ],
      [
        "el",
        "ig"
      ],
      [
        "Ã¤ch",
        "st"
      ],
      [
        "H",
        "rsg"
      ],
      [
        "st",
        "it"
      ],
      [
        "ein",
        "ander"
      ],
      [
        "il",
        "t"
      ],
      [
        "z",
        "entr"
      ],
      [
        "Ġh",
        "o"
      ],
      [
        "ĠG",
        "ott"
      ],
      [
        "ĠVer",
        "ein"
      ],
      [
        "ĠB",
        "as"
      ],
      [
        "ĠS",
        "k"
      ],
      [
        "ĠgrÃ¶",
        "ÃŁ"
      ],
      [
        "rau",
        "m"
      ],
      [
        "ĠKais",
        "er"
      ],
      [
        "ĠKomp",
        "onist"
      ],
      [
        "ĠW",
        "eiter"
      ],
      [
        "ĠHein",
        "rich"
      ],
      [
        "schl",
        "ossen"
      ],
      [
        "Ġk",
        "omm"
      ],
      [
        "enn",
        "t"
      ],
      [
        "ut",
        "ion"
      ],
      [
        "ĠWil",
        "helm"
      ],
      [
        "st",
        "ru"
      ],
      [
        "ar",
        "ch"
      ],
      [
        "lieÃŁ",
        "lich"
      ],
      [
        "und",
        "e"
      ],
      [
        "ĠF",
        "ern"
      ],
      [
        "Ġver",
        "m"
      ],
      [
        "ĠSt",
        "ud"
      ],
      [
        "V",
        "er"
      ],
      [
        "ĠT",
        "r"
      ],
      [
        "sb",
        "es"
      ],
      [
        "ur",
        "z"
      ],
      [
        "i",
        "de"
      ],
      [
        "ĠM",
        "o"
      ],
      [
        "Ġo",
        "ft"
      ],
      [
        "Ġent",
        "sp"
      ],
      [
        "Ġmit",
        "t"
      ],
      [
        "er",
        "st"
      ],
      [
        "or",
        "ie"
      ],
      [
        "Ġw",
        "orden"
      ],
      [
        "Ġge",
        "f"
      ],
      [
        "ĠL",
        "in"
      ],
      [
        "Ġ1",
        "1"
      ],
      [
        "Ġz",
        "ahl"
      ],
      [
        "Ġverw",
        "endet"
      ],
      [
        "ĠW",
        "o"
      ],
      [
        "ĠW",
        "ien"
      ],
      [
        "Ġm",
        "us"
      ],
      [
        "in",
        "er"
      ],
      [
        "Ġ",
        "u"
      ],
      [
        "um",
        "en"
      ],
      [
        "Ġd",
        "abei"
      ],
      [
        "um",
        "ent"
      ],
      [
        "ĠÃ¶",
        "sterreich"
      ],
      [
        "ier",
        "e"
      ],
      [
        "Ġ",
        "0"
      ],
      [
        "Ġ2",
        "5"
      ],
      [
        "ge",
        "stellt"
      ],
      [
        "Ġbest",
        "imm"
      ],
      [
        "ĠM",
        "ann"
      ],
      [
        "ĠB",
        "ur"
      ],
      [
        "4",
        "0"
      ],
      [
        "Ġst",
        "ell"
      ],
      [
        "ĠD",
        "r"
      ],
      [
        "y",
        "r"
      ],
      [
        "ff",
        "iz"
      ],
      [
        "os",
        "oph"
      ],
      [
        "ath",
        "ol"
      ],
      [
        "ĠP",
        "eter"
      ],
      [
        "y",
        "l"
      ],
      [
        "ĠF",
        "re"
      ],
      [
        "ĠWe",
        "bl"
      ],
      [
        "ĠS",
        "ystem"
      ],
      [
        "ch",
        "te"
      ],
      [
        "ĠF",
        "amil"
      ],
      [
        "er",
        "en"
      ],
      [
        "ig",
        "ten"
      ],
      [
        "ĠD",
        "i"
      ],
      [
        "ass",
        "ung"
      ],
      [
        "d",
        "ruck"
      ],
      [
        "ĠWebl",
        "inks"
      ],
      [
        "ĠWir",
        "tschaft"
      ],
      [
        "v",
        "ol"
      ],
      [
        "eu",
        "er"
      ],
      [
        "ĠR",
        "ad"
      ],
      [
        "ĠO",
        "b"
      ],
      [
        "Ã¤",
        "re"
      ],
      [
        "ĠPro",
        "du"
      ],
      [
        "h",
        "ol"
      ],
      [
        "Ã",
        "¡"
      ],
      [
        "es",
        "se"
      ],
      [
        "b",
        "ung"
      ],
      [
        "p",
        "ublik"
      ],
      [
        "at",
        "s"
      ],
      [
        "Ġals",
        "o"
      ],
      [
        "ei",
        "sten"
      ],
      [
        "ut",
        "t"
      ],
      [
        "Ġm",
        "Ã¶glich"
      ],
      [
        "it",
        "alien"
      ],
      [
        "ĠE",
        "d"
      ],
      [
        "ĠC",
        "o"
      ],
      [
        "m",
        "it"
      ],
      [
        "s",
        "o"
      ],
      [
        "Ã¶",
        "t"
      ],
      [
        "ĠBeg",
        "riff"
      ],
      [
        "ilit",
        "Ã¤r"
      ],
      [
        "ĠG",
        "ra"
      ],
      [
        "p",
        "rÃ¤"
      ],
      [
        "u",
        "te"
      ],
      [
        "sbes",
        "ondere"
      ],
      [
        "ie",
        "s"
      ],
      [
        "Ġbe",
        "de"
      ],
      [
        "Ġst",
        "ark"
      ],
      [
        "ĠUn",
        "tern"
      ],
      [
        "ri",
        "v"
      ],
      [
        "ĠIn",
        "tern"
      ],
      [
        "el",
        "te"
      ],
      [
        "ĠJ",
        "e"
      ],
      [
        "ĠS",
        "al"
      ],
      [
        "em",
        "al"
      ],
      [
        "Ġ",
        "ur"
      ],
      [
        "ĠH",
        "ans"
      ],
      [
        "ĠUnivers",
        "itÃ¤t"
      ],
      [
        "ĠP",
        "er"
      ],
      [
        "ĠFuÃŁball",
        "spieler"
      ],
      [
        "in",
        "en"
      ],
      [
        "am",
        "ent"
      ],
      [
        "ĠF",
        "ahr"
      ],
      [
        "ĠBe",
        "vÃ¶lker"
      ],
      [
        "Ã¤hl",
        "t"
      ],
      [
        "Ġ18",
        "6"
      ],
      [
        "zie",
        "h"
      ],
      [
        "ach",
        "en"
      ],
      [
        "ich",
        "ten"
      ],
      [
        "ĠBe",
        "deut"
      ],
      [
        "or",
        "e"
      ],
      [
        "ig",
        "n"
      ],
      [
        "r",
        "itt"
      ],
      [
        "ĠFl",
        "ug"
      ],
      [
        "ĠLeben",
        "s"
      ],
      [
        "a",
        "de"
      ],
      [
        "Ġneu",
        "e"
      ],
      [
        "ĠO",
        "l"
      ],
      [
        "v",
        "angel"
      ],
      [
        "Ġin",
        "ner"
      ],
      [
        "v",
        "on"
      ],
      [
        "em",
        "at"
      ],
      [
        "ĠF",
        "est"
      ],
      [
        "sch",
        "ul"
      ],
      [
        "reich",
        "e"
      ],
      [
        "ĠH",
        "am"
      ],
      [
        "ĠB",
        "ar"
      ],
      [
        "Ġ18",
        "7"
      ],
      [
        "Ã¤",
        "ft"
      ],
      [
        "ah",
        "er"
      ],
      [
        "ĠH",
        "o"
      ],
      [
        "ĠNe",
        "w"
      ],
      [
        "ĠDeutsch",
        "en"
      ],
      [
        "am",
        "pf"
      ],
      [
        "ĠW",
        "ahl"
      ],
      [
        "st",
        "alt"
      ],
      [
        "ĠM",
        "ich"
      ],
      [
        "ĠT",
        "ex"
      ],
      [
        "f",
        "ern"
      ],
      [
        "ĠK",
        "inder"
      ],
      [
        "Ġm",
        "eist"
      ],
      [
        "c",
        "o"
      ],
      [
        "Ã¤uf",
        "ig"
      ],
      [
        "ĠSch",
        "ul"
      ],
      [
        "ĠH",
        "aus"
      ],
      [
        "Ġg",
        "ilt"
      ],
      [
        "Ġv",
        "iele"
      ],
      [
        "schl",
        "uss"
      ],
      [
        "is",
        "k"
      ],
      [
        "rÃ¤",
        "ger"
      ],
      [
        "Ġ",
        "X"
      ],
      [
        "tra",
        "g"
      ],
      [
        "it",
        "el"
      ],
      [
        "el",
        "e"
      ],
      [
        "ĠLu",
        "ft"
      ],
      [
        "fol",
        "ge"
      ],
      [
        "Ġbek",
        "annt"
      ],
      [
        "ĠÃĸ",
        "sterreich"
      ],
      [
        "setz",
        "ung"
      ],
      [
        "ĠD",
        "em"
      ],
      [
        "Ġf",
        "rei"
      ],
      [
        "ĠH",
        "istor"
      ],
      [
        "w",
        "e"
      ],
      [
        "ĠR",
        "Ã¼ck"
      ],
      [
        "Ġw",
        "eit"
      ],
      [
        "1",
        "1"
      ],
      [
        "Ġander",
        "em"
      ],
      [
        "Ġeben",
        "falls"
      ],
      [
        "in",
        "s"
      ],
      [
        "Ġsch",
        "on"
      ],
      [
        "on",
        "e"
      ],
      [
        "3",
        "0"
      ],
      [
        "an",
        "ten"
      ],
      [
        "ĠS",
        "a"
      ],
      [
        "Ġau",
        "ÃŁer"
      ],
      [
        "Ġje",
        "weil"
      ],
      [
        "te",
        "chn"
      ],
      [
        "Ã¼t",
        "z"
      ],
      [
        "ĠH",
        "al"
      ],
      [
        "w",
        "ert"
      ],
      [
        "ĠKir",
        "chen"
      ],
      [
        "ĠA",
        "k"
      ],
      [
        "ĠOr",
        "g"
      ],
      [
        "ik",
        "t"
      ],
      [
        "l",
        "ei"
      ],
      [
        "s",
        "uch"
      ],
      [
        "ar",
        "en"
      ],
      [
        "Ġh",
        "eut"
      ],
      [
        "ĠZ",
        "entr"
      ],
      [
        "ig",
        "te"
      ],
      [
        "sch",
        "ule"
      ],
      [
        "ĠK",
        "r"
      ],
      [
        "Ġer",
        "w"
      ],
      [
        "Ã¶r",
        "per"
      ],
      [
        "f",
        "urt"
      ],
      [
        "it",
        "y"
      ],
      [
        "wohn",
        "er"
      ],
      [
        "onder",
        "s"
      ],
      [
        "ech",
        "s"
      ],
      [
        "ĠB",
        "ay"
      ],
      [
        "ĠJo",
        "hn"
      ],
      [
        "um",
        "s"
      ],
      [
        "Ġv",
        "oll"
      ],
      [
        "Ġ",
        "el"
      ],
      [
        "ind",
        "ung"
      ],
      [
        "de",
        "ck"
      ],
      [
        "u",
        "cht"
      ],
      [
        "ĠSt",
        "Ã¤d"
      ],
      [
        "ro",
        "p"
      ],
      [
        "k",
        "ir"
      ],
      [
        "ges",
        "etz"
      ],
      [
        "ach",
        "weise"
      ],
      [
        "ĠL",
        "ud"
      ],
      [
        "ĠEinz",
        "eln"
      ],
      [
        "gen",
        "de"
      ],
      [
        "Ġen",
        "gl"
      ],
      [
        "ĠBedeut",
        "ung"
      ],
      [
        "Ã¤n",
        "ge"
      ],
      [
        "v",
        "en"
      ],
      [
        "Ã¼",
        "ss"
      ],
      [
        "ĠW",
        "ill"
      ],
      [
        "ĠEinzeln",
        "achweise"
      ],
      [
        "g",
        "aben"
      ],
      [
        "y",
        "ch"
      ],
      [
        "ĠB",
        "el"
      ],
      [
        "ĠM",
        "ag"
      ],
      [
        "an",
        "zen"
      ],
      [
        "g",
        "ar"
      ],
      [
        "al",
        "ten"
      ],
      [
        "ĠFran",
        "z"
      ],
      [
        "ĠArb",
        "eit"
      ],
      [
        "Ġneu",
        "en"
      ],
      [
        "og",
        "raf"
      ],
      [
        "fl",
        "uss"
      ],
      [
        "ĠSt",
        "and"
      ],
      [
        "l",
        "ungen"
      ],
      [
        "rÃ¤siden",
        "t"
      ],
      [
        "ech",
        "n"
      ],
      [
        "Ġ",
        "Â"
      ],
      [
        "ran",
        "k"
      ],
      [
        "Ã¼n",
        "f"
      ],
      [
        "Ġs",
        "Ã¼d"
      ],
      [
        "h",
        "eiten"
      ],
      [
        "ĠEnt",
        "wicklung"
      ],
      [
        "ĠgroÃŁ",
        "e"
      ],
      [
        "ĠFrank",
        "reich"
      ],
      [
        "Ġgen",
        "annt"
      ],
      [
        "rach",
        "t"
      ],
      [
        "z",
        "ir"
      ],
      [
        "om",
        "it"
      ],
      [
        "in",
        "nen"
      ],
      [
        "ion",
        "s"
      ],
      [
        "stell",
        "en"
      ],
      [
        "ist",
        "ischen"
      ],
      [
        "ei",
        "tet"
      ],
      [
        "ĠPart",
        "ei"
      ],
      [
        "Ġge",
        "st"
      ],
      [
        "spiel",
        "sweise"
      ],
      [
        "Ġ",
        "italien"
      ],
      [
        "fÃ¼hr",
        "ung"
      ],
      [
        "ich",
        "ter"
      ],
      [
        "ĠS",
        "el"
      ],
      [
        "zeich",
        "nung"
      ],
      [
        "ĠMitglie",
        "d"
      ],
      [
        "ĠVol",
        "ks"
      ],
      [
        "4",
        "5"
      ],
      [
        "Ġn",
        "eben"
      ],
      [
        "it",
        "zen"
      ],
      [
        "Ġ200",
        "5"
      ],
      [
        "Ġaller",
        "dings"
      ],
      [
        "Ġg",
        "roÃŁen"
      ],
      [
        "ĠL",
        "ehr"
      ],
      [
        "ĠGe",
        "w"
      ],
      [
        "Ġzun",
        "Ã¤chst"
      ],
      [
        "ĠH",
        "ol"
      ],
      [
        "lich",
        "keit"
      ],
      [
        "hr",
        "en"
      ],
      [
        "2",
        "00"
      ],
      [
        "gesch",
        "ichte"
      ],
      [
        "ĠBer",
        "eich"
      ],
      [
        "ĠB",
        "ern"
      ],
      [
        "eg",
        "t"
      ],
      [
        "Ġer",
        "n"
      ],
      [
        "gen",
        "ommen"
      ],
      [
        "schn",
        "itt"
      ],
      [
        "ĠEr",
        "n"
      ],
      [
        "Ġdie",
        "sen"
      ],
      [
        "Ġver",
        "st"
      ],
      [
        "Ġr",
        "und"
      ],
      [
        "as",
        "e"
      ],
      [
        "op",
        "p"
      ],
      [
        "os",
        "ition"
      ],
      [
        "sch",
        "rift"
      ],
      [
        "ĠE",
        "igen"
      ],
      [
        "Ã¤",
        "ten"
      ],
      [
        "Ã¤",
        "us"
      ],
      [
        "Ġ2",
        "4"
      ],
      [
        "ĠN",
        "eben"
      ],
      [
        "ĠHer",
        "zog"
      ],
      [
        "Ġo",
        "b"
      ],
      [
        "ĠLand",
        "kreis"
      ],
      [
        "2",
        "5"
      ],
      [
        "Ġein",
        "ige"
      ],
      [
        "ĠEr",
        "z"
      ],
      [
        "ĠSt",
        "r"
      ],
      [
        "nah",
        "men"
      ],
      [
        "icht",
        "s"
      ],
      [
        "a",
        "ck"
      ],
      [
        "Ġeh",
        "emal"
      ],
      [
        "i",
        "x"
      ],
      [
        "reu",
        "z"
      ],
      [
        "ire",
        "kt"
      ],
      [
        "ĠP",
        "aul"
      ],
      [
        "ĠAl",
        "t"
      ],
      [
        ".",
        "âĢľ"
      ],
      [
        "ĠN",
        "ational"
      ],
      [
        "Ġ200",
        "6"
      ],
      [
        "ĠM",
        "aler"
      ],
      [
        "Ġge",
        "grÃ¼n"
      ],
      [
        "ist",
        "e"
      ],
      [
        "or",
        "k"
      ],
      [
        "ĠSchwei",
        "zer"
      ],
      [
        "ne",
        "te"
      ],
      [
        "ĠB",
        "ahn"
      ],
      [
        "I",
        "n"
      ],
      [
        "rad",
        "ition"
      ],
      [
        "ur",
        "n"
      ],
      [
        "Ġbe",
        "f"
      ],
      [
        "Ġs",
        "ol"
      ],
      [
        "ĠJo",
        "se"
      ],
      [
        "ĠGeb",
        "iet"
      ],
      [
        "Ġ199",
        "0"
      ],
      [
        "Ġunter",
        "schied"
      ],
      [
        "ĠC",
        "l"
      ],
      [
        "ĠS",
        "er"
      ],
      [
        "ĠH",
        "il"
      ],
      [
        "ĠW",
        "a"
      ],
      [
        "ĠBer",
        "g"
      ],
      [
        "r",
        "Ã¤n"
      ],
      [
        "ĠH",
        "eil"
      ],
      [
        "Ġ2",
        "3"
      ],
      [
        "ĠD",
        "an"
      ],
      [
        "gr",
        "amm"
      ],
      [
        "ig",
        "es"
      ],
      [
        "k",
        "te"
      ],
      [
        "Ġab",
        "ge"
      ],
      [
        "ĠGener",
        "al"
      ],
      [
        "ĠR",
        "u"
      ],
      [
        "Ġ200",
        "7"
      ],
      [
        "ĠReg",
        "el"
      ],
      [
        "Ġk",
        "m"
      ],
      [
        "Ġst",
        "eht"
      ],
      [
        "Ġk",
        "ein"
      ],
      [
        "j",
        "ahr"
      ],
      [
        "sch",
        "rei"
      ],
      [
        "iv",
        "en"
      ],
      [
        "ĠE",
        "le"
      ],
      [
        "ĠP",
        "ap"
      ],
      [
        "Ġauf",
        "ge"
      ],
      [
        "Ġw",
        "egen"
      ],
      [
        "in",
        "k"
      ],
      [
        "ar",
        "m"
      ],
      [
        "fl",
        "Ã¤"
      ],
      [
        "ĠK",
        "ap"
      ],
      [
        "f",
        "Ã¤l"
      ],
      [
        "ĠT",
        "ag"
      ],
      [
        "Ġ2",
        "1"
      ],
      [
        "Ġda",
        "zu"
      ],
      [
        "Ġhat",
        "ten"
      ],
      [
        "s",
        "ych"
      ],
      [
        "ei",
        "g"
      ],
      [
        "ab",
        "hÃ¤ng"
      ],
      [
        "em",
        "ent"
      ],
      [
        "Ġ(âĢ",
        "ŀ"
      ],
      [
        "Ġbest",
        "eht"
      ],
      [
        "Ġm",
        "eisten"
      ],
      [
        "ur",
        "en"
      ],
      [
        "l",
        "Ã¤nd"
      ],
      [
        "ĠLud",
        "wig"
      ],
      [
        "ĠReg",
        "ion"
      ],
      [
        "ĠStaat",
        "s"
      ],
      [
        "ĠR",
        "aum"
      ],
      [
        "Ġdies",
        "es"
      ],
      [
        "Ġ200",
        "0"
      ],
      [
        "Ġbei",
        "spielsweise"
      ],
      [
        "ie",
        "g"
      ],
      [
        "sch",
        "ein"
      ],
      [
        "at",
        "ive"
      ],
      [
        "i",
        "ver"
      ],
      [
        "ing",
        "t"
      ],
      [
        "om",
        "in"
      ],
      [
        "Ġ2",
        "2"
      ],
      [
        "Ġr",
        "Ã¶m"
      ],
      [
        "Ġmehr",
        "ere"
      ],
      [
        "ĠfranzÃ¶s",
        "ischer"
      ],
      [
        "es",
        "e"
      ],
      [
        "ei",
        "gt"
      ],
      [
        "zeu",
        "g"
      ],
      [
        "f",
        "el"
      ],
      [
        "m",
        "Ã¤ÃŁ"
      ],
      [
        "sch",
        "ung"
      ],
      [
        "Ġ200",
        "8"
      ],
      [
        "un",
        "ft"
      ],
      [
        "Ġ201",
        "0"
      ],
      [
        "wir",
        "tschaft"
      ],
      [
        "o",
        "x"
      ],
      [
        "Ã¤",
        "ss"
      ],
      [
        "ĠH",
        "ier"
      ],
      [
        "8",
        "0"
      ],
      [
        "wend",
        "ung"
      ],
      [
        "Ġ2",
        "6"
      ],
      [
        "al",
        "itÃ¤t"
      ],
      [
        "Ġsoll",
        "te"
      ],
      [
        "pp",
        "en"
      ],
      [
        "j",
        "Ã¤hr"
      ],
      [
        "Ġgegen",
        "Ã¼ber"
      ],
      [
        "ĠMill",
        "ionen"
      ],
      [
        "stra",
        "ÃŁe"
      ],
      [
        "ĠL",
        "ei"
      ],
      [
        "ĠK",
        "ar"
      ],
      [
        "k",
        "o"
      ],
      [
        "A",
        "n"
      ],
      [
        "ob",
        "ei"
      ],
      [
        "Ġso",
        "gen"
      ],
      [
        "ik",
        "en"
      ],
      [
        "ĠGr",
        "Ã¼n"
      ],
      [
        "ĠW",
        "Ã¤hrend"
      ],
      [
        "ur",
        "e"
      ],
      [
        "ver",
        "kehr"
      ],
      [
        "Ġ200",
        "9"
      ],
      [
        "ĠPers",
        "on"
      ],
      [
        "ĠS",
        "c"
      ],
      [
        "f",
        "rei"
      ],
      [
        "Ġin",
        "sbesondere"
      ],
      [
        "ot",
        "he"
      ],
      [
        "Ġ200",
        "4"
      ],
      [
        "i",
        "ft"
      ],
      [
        "ei",
        "ÃŁ"
      ],
      [
        "der",
        "ung"
      ],
      [
        "her",
        "r"
      ],
      [
        "Ġn",
        "ieder"
      ],
      [
        "ĠSt",
        "aaten"
      ],
      [
        "sch",
        "utz"
      ],
      [
        "ĠG",
        "raf"
      ],
      [
        "ien",
        "en"
      ],
      [
        "ĠgrÃ¶",
        "ÃŁer"
      ],
      [
        "ĠT",
        "ran"
      ],
      [
        "ĠA",
        "lex"
      ],
      [
        "ĠAn",
        "fang"
      ],
      [
        "ĠGe",
        "org"
      ],
      [
        "ĠG",
        "el"
      ],
      [
        "s",
        "h"
      ],
      [
        "Ġkl",
        "ein"
      ],
      [
        "ĠPers",
        "onen"
      ],
      [
        "f",
        "rie"
      ],
      [
        "hl",
        "en"
      ],
      [
        "om",
        "mer"
      ],
      [
        "ap",
        "an"
      ],
      [
        "spr",
        "Ã¼n"
      ],
      [
        "âĢľ",
        ")"
      ],
      [
        "z",
        "ogen"
      ],
      [
        "den",
        "t"
      ],
      [
        "ĠS",
        "h"
      ],
      [
        "s",
        "ystem"
      ],
      [
        "ĠF",
        "ra"
      ],
      [
        "Ġ",
        "&"
      ],
      [
        "pf",
        "er"
      ],
      [
        "a",
        "x"
      ],
      [
        "Ġl",
        "ang"
      ],
      [
        "Ġ",
        ","
      ],
      [
        "ĠT",
        "er"
      ],
      [
        "ri",
        "ften"
      ],
      [
        "Ġw",
        "obei"
      ],
      [
        "Ġf",
        "Ã¼nf"
      ],
      [
        "Ã¼ck",
        "e"
      ],
      [
        "der",
        "t"
      ],
      [
        "an",
        "e"
      ],
      [
        "Ġ201",
        "1"
      ],
      [
        "ist",
        "ische"
      ],
      [
        "ord",
        "nung"
      ],
      [
        "o",
        "c"
      ],
      [
        "em",
        "ie"
      ],
      [
        "ĠAut",
        "or"
      ],
      [
        "Ġerst",
        "mals"
      ],
      [
        "ĠUS",
        "A"
      ],
      [
        "d",
        "orf"
      ],
      [
        "de",
        "ten"
      ],
      [
        "ĠC",
        "on"
      ],
      [
        "Ġm",
        "uss"
      ],
      [
        "o",
        "se"
      ],
      [
        "ĠF",
        "r"
      ],
      [
        "ĠfÃ¼hr",
        "te"
      ],
      [
        "ĠB",
        "en"
      ],
      [
        "ut",
        "ter"
      ],
      [
        "ĠP",
        "at"
      ],
      [
        "ze",
        "pt"
      ],
      [
        "v",
        "ent"
      ],
      [
        "Ġ",
        "Ã¤l"
      ],
      [
        "in",
        "de"
      ],
      [
        "Ġkomm",
        "t"
      ],
      [
        "Ġh",
        "and"
      ],
      [
        "ĠW",
        "er"
      ],
      [
        "Ġh",
        "Ã¤ufig"
      ],
      [
        "ĠF",
        "unktion"
      ],
      [
        "bur",
        "ger"
      ],
      [
        "Ã¼nst",
        "ler"
      ],
      [
        "ĠW",
        "olf"
      ],
      [
        "ĠAn",
        "d"
      ],
      [
        "Ġn",
        "un"
      ],
      [
        "Ġh",
        "istor"
      ],
      [
        "ĠL",
        "ie"
      ],
      [
        "sch",
        "eid"
      ],
      [
        "vol",
        "ution"
      ],
      [
        "Ġdar",
        "auf"
      ],
      [
        "ier",
        "ungs"
      ],
      [
        "Ġin",
        "d"
      ],
      [
        "ĠM",
        "al"
      ],
      [
        "b",
        "ei"
      ],
      [
        "Ġer",
        "halten"
      ],
      [
        "l",
        "auf"
      ],
      [
        "P",
        "D"
      ],
      [
        "Ġ200",
        "3"
      ],
      [
        "min",
        "ister"
      ],
      [
        "ĠT",
        "em"
      ],
      [
        "Ġbefin",
        "det"
      ],
      [
        "ar",
        "i"
      ],
      [
        "du",
        "z"
      ],
      [
        "rit",
        "ten"
      ],
      [
        "den",
        "s"
      ],
      [
        "Ġ",
        "."
      ],
      [
        "ĠVer",
        "walt"
      ],
      [
        "utz",
        "t"
      ],
      [
        "Ġer",
        "m"
      ],
      [
        "est",
        "er"
      ],
      [
        "fahr",
        "er"
      ],
      [
        "ĠM",
        "art"
      ],
      [
        "ĠT",
        "echn"
      ],
      [
        "Ġsein",
        "es"
      ],
      [
        "t",
        "in"
      ],
      [
        "Ġ2",
        "8"
      ],
      [
        "ur",
        "m"
      ],
      [
        "ĠK",
        "ol"
      ],
      [
        "Ġ",
        "/"
      ],
      [
        "Ġ2",
        "7"
      ],
      [
        "icht",
        "ung"
      ],
      [
        "sp",
        "ort"
      ],
      [
        "ok",
        "rat"
      ],
      [
        "a",
        "el"
      ],
      [
        "ber",
        "eich"
      ],
      [
        "ĠGes",
        "etz"
      ],
      [
        "6",
        "0"
      ],
      [
        "ober",
        "t"
      ],
      [
        "ĠAl",
        "b"
      ],
      [
        "j",
        "et"
      ],
      [
        "ĠSt",
        "ein"
      ],
      [
        "l",
        "an"
      ],
      [
        "ĠM",
        "od"
      ],
      [
        "Ã",
        "³"
      ],
      [
        "ĠB",
        "is"
      ],
      [
        "2",
        "3"
      ],
      [
        "ĠFrau",
        "en"
      ],
      [
        "ar",
        "z"
      ],
      [
        "ĠEr",
        "st"
      ],
      [
        "ĠK",
        "n"
      ],
      [
        "ĠW",
        "ie"
      ],
      [
        "4",
        "8"
      ],
      [
        "I",
        "I"
      ],
      [
        "ĠD",
        "abei"
      ],
      [
        "ĠR",
        "a"
      ],
      [
        "lich",
        "t"
      ],
      [
        "l",
        "ag"
      ],
      [
        "ich",
        "tet"
      ],
      [
        "w",
        "ort"
      ],
      [
        "et",
        "h"
      ],
      [
        "w",
        "and"
      ],
      [
        "ĠProz",
        "ent"
      ],
      [
        "eh",
        "l"
      ],
      [
        "Ġbeg",
        "ann"
      ],
      [
        "ĠFrank",
        "furt"
      ],
      [
        "ech",
        "sel"
      ],
      [
        "a",
        "e"
      ],
      [
        "ĠBet",
        "rieb"
      ],
      [
        "Ġ",
        "["
      ],
      [
        "iel",
        "l"
      ],
      [
        "ĠFol",
        "ge"
      ],
      [
        "ĠBevÃ¶lker",
        "ung"
      ],
      [
        "t",
        "ag"
      ],
      [
        "ĠM",
        "ot"
      ],
      [
        "ĠO",
        "tt"
      ],
      [
        "Ġentsp",
        "rechen"
      ],
      [
        "ĠSch",
        "m"
      ],
      [
        "Ġletz",
        "ten"
      ],
      [
        "ĠI",
        "t"
      ],
      [
        "is",
        "se"
      ],
      [
        "iel",
        "le"
      ],
      [
        "ell",
        "er"
      ],
      [
        "u",
        "er"
      ],
      [
        "fas",
        "st"
      ],
      [
        "p",
        "ar"
      ],
      [
        "Ġin",
        "tern"
      ],
      [
        "ak",
        "ter"
      ],
      [
        "ck",
        "er"
      ],
      [
        "Ã¶",
        "st"
      ],
      [
        "a",
        "i"
      ],
      [
        "ĠPar",
        "is"
      ],
      [
        "Ġauf",
        "grund"
      ],
      [
        "ĠF",
        "all"
      ],
      [
        "ĠK",
        "at"
      ],
      [
        "Ġ18",
        "0"
      ],
      [
        "k",
        "ung"
      ],
      [
        "bl",
        "i"
      ],
      [
        "ĠGes",
        "ellschaft"
      ],
      [
        "D",
        "R"
      ],
      [
        "ĠMa",
        "x"
      ],
      [
        "Ġerh",
        "ielt"
      ],
      [
        "s",
        "ie"
      ],
      [
        "bild",
        "ung"
      ],
      [
        "f",
        "ra"
      ],
      [
        "Ġ201",
        "2"
      ],
      [
        "Ã¤r",
        "en"
      ],
      [
        "ĠUntern",
        "ehmen"
      ],
      [
        "om",
        "b"
      ],
      [
        "8",
        "9"
      ],
      [
        "re",
        "ch"
      ],
      [
        "Ġa",
        "kt"
      ],
      [
        "Ġ18",
        "5"
      ],
      [
        ")",
        ":"
      ],
      [
        "ĠEin",
        "wohner"
      ],
      [
        "Ġre",
        "g"
      ],
      [
        "Ġer",
        "rich"
      ],
      [
        "st",
        "re"
      ],
      [
        "a",
        "ktion"
      ],
      [
        "w",
        "issenschaft"
      ],
      [
        "Ġd",
        "aher"
      ],
      [
        "hr",
        "e"
      ],
      [
        "Ġ200",
        "2"
      ],
      [
        "Ġb",
        "lie"
      ],
      [
        "Ġ",
        "ar"
      ],
      [
        "ĠR",
        "hein"
      ],
      [
        "ie",
        "f"
      ],
      [
        "or",
        "ben"
      ],
      [
        "2",
        "2"
      ],
      [
        "ĠEis",
        "en"
      ],
      [
        "Ġ",
        "Ã¼b"
      ],
      [
        "ĠC",
        "arl"
      ],
      [
        "ĠMar",
        "k"
      ],
      [
        "p",
        "en"
      ],
      [
        "Ġver",
        "Ã¶ffentlich"
      ],
      [
        "Ġre",
        "cht"
      ],
      [
        "Ã¤nder",
        "n"
      ],
      [
        "Ġgem",
        "eins"
      ],
      [
        "Ġbes",
        "onders"
      ],
      [
        "ĠVer",
        "kehr"
      ],
      [
        "h",
        "Ã¶"
      ],
      [
        "ĠEurop",
        "a"
      ],
      [
        "ri",
        "m"
      ],
      [
        "ĠTh",
        "om"
      ],
      [
        "Ġeinz",
        "el"
      ],
      [
        "ĠPhil",
        "osoph"
      ],
      [
        "ĠW",
        "issenschaft"
      ],
      [
        "erg",
        "ie"
      ],
      [
        "ĠD",
        "aten"
      ],
      [
        "7",
        "0"
      ],
      [
        "p",
        "ort"
      ],
      [
        "Ġ194",
        "5"
      ],
      [
        "4",
        "9"
      ],
      [
        "in",
        "t"
      ],
      [
        "il",
        "e"
      ],
      [
        "ĠR",
        "olle"
      ],
      [
        "is",
        "e"
      ],
      [
        "Ġk",
        "omp"
      ],
      [
        "ĠReg",
        "ierung"
      ],
      [
        "r",
        "ist"
      ],
      [
        "ĠM",
        "or"
      ],
      [
        "ĠAuf",
        "lage"
      ],
      [
        "teil",
        "t"
      ],
      [
        "ĠSo",
        "hn"
      ],
      [
        "s",
        "etzt"
      ],
      [
        "ig",
        "keiten"
      ],
      [
        "Ġ1",
        "00"
      ],
      [
        "Ġw",
        "est"
      ],
      [
        "im",
        "men"
      ],
      [
        "19",
        "9"
      ],
      [
        "ĠSo",
        "zial"
      ],
      [
        "Ġfin",
        "den"
      ],
      [
        "b",
        "es"
      ],
      [
        "ein",
        "t"
      ],
      [
        "Ġ201",
        "3"
      ],
      [
        "Ã¤",
        "sst"
      ],
      [
        "ĠWelt",
        "krieg"
      ],
      [
        "ĠSprach",
        "e"
      ],
      [
        "ĠD",
        "en"
      ],
      [
        "Ġ201",
        "4"
      ],
      [
        "ĠF",
        "rÃ¼"
      ],
      [
        "it",
        "e"
      ],
      [
        "w",
        "est"
      ],
      [
        "ĠR",
        "ah"
      ],
      [
        "c",
        "a"
      ],
      [
        "ĠW",
        "ort"
      ],
      [
        "Ã¤",
        "ischen"
      ],
      [
        "ĠSp",
        "ort"
      ],
      [
        "tra",
        "gen"
      ],
      [
        "weg",
        "ung"
      ],
      [
        "Ġwel",
        "che"
      ],
      [
        "ĠKomm",
        "un"
      ],
      [
        "ĠU",
        "l"
      ],
      [
        "Ġh",
        "abe"
      ],
      [
        "Ġ2",
        "9"
      ],
      [
        "Ġher",
        "aus"
      ],
      [
        "om",
        "en"
      ],
      [
        "ath",
        "emat"
      ],
      [
        "ĠA",
        "mer"
      ],
      [
        "n",
        "eh"
      ],
      [
        "Ġfin",
        "det"
      ],
      [
        "ĠH",
        "in"
      ],
      [
        "ĠK",
        "u"
      ],
      [
        "Ġverschieden",
        "en"
      ],
      [
        "ĠT",
        "on"
      ],
      [
        "z",
        "Ã¼"
      ],
      [
        "Ġ200",
        "1"
      ],
      [
        "ĠSchauspieler",
        "in"
      ],
      [
        "ĠK",
        "rit"
      ],
      [
        "Ġentst",
        "anden"
      ],
      [
        "ĠB",
        "Ã¼"
      ],
      [
        "k",
        "a"
      ],
      [
        "ĠK",
        "Ã¶l"
      ],
      [
        "Ġf",
        "ast"
      ],
      [
        "Ġm",
        "Ã¼s"
      ],
      [
        "ĠIn",
        "s"
      ],
      [
        "teil",
        "ung"
      ],
      [
        "lich",
        "es"
      ],
      [
        "f",
        "ess"
      ],
      [
        "b",
        "et"
      ],
      [
        "b",
        "el"
      ],
      [
        "Ġb",
        "r"
      ],
      [
        "ges",
        "amt"
      ],
      [
        "Ġ",
        "em"
      ],
      [
        "ust",
        "rie"
      ],
      [
        "ĠIn",
        "form"
      ],
      [
        "Ġall",
        "en"
      ],
      [
        "i",
        "as"
      ],
      [
        "ĠSch",
        "n"
      ],
      [
        "g",
        "art"
      ],
      [
        "ek",
        "te"
      ],
      [
        "ĠPro",
        "v"
      ],
      [
        "l",
        "ungs"
      ],
      [
        "Ġd",
        "eut"
      ],
      [
        "Ã",
        "Ń"
      ],
      [
        "org",
        "anis"
      ],
      [
        "b",
        "te"
      ],
      [
        "wei",
        "s"
      ],
      [
        "ĠR",
        "elig"
      ],
      [
        "y",
        "t"
      ],
      [
        "ĠK",
        "an"
      ],
      [
        "n",
        "ungen"
      ],
      [
        "ĠPolit",
        "ik"
      ],
      [
        "ĠB",
        "ischof"
      ],
      [
        "U",
        "n"
      ],
      [
        "v",
        "e"
      ],
      [
        "Ġ198",
        "0"
      ],
      [
        "Ġinner",
        "halb"
      ],
      [
        "Ġw",
        "eil"
      ],
      [
        "en",
        "zen"
      ],
      [
        "Ã¤t",
        "ze"
      ],
      [
        "ĠC",
        "omp"
      ],
      [
        "Ġsch",
        "wer"
      ],
      [
        "ĠDeutsch",
        "e"
      ],
      [
        "och",
        "en"
      ],
      [
        "ĠZ",
        "ur"
      ],
      [
        "ĠMich",
        "ael"
      ],
      [
        "tre",
        "ten"
      ],
      [
        "ĠB",
        "ed"
      ],
      [
        "Ġm",
        "oder"
      ],
      [
        "ĠD",
        "re"
      ],
      [
        "Ġ201",
        "5"
      ],
      [
        "ĠVer",
        "f"
      ],
      [
        "w",
        "ahl"
      ],
      [
        "Ġl",
        "assen"
      ],
      [
        "ĠR",
        "uss"
      ],
      [
        "ĠJu",
        "gend"
      ],
      [
        "Ġr",
        "uss"
      ],
      [
        "h",
        "ausen"
      ],
      [
        "heit",
        "s"
      ],
      [
        "ur",
        "s"
      ],
      [
        "w",
        "eit"
      ],
      [
        "Ã¼nd",
        "ung"
      ],
      [
        "k",
        "an"
      ],
      [
        "ĠSt",
        "utt"
      ],
      [
        "amm",
        "lung"
      ],
      [
        "ĠD",
        "am"
      ],
      [
        "y",
        "d"
      ],
      [
        "h",
        "il"
      ],
      [
        "Ã¶r",
        "d"
      ],
      [
        "w",
        "elt"
      ],
      [
        "Ġihr",
        "em"
      ],
      [
        "3",
        "5"
      ],
      [
        "Ġ197",
        "0"
      ],
      [
        "it",
        "ekt"
      ],
      [
        "ĠRom",
        "an"
      ],
      [
        "schl",
        "ag"
      ],
      [
        "l",
        "ig"
      ],
      [
        "ĠS",
        "an"
      ],
      [
        "ol",
        "e"
      ],
      [
        "ri",
        "d"
      ],
      [
        "ĠG",
        "leich"
      ],
      [
        "ĠP",
        "al"
      ],
      [
        "ie",
        "te"
      ],
      [
        "ĠE",
        "ur"
      ],
      [
        "ĠThom",
        "as"
      ],
      [
        "ĠDie",
        "ser"
      ],
      [
        "l",
        "ang"
      ],
      [
        "sten",
        "s"
      ],
      [
        "Ġsp",
        "iel"
      ],
      [
        "bl",
        "em"
      ],
      [
        "at",
        "ten"
      ],
      [
        "d",
        "ie"
      ],
      [
        "ĠM",
        "ehr"
      ],
      [
        "Ġk",
        "ommen"
      ],
      [
        "ĠF",
        "ach"
      ],
      [
        "ĠfrÃ¼",
        "her"
      ],
      [
        "l",
        "os"
      ],
      [
        "Ġ201",
        "6"
      ],
      [
        "b",
        "o"
      ],
      [
        "Ġer",
        "klÃ¤r"
      ],
      [
        "i",
        "am"
      ],
      [
        "ach",
        "e"
      ],
      [
        "ĠZ",
        "iel"
      ],
      [
        "ĠD",
        "av"
      ],
      [
        "se",
        "e"
      ],
      [
        "Ġso",
        "zial"
      ],
      [
        "Ã¤u",
        "de"
      ],
      [
        "ĠRah",
        "men"
      ],
      [
        "Ġur",
        "sprÃ¼n"
      ],
      [
        "ĠII",
        "I"
      ],
      [
        "Ġf",
        "or"
      ],
      [
        "ĠSt",
        "u"
      ],
      [
        "Ġda",
        "von"
      ],
      [
        "z",
        "ig"
      ],
      [
        "ĠF",
        "in"
      ],
      [
        "Ġs",
        "etz"
      ],
      [
        "Ġer",
        "g"
      ],
      [
        "Ġ201",
        "7"
      ],
      [
        "ĠJahr",
        "es"
      ],
      [
        "ĠD",
        "es"
      ],
      [
        "stit",
        "ut"
      ],
      [
        "imm",
        "t"
      ],
      [
        "k",
        "r"
      ],
      [
        "et",
        "te"
      ],
      [
        "it",
        "ter"
      ],
      [
        "s",
        "am"
      ],
      [
        "ĠG",
        "u"
      ],
      [
        "Ġw",
        "ei"
      ],
      [
        "Ġviel",
        "en"
      ],
      [
        "ĠfÃ¼hr",
        "t"
      ],
      [
        "on",
        "g"
      ],
      [
        "ie",
        "ten"
      ],
      [
        "om",
        "at"
      ],
      [
        "ru",
        "ktur"
      ],
      [
        "4",
        "6"
      ],
      [
        "Ġges",
        "am"
      ],
      [
        "ĠK",
        "Ã¼"
      ],
      [
        "oll",
        "en"
      ],
      [
        "Ġp",
        "ol"
      ],
      [
        "ĠEr",
        "d"
      ],
      [
        "om",
        "e"
      ],
      [
        "ĠArb",
        "eits"
      ],
      [
        "ĠR",
        "obert"
      ],
      [
        "ĠSel",
        "bst"
      ],
      [
        "ĠB",
        "eh"
      ],
      [
        "den",
        "burg"
      ],
      [
        "ĠVer",
        "t"
      ],
      [
        "g",
        "lichen"
      ],
      [
        "ĠIn",
        "sel"
      ],
      [
        "u",
        "ter"
      ],
      [
        "Ġ",
        "Ã¶ff"
      ],
      [
        "eich",
        "t"
      ],
      [
        "ĠÃ¶sterreich",
        "ischer"
      ],
      [
        "a",
        "ger"
      ],
      [
        "sp",
        "ro"
      ],
      [
        "Ġ20",
        "19"
      ],
      [
        "ĠMa",
        "in"
      ],
      [
        "Ġw",
        "Ã¼r"
      ],
      [
        "ĠFern",
        "se"
      ],
      [
        "ge",
        "ord"
      ],
      [
        "f",
        "est"
      ],
      [
        "Ġkonn",
        "ten"
      ],
      [
        "rie",
        "ch"
      ],
      [
        "ne",
        "ten"
      ],
      [
        "Ġ",
        "Ã¤hn"
      ],
      [
        "per",
        "atur"
      ],
      [
        "ĠEle",
        "kt"
      ],
      [
        "au",
        "ch"
      ],
      [
        "an",
        "ischen"
      ],
      [
        "us",
        "Ã¤tz"
      ],
      [
        "Ġel",
        "ekt"
      ],
      [
        "ĠAu",
        "ft"
      ],
      [
        "Ġverschieden",
        "e"
      ],
      [
        "8",
        "6"
      ],
      [
        "A",
        "r"
      ],
      [
        "arb",
        "eit"
      ],
      [
        "ation",
        "alen"
      ],
      [
        "Ġheut",
        "igen"
      ],
      [
        "el",
        "ten"
      ],
      [
        "it",
        "al"
      ],
      [
        "zeich",
        "en"
      ],
      [
        "b",
        "est"
      ],
      [
        "ĠRecht",
        "s"
      ],
      [
        "ĠT",
        "itel"
      ],
      [
        "rei",
        "cht"
      ],
      [
        "Ġver",
        "k"
      ],
      [
        "Ã¶r",
        "t"
      ],
      [
        "te",
        "ten"
      ],
      [
        "ad",
        "urch"
      ],
      [
        "u",
        "k"
      ],
      [
        "r",
        "y"
      ],
      [
        "ĠS",
        "in"
      ],
      [
        "op",
        "f"
      ],
      [
        "re",
        "ten"
      ],
      [
        "ic",
        "a"
      ],
      [
        "all",
        "en"
      ],
      [
        "rau",
        "ch"
      ],
      [
        "d",
        "ienst"
      ],
      [
        "ĠChrist",
        "ian"
      ],
      [
        "le",
        "ben"
      ],
      [
        "st",
        "ag"
      ],
      [
        "2",
        "1"
      ],
      [
        "ĠHam",
        "burg"
      ],
      [
        "ĠW",
        "ieder"
      ],
      [
        "l",
        "t"
      ],
      [
        "ĠP",
        "ort"
      ],
      [
        "it",
        "u"
      ],
      [
        "ĠMus",
        "eum"
      ],
      [
        "ĠB",
        "ra"
      ],
      [
        "Ġ201",
        "8"
      ],
      [
        "wei",
        "ter"
      ],
      [
        "2",
        "9"
      ],
      [
        "ĠStutt",
        "gart"
      ],
      [
        "amerikan",
        "ische"
      ],
      [
        "ĠhÃ¶",
        "her"
      ],
      [
        "4",
        "7"
      ],
      [
        "Ġ5",
        "0"
      ],
      [
        "ĠMit",
        "te"
      ],
      [
        "sch",
        "au"
      ],
      [
        "sch",
        "eiden"
      ],
      [
        "ĠY",
        "ork"
      ],
      [
        "it",
        "en"
      ],
      [
        "Ġteil",
        "weise"
      ],
      [
        "ĠT",
        "a"
      ],
      [
        "Ġ20",
        "20"
      ],
      [
        "ar",
        "f"
      ],
      [
        "ater",
        "ial"
      ],
      [
        "h",
        "le"
      ],
      [
        "ien",
        "s"
      ],
      [
        "Ġeigen",
        "en"
      ],
      [
        "ĠS",
        "en"
      ],
      [
        "reu",
        "ÃŁen"
      ],
      [
        "Ġ199",
        "9"
      ],
      [
        "ĠS",
        "il"
      ],
      [
        "ĠC",
        "ar"
      ],
      [
        "w",
        "asser"
      ],
      [
        "ĠK",
        "or"
      ],
      [
        "Ġw",
        "es"
      ],
      [
        "il",
        "le"
      ],
      [
        "ĠJ",
        "ur"
      ],
      [
        "ot",
        "h"
      ],
      [
        "2",
        "7"
      ],
      [
        "ĠD",
        "ruck"
      ],
      [
        "ĠK",
        "al"
      ],
      [
        "ĠM",
        "ilitÃ¤r"
      ],
      [
        "Ġbede",
        "uten"
      ],
      [
        "o",
        "de"
      ],
      [
        "ĠT",
        "ra"
      ],
      [
        "Ġbest",
        "ehen"
      ],
      [
        "m",
        "et"
      ],
      [
        "o",
        "z"
      ],
      [
        "Ġst",
        "ehen"
      ],
      [
        "ĠS",
        "itz"
      ],
      [
        "ĠS",
        "Ã¼"
      ],
      [
        "ĠH",
        "eim"
      ],
      [
        "rÃ¤",
        "gt"
      ],
      [
        "ĠPh",
        "ys"
      ],
      [
        "Ġex",
        "ist"
      ],
      [
        "2",
        "6"
      ],
      [
        "Ġf",
        "and"
      ],
      [
        "ĠF",
        "eld"
      ],
      [
        "3",
        "3"
      ],
      [
        "ge",
        "hen"
      ],
      [
        "ĠE",
        "ben"
      ],
      [
        "ĠWo",
        "hn"
      ],
      [
        "ĠA",
        "p"
      ],
      [
        "iz",
        "in"
      ],
      [
        "wie",
        "sen"
      ],
      [
        "Ġl",
        "Ã¤sst"
      ],
      [
        "ĠKrieg",
        "s"
      ],
      [
        "ĠW",
        "ider"
      ],
      [
        "Ġk",
        "urz"
      ],
      [
        "ĠEin",
        "satz"
      ],
      [
        "Ġle",
        "ben"
      ],
      [
        "S",
        "p"
      ],
      [
        "ation",
        "ale"
      ],
      [
        "j",
        "e"
      ],
      [
        "ĠO",
        "per"
      ],
      [
        "Ġ(",
        "="
      ],
      [
        "Ġjeweil",
        "s"
      ],
      [
        "ĠH",
        "ar"
      ],
      [
        "ĠgegrÃ¼n",
        "det"
      ],
      [
        "ei",
        "tete"
      ],
      [
        "ond",
        "on"
      ],
      [
        "l",
        "Ã¤u"
      ],
      [
        "pl",
        "atz"
      ],
      [
        "iss",
        "ion"
      ],
      [
        "Ã¼ck",
        "en"
      ],
      [
        "sprach",
        "e"
      ],
      [
        "ĠMar",
        "kt"
      ],
      [
        "ĠBur",
        "g"
      ],
      [
        "ĠStÃ¤d",
        "te"
      ],
      [
        "ĠG",
        "eh"
      ],
      [
        "Ġwen",
        "iger"
      ],
      [
        "Ġn",
        "ie"
      ],
      [
        "sp",
        "iele"
      ],
      [
        "Ġz",
        "eit"
      ],
      [
        "richt",
        "ung"
      ],
      [
        "Ġ196",
        "0"
      ],
      [
        "Ġso",
        "wohl"
      ],
      [
        "ĠH",
        "of"
      ],
      [
        "Ġzw",
        "ar"
      ],
      [
        "ĠZwei",
        "ten"
      ],
      [
        "Ġe",
        "urop"
      ],
      [
        "s",
        "ol"
      ],
      [
        "ach",
        "ten"
      ],
      [
        "Ġw",
        "elt"
      ],
      [
        "ĠK",
        "il"
      ],
      [
        "ĠSchwei",
        "z"
      ],
      [
        "ĠEn",
        "g"
      ],
      [
        "ei",
        "er"
      ],
      [
        "ik",
        "e"
      ],
      [
        "w",
        "ind"
      ],
      [
        "ĠP",
        "a"
      ],
      [
        "lie",
        "ÃŁen"
      ],
      [
        "ĠB",
        "ru"
      ],
      [
        "-",
        ","
      ],
      [
        "Ġitalien",
        "ischer"
      ],
      [
        "ĠOtt",
        "o"
      ],
      [
        "ĠSie",
        "he"
      ],
      [
        "Ġweiter",
        "en"
      ],
      [
        "ĠBeg",
        "inn"
      ],
      [
        "ĠTex",
        "t"
      ],
      [
        "s",
        "burg"
      ],
      [
        "ent",
        "lichen"
      ],
      [
        "ĠS",
        "yn"
      ],
      [
        "ĠFamil",
        "ie"
      ],
      [
        "ĠIt",
        "alien"
      ],
      [
        "ĠSt",
        "re"
      ],
      [
        "ĠD",
        "u"
      ],
      [
        "ik",
        "el"
      ],
      [
        "ĠgehÃ¶r",
        "t"
      ],
      [
        "ĠRe",
        "publik"
      ],
      [
        "h",
        "an"
      ],
      [
        "ĠM",
        "acht"
      ],
      [
        "ĠE",
        "t"
      ],
      [
        "enn",
        "fahrer"
      ],
      [
        "ĠZ",
        "eich"
      ],
      [
        "la",
        "ger"
      ],
      [
        "ĠSch",
        "iff"
      ],
      [
        "il",
        "der"
      ],
      [
        "Ġ3",
        "1"
      ],
      [
        "ĠErn",
        "st"
      ],
      [
        "Ġver",
        "fÃ¼"
      ],
      [
        "ĠgrÃ¶ÃŁ",
        "ten"
      ],
      [
        "Ã¤ch",
        "lich"
      ],
      [
        "3",
        "6"
      ],
      [
        "ik",
        "ation"
      ],
      [
        "ĠG",
        "o"
      ],
      [
        "ĠR",
        "ich"
      ],
      [
        "ĠMart",
        "in"
      ],
      [
        "zeit",
        "ig"
      ],
      [
        "Ġ202",
        "1"
      ],
      [
        "Ġihn",
        "en"
      ],
      [
        "2",
        "8"
      ],
      [
        "be",
        "k"
      ],
      [
        "al",
        "ist"
      ],
      [
        "ĠF",
        "er"
      ],
      [
        "ĠAn",
        "der"
      ],
      [
        "ĠL",
        "iste"
      ],
      [
        "sk",
        "i"
      ],
      [
        "ĠStra",
        "ÃŁen"
      ],
      [
        "bli",
        "othe"
      ],
      [
        "u",
        "fen"
      ],
      [
        "o",
        "ster"
      ],
      [
        "Ġsch",
        "n"
      ],
      [
        "ĠH",
        "en"
      ],
      [
        "ĠAr",
        "ten"
      ],
      [
        "en",
        "gl"
      ],
      [
        "ĠGemein",
        "den"
      ],
      [
        "ĠAn",
        "g"
      ],
      [
        "Ġ",
        "arb"
      ],
      [
        "Ġ17",
        "9"
      ],
      [
        "rot",
        "z"
      ],
      [
        "Ġzahl",
        "reiche"
      ],
      [
        "ĠD",
        "on"
      ],
      [
        "e",
        "cht"
      ],
      [
        "if",
        "iz"
      ],
      [
        "ĠL",
        "ondon"
      ],
      [
        "ĠBe",
        "zeichnung"
      ],
      [
        "ĠOrg",
        "anis"
      ],
      [
        "f",
        "red"
      ],
      [
        "Ġw",
        "ahr"
      ],
      [
        "ĠAm",
        "t"
      ],
      [
        "3",
        "7"
      ],
      [
        "ĠHerr",
        "schaft"
      ],
      [
        "ĠS",
        "ol"
      ],
      [
        "Ġan",
        "t"
      ],
      [
        "Ã¤d",
        "ag"
      ],
      [
        "Ã¼r",
        "t"
      ],
      [
        "Ġ199",
        "8"
      ],
      [
        "g",
        "angen"
      ],
      [
        "Ġan",
        "geb"
      ],
      [
        "ie",
        "gel"
      ],
      [
        "3",
        "9"
      ],
      [
        "h",
        "ang"
      ],
      [
        "Ġver",
        "s"
      ],
      [
        "g",
        "ten"
      ],
      [
        "bar",
        "e"
      ],
      [
        "ĠJohann",
        "es"
      ],
      [
        "or",
        "ge"
      ],
      [
        "Ġbrit",
        "ischer"
      ],
      [
        "Ġwicht",
        "ig"
      ],
      [
        "Ġo",
        "ffen"
      ],
      [
        "o",
        "te"
      ],
      [
        "inz",
        "ip"
      ],
      [
        "Ġs",
        "og"
      ],
      [
        "iel",
        "len"
      ],
      [
        "reu",
        "ÃŁ"
      ],
      [
        "gel",
        "egt"
      ],
      [
        "au",
        "r"
      ],
      [
        "at",
        "ein"
      ],
      [
        "it",
        "h"
      ],
      [
        "t",
        "um"
      ],
      [
        "Ġzwei",
        "ten"
      ],
      [
        "Ġsp",
        "ez"
      ],
      [
        "l",
        "es"
      ],
      [
        "ĠR",
        "es"
      ],
      [
        "bar",
        "en"
      ],
      [
        "ab",
        "r"
      ],
      [
        "ĠA",
        "kt"
      ],
[...]
