{
  "version": "1.0",
  "truncation": null,
  "padding": null,
  "added_tokens": [
    {
      "id": 0,
      "content": "<|endoftext|>",
      "single_word": false,
      "lstrip": false,
      "rstrip": false,
      "normalized": false,
      "special": true
    }
  ],
  "normalizer": null,
  "pre_tokenizer": {
    "type": "ByteLevel",
    "add_prefix_space": true,
    "trim_offsets": true,
    "use_regex": true
  },
  "post_processor": {
    "type": "ByteLevel",
    "add_prefix_space": true,
    "trim_offsets": true,
    "use_regex": true
  },
  "decoder": {
    "type": "ByteLevel",
    "add_prefix_space": true,
    "trim_offsets": true,
    "use_regex": true
  },
  "model": {
    "type": "BPE",
    "dropout": null,
    "unk_token": null,
    "continuing_subword_prefix": null,
    "end_of_word_suffix": null,
    "fuse_unk": false,
    "byte_fallback": false,
    "ignore_merges": false,
    "vocab": {
      "<|endoftext|>": 0,
      "!": 1,
      "\"": 2,
      "#": 3,
      "$": 4,
      "%": 5,
      "&": 6,
      "'": 7,
      "(": 8,
      ")": 9,
      "*": 10,
      "+": 11,
      ",": 12,
      "-": 13,
      ".": 14,
      "/": 15,
      "0": 16,
      "1": 17,
      "2": 18,
      "3": 19,
      "4": 20,
      "5": 21,
      "6": 22,
      "7": 23,
      "8": 24,
      "9": 25,
      ":": 26,
      ";": 27,
      "<": 28,
      "=": 29,
      ">": 30,
      "?": 31,
      "@": 32,
      "A": 33,
      "B": 34,
      "C": 35,
      "D": 36,
      "E": 37,
      "F": 38,
      "G": 39,
      "H": 40,
      "I": 41,
      "J": 42,
      "K": 43,
      "L": 44,
      "M": 45,
      "N": 46,
      "O": 47,
      "P": 48,
      "Q": 49,
      "R": 50,
      "S": 51,
      "T": 52,
      "U": 53,
      "V": 54,
      "W": 55,
      "X": 56,
      "Y": 57,
      "Z": 58,
      "[": 59,
      "\\": 60,
      "]": 61,
      "^": 62,
      "_": 63,
      "`": 64,
      "a": 65,
      "b": 66,
      "c": 67,
      "d": 68,
      "e": 69,
      "f": 70,
      "g": 71,
      "h": 72,
      "i": 73,
      "j": 74,
      "k": 75,
      "l": 76,
      "m": 77,
      "n": 78,
      "o": 79,
      "p": 80,
      "q": 81,
      "r": 82,
      "s": 83,
      "t": 84,
      "u": 85,
      "v": 86,
      "w": 87,
      "x": 88,
      "y": 89,
      "z": 90,
      "{": 91,
      "|": 92,
      "}": 93,
      "~": 94,
      "¡": 95,
      "¢": 96,
      "£": 97,
      "¤": 98,
      "¥": 99,
      "¦": 100,
      "§": 101,
      "¨": 102,
      "©": 103,
      "ª": 104,
      "«": 105,
      "¬": 106,
      "®": 107,
      "¯": 108,
      "°": 109,
      "±": 110,
      "²": 111,
      "³": 112,
      "´": 113,
      "µ": 114,
      "¶": 115,
      "·": 116,
      "¸": 117,
      "¹": 118,
      "º": 119,
      "»": 120,
      "¼": 121,
      "½": 122,
      "¾": 123,
      "¿": 124,
      "À": 125,
      "Á": 126,
      "Â": 127,
      "Ã": 128,
      "Ä": 129,
      "Å": 130,
      "Æ": 131,
      "Ç": 132,
      "È": 133,
      "É": 134,
      "Ê": 135,
      "Ë": 136,
      "Ì": 137,
      "Í": 138,
      "Î": 139,
      "Ï": 140,
      "Ð": 141,
      "Ñ": 142,
      "Ò": 143,
      "Ó": 144,
      "Ô": 145,
      "Õ": 146,
      "Ö": 147,
      "×": 148,
      "Ø": 149,
      "Ù": 150,
      "Ú": 151,
      "Û": 152,
      "Ü": 153,
      "Ý": 154,
      "Þ": 155,
      "ß": 156,
      "à": 157,
      "á": 158,
      "â": 159,
      "ã": 160,
      "ä": 161,
      "å": 162,
      "æ": 163,
      "ç": 164,
      "è": 165,
      "é": 166,
      "ê": 167,
      "ë": 168,
      "ì": 169,
      "í": 170,
      "î": 171,
      "ï": 172,
      "ð": 173,
      "ñ": 174,
      "ò": 175,
      "ó": 176,
      "ô": 177,
      "õ": 178,
      "ö": 179,
      "÷": 180,
      "ø": 181,
      "ù": 182,
      "ú": 183,
      "û": 184,
      "ü": 185,
      "ý": 186,
      "þ": 187,
      "ÿ": 188,
      "Ā": 189,
      "ā": 190,
      "Ă": 191,
      "ă": 192,
      "Ą": 193,
      "ą": 194,
      "Ć": 195,
      "ć": 196,
      "Ĉ": 197,
      "ĉ": 198,
      "Ċ": 199,
      "ċ": 200,
      "Č": 201,
      "č": 202,
      "Ď": 203,
      "ď": 204,
      "Đ": 205,
      "đ": 206,
      "Ē": 207,
      "ē": 208,
      "Ĕ": 209,
      "ĕ": 210,
      "Ė": 211,
      "ė": 212,
      "Ę": 213,
      "ę": 214,
      "Ě": 215,
      "ě": 216,
      "Ĝ": 217,
      "ĝ": 218,
      "Ğ": 219,
      "ğ": 220,
      "Ġ": 221,
      "ġ": 222,
      "Ģ": 223,
      "ģ": 224,
      "Ĥ": 225,
      "ĥ": 226,
      "Ħ": 227,
      "ħ": 228,
      "Ĩ": 229,
      "ĩ": 230,
      "Ī": 231,
      "ī": 232,
      "Ĭ": 233,
      "ĭ": 234,
      "Į": 235,
      "į": 236,
      "İ": 237,
      "ı": 238,
      "Ĳ": 239,
      "ĳ": 240,
      "Ĵ": 241,
      "ĵ": 242,
      "Ķ": 243,
      "ķ": 244,
      "ĸ": 245,
      "Ĺ": 246,
      "ĺ": 247,
      "Ļ": 248,
      "ļ": 249,
      "Ľ": 250,
      "ľ": 251,
      "Ŀ": 252,
      "ŀ": 253,
      "Ł": 254,
      "ł": 255,
      "Ń": 256,
      "er": 257,
      "en": 258,
      "ch": 259,
      "Ġd": 260,
      "ei": 261,
      "un": 262,
      "ie": 263,
      "st": 264,
      "an": 265,
      "in": 266,
      "sch": 267,
      "on": 268,
      "ĠS": 269,
      "es": 270,
      "al": 271,
      "ein": 272,
      "und": 273,
      "au": 274,
      "Ġder": 275,
      "el": 276,
      "Ã¤": 277,
      "Ã¼": 278,
      "ar": 279,
      "ich": 280,
      "it": 281,
      "ĠA": 282,
      "Ġw": 283,
      "ur": 284,
      "ge": 285,
      "te": 286,
      "Ġv": 287,
      "or": 288,
      "ung": 289,
      "ĠB": 290,
      "Ġund": 291,
      "ĠD": 292,
      "Ġs": 293,
      "Ġdie": 294,
      "at": 295,
      "ĠĊ": 296,
      "Ġ1": 297,
      "ĠM": 298,
      "isch": 299,
      "Ġb": 300,
      "em": 301,
      "Ġein": 302,
      "as": 303,
      "ĠK": 304,
      "ten": 305,
      "hr": 306,
      "ĠE": 307,
      "ĠG": 308,
      "Ġz": 309,
      "Ġin": 310,
      "ĠF": 311,
      "Ġ(": 312,
      "ter": 313,
      "ĠP": 314,
      "gen": 315,
      "ol": 316,
      "Ġi": 317,
      "de": 318,
      "Ġau": 319,
      "âĢ": 320,
      "Ã¶": 321,
      "der": 322,
      "den": 323,
      "am": 324,
      "ĠH": 325,
      "Ġm": 326,
      "ĠW": 327,
      "ĠR": 328,
      "is": 329,
      "ber": 330,
      "Ġn": 331,
      "ĠL": 332,
      "et": 333,
      "ĠT": 334,
      "Ġvon": 335,
      "ĠI": 336,
      "ach": 337,
      "us": 338,
      "ĠV": 339,
      "Ġf": 340,
      "il": 341,
      "lich": 342,
      "ig": 343,
      "um": 344,
      "ut": 345,
      "ĠN": 346,
      "ĠJ": 347,
      "Ġ19": 348,
      "and": 349,
      "eit": 350,
      "ion": 351,
      "ier": 352,
      "Ġer": 353,
      "om": 354,
      "le": 355,
      "re": 356,
      "Ġden": 357,
      "Ġh": 358,
      "Ġdes": 359,
      "Ġ2": 360,
      "ik": 361,
      "ĠSt": 362,
      "Ġk": 363,
      "Ã¼r": 364,
      "ra": 365,
      "ro": 366,
      "Ġal": 367,
      "ent": 368,
      "ir": 369,
      "ÃŁ": 370,
      "ck": 371,
      "rei": 372,
      "Ġdas": 373,
      "Ġg": 374,
      "ab": 375,
      "Ġge": 376,
      "ft": 377,
      "Ġmit": 378,
      "ĠC": 379,
      "ischen": 380,
      "ĠZ": 381,
      "ĠDie": 382,
      "Ġim": 383,
      "Ġan": 384,
      "se": 385,
      "ĠSch": 386,
      "kt": 387,
      "Ġzu": 388,
      "Ġver": 389,
      "ĠâĢ": 390,
      "sen": 391,
      "ĠU": 392,
      "ann": 393,
      "Ġbe": 394,
      "ell": 395,
      "Ġauf": 396,
      "ĠO": 397,
      "ahr": 398,
      "sp": 399,
      "ben": 400,
      "icht": 401,
      "ĠVer": 402,
      "ĠIn": 403,
      "00": 404,
      "ist": 405,
      "ah": 406,
      "Ġdem": 407,
      "ff": 408,
      "Ġals": 409,
      "Ġwur": 410,
      "Ġo": 411,
      "Ã¤n": 412,
      "iel": 413,
      "ien": 414,
      "ad": 415,
      "ische": 416,
      "eh": 417,
      "wei": 418,
      "ger": 419,
      "Ġist": 420,
      "ĠfÃ¼r": 421,
      "eut": 422,
      "Ġaus": 423,
      "Ġsich": 424,
      "eich": 425,
      "Ġeine": 426,
      "men": 427,
      "ĠAn": 428,
      "he": 429,
      "ĠGe": 430,
      "ul": 431,
      "ver": 432,
      "rie": 433,
      "ungen": 434,
      "Ġl": 435,
      "ri": 436,
      "eg": 437,
      "ation": 438,
      "scha": 439,
      "Ġun": 440,
      "ischer": 441,
      "eu": 442,
      "ag": 443,
      "ot": 444,
      "eutsch": 445,
      "ĠEr": 446,
      "os": 447,
      "âĢľ": 448,
      "ĠEin": 449,
      "urch": 450,
      "ern": 451,
      "eil": 452,
      "Ġwurde": 453,
      "Ġbei": 454,
      "Ã¼n": 455,
      "ru": 456,
      "ind": 457,
      "ĠAu": 458,
      "Ã¼ber": 459,
      "ĠJahr": 460,
      "och": 461,
      "ĠâĢŀ": 462,
      "est": 463,
      "Ġsein": 464,
      "Ġst": 465,
      "ran": 466,
      "Ġauch": 467,
      "ehr": 468,
      "etz": 469,
      "hn": 470,
      "),": 471,
      "op": 472,
      "Ġp": 473,
      "ungs": 474,
      "im": 475,
      "og": 476,
      "Ġwar": 477,
      "ed": 478,
      "Ġnach": 479,
      "Ġt": 480,
      "ang": 481,
      "Ġ20": 482,
      "Ġwir": 483,
      "all": 484,
      "ĠÃ¼ber": 485,
      "schaft": 486,
      "Ġ18": 487,
      "Ġdurch": 488,
      "sten": 489,
      "ert": 490,
      "ing": 491,
      "igen": 492,
      "Ġwer": 493,
      "Ã¤t": 494,
      "chen": 495,
      "iv": 496,
      "Ã¤r": 497,
      "ĠBe": 498,
      "ĠAl": 499,
      "ort": 500,
      "Ġwerden": 501,
      "ser": 502,
      "ler": 503,
      "ĠSp": 504,
      "Ġso": 505,
      "Ġwird": 506,
      "cht": 507,
      "Ġeiner": 508,
      "Ġoder": 509,
      "ĠDer": 510,
      "ĠUn": 511,
      "Ã¶r": 512,
      "Ġunter": 513,
      "ĠAr": 514,
      "Ġnicht": 515,
      "rÃ¤": 516,
      "Ġzur": 517,
      "end": 518,
      "lie": 519,
      "ster": 520,
      "la": 521,
      "Ġj": 522,
      "Ġ3": 523,
      "Ġum": 524,
      "Ġbis": 525,
      "Ġvor": 526,
      "âĢĵ": 527,
      "stell": 528,
      "art": 529,
      "Ã¶n": 530,
      "adt": 531,
      "Ġdeutsch": 532,
      "Ġent": 533,
      "aus": 534,
      "Ġ200": 535,
      "ĠEn": 536,
      "Ġsch": 537,
      "Ġwie": 538,
      "Ġsind": 539,
      "nen": 540,
      "ĠâĢĵ": 541,
      "ige": 542,
      "ĠÃ": 543,
      "lichen": 544,
      "Ġam": 545,
      "be": 546,
      "hl": 547,
      "Ġzum": 548,
      "pp": 549,
      "hal": 550,
      "itt": 551,
      "19": 552,
      "ĠRe": 553,
      "elt": 554,
      "ste": 555,
      "oll": 556,
      "Ã¼hr": 557,
      "Ġes": 558,
      "her": 559,
      "iert": 560,
      "Ġsie": 561,
      ").": 562,
      "bl": 563,
      "gr": 564,
      "enn": 565,
      "Ġab": 566,
      "erk": 567,
      "liche": 568,
      "Ġihr": 569,
      "spiel": 570,
      "land": 571,
      "ahl": 572,
      "ĠPro": 573,
      "reich": 574,
      "ĠAus": 575,
      "zen": 576,
      "Ġa": 577,
      "Ġhat": 578,
      "geb": 579,
      "mer": 580,
      "od": 581,
      "ic": 582,
      "Ġeinem": 583,
      "bur": 584,
      "orm": 585,
      "eiter": 586,
      "zu": 587,
      "uch": 588,
      "ĠAb": 589,
      "ĠBer": 590,
      "Ã¼ck": 591,
      "ĠIm": 592,
      "eben": 593,
      "ord": 594,
      "tet": 595,
      "gt": 596,
      "Ġ201": 597,
      "ĠDas": 598,
      "gel": 599,
      "ap": 600,
      "ne": 601,
      "det": 602,
      "ĠMa": 603,
      "Ġdass": 604,
      "rach": 605,
      "ass": 606,
      "Ġsp": 607,
      "ers": 608,
      "ĠGr": 609,
      "rit": 610,
      "ges": 611,
      "lin": 612,
      "uss": 613,
      "hen": 614,
      "iz": 615,
      "ĠStadt": 616,
      "pt": 617,
      "pf": 618,
      "auf": 619,
      "Ã¤l": 620,
      "ess": 621,
      "Ġeinen": 622,
      "tern": 623,
      "Ġr": 624,
      "ant": 625,
      "id": 626,
      "ust": 627,
      "ĠAuf": 628,
      "Ġ199": 629,
      "ner": 630,
      "ob": 631,
      "keit": 632,
      "ÃŁen": 633,
      "iker": 634,
      "ĠNach": 635,
      "olit": 636,
      "ard": 637,
      "ick": 638,
      "ĠLand": 639,
      "Ġwurden": 640,
      "ĠKon": 641,
      "ĠHer": 642,
      "wie": 643,
      "alt": 644,
      "rau": 645,
      "ĠMar": 646,
      "ak": 647,
      "ill": 648,
      "Ã¤hr": 649,
      "gl": 650,
      "che": 651,
      "ud": 652,
      "fl": 653,
      "ĠIS": 654,
      "Ġ(*": 655,
      "ĠOr": 656,
      "burg": 657,
      "me": 658,
      "rich": 659,
      "Ġander": 660,
      "heit": 661,
      "ib": 662,
      "BN": 663,
      "ĠJo": 664,
      "ĠDeutsch": 665,
      "ĠISBN": 666,
      "wa": 667,
      "ekt": 668,
      "ze": 669,
      "Ġdeutscher": 670,
      "ial": 671,
      "ĠMit": 672,
      "ia": 673,
      "Ġzw": 674,
      "atur": 675,
      "ok": 676,
      "ĠVor": 677,
      "Ã¤u": 678,
      "ĠSie": 679,
      "Ġnur": 680,
      "bar": 681,
      "fen": 682,
      "eiten": 683,
      "atz": 684,
      "ech": 685,
      "zeich": 686,
      "ow": 687,
      "ild": 688,
      "Ġ17": 689,
      "ĠReg": 690,
      "onder": 691,
      "amm": 692,
      "ph": 693,
      "weise": 694,
      "ĠCh": 695,
      "reis": 696,
      "ss": 697,
      "aten": 698,
      "ĠAm": 699,
      "ĠFran": 700,
      "Ġ198": 701,
      "ĠSe": 702,
      "schl": 703,
      "omp": 704,
      "ikan": 705,
      "ĠZeit": 706,
      "ĠBei": 707,
      "arb": 708,
      "ken": 709,
      "sk": 710,
      "ĠFl": 711,
      "nis": 712,
      "fol": 713,
      "Ġre": 714,
      "Ġda": 715,
      "rÃ¼": 716,
      "Ġmehr": 717,
      "eln": 718,
      "berg": 719,
      "Ġ9": 720,
      "Ġ4": 721,
      "ĠUS": 722,
      "18": 723,
      "ktion": 724,
      "att": 725,
      "ieren": 726,
      "ian": 727,
      "Ġzwei": 728,
      "Ġ197": 729,
      "Ġet": 730,
      "ug": 731,
      "eine": 732,
      "schie": 733,
      "omm": 734,
      "per": 735,
      "Ġ(âĢ": 736,
      "ĠSo": 737,
      "fÃ¼hr": 738,
      "itÃ¤t": 739,
      "ho": 740,
      "aben": 741,
      "ĠDe": 742,
      "ichte": 743,
      "ast": 744,
      "mus": 745,
      "ierung": 746,
      "roÃŁ": 747,
      "qu": 748,
      "ex": 749,
      "Ã¶l": 750,
      "anz": 751,
      "fahr": 752,
      "itz": 753,
      "hund": 754,
      "teil": 755,
      "ale": 756,
      "Ġvom": 757,
      "olog": 758,
      "schen": 759,
      "amer": 760,
      "Ġbest": 761,
      "elle": 762,
      "eist": 763,
      "arl": 764,
      "Ã¤nd": 765,
      "Ġaber": 766,
      "Ġall": 767,
      "ĠThe": 768,
      "bau": 769,
      "Ġnoch": 770,
      "acht": 771,
      "Ġ5": 772,
      "Ġkon": 773,
      "net": 774,
      "ĠJahrhund": 775,
      "Ġ196": 776,
      "ierte": 777,
      "ĠKl": 778,
      "enz": 779,
      "Ġdar": 780,
      "ffen": 781,
      "iger": 782,
      "ahn": 783,
      "ehen": 784,
      "Ġgegen": 785,
      "Ġeines": 786,
      "rat": 787,
      "als": 788,
      "spieler": 789,
      "ks": 790,
      "Ġweiter": 791,
      "ĠUnter": 792,
      "eb": 793,
      "ĠJahrhundert": 794,
      "vers": 795,
      "imm": 796,
      "Ġ194": 797,
      "utz": 798,
      "kl": 799,
      "ommen": 800,
      "ĠEnt": 801,
      "ov": 802,
      "ften": 803,
      "ember": 804,
      "zeit": 805,
      "ĠÃľ": 806,
      "Ã¶s": 807,
      "Ġ15": 808,
      "ieder": 809,
      "Ġsowie": 810,
      "ammen": 811,
      "Ġzwischen": 812,
      "ult": 813,
      "ĠPh": 814,
      "fer": 815,
      "eits": 816,
      "issen": 817,
      "Ġbes": 818,
      "ĠChr": 819,
      "Ġ16": 820,
      "tem": 821,
      "Ġgen": 822,
      "pl": 823,
      "glich": 824,
      "ĠGesch": 825,
      "Ġneu": 826,
      "bst": 827,
      "alen": 828,
      "20": 829,
      "amen": 830,
      "ittel": 831,
      "ark": 832,
      "iet": 833,
      "lung": 834,
      "ĠMus": 835,
      "annt": 836,
      "Ġber": 837,
      "Ã©": 838,
      "dem": 839,
      "Ġgew": 840,
      "ÃŁer": 841,
      "Ġkann": 842,
      "igkeit": 843,
      "Ġ195": 844,
      "etzt": 845,
      "ha": 846,
      "wick": 847,
      "Ġ=": 848,
      "ĠGes": 849,
      "Ã¼d": 850,
      "ĠUm": 851,
      "Ã¤ch": 852,
      "pr": 853,
      "ition": 854,
      "mann": 855,
      "Ġgr": 856,
      "ober": 857,
      "yst": 858,
      "wer": 859,
      "ellen": 860,
      "sb": 861,
      "Ã¶nig": 862,
      "Ġman": 863,
      "gem": 864,
      "eim": 865,
      "aat": 866,
      "ium": 867,
      "io": 868,
      "ron": 869,
      "Ġjed": 870,
      "Ġdies": 871,
      "form": 872,
      "Ġ(âĢł": 873,
      "Ġde": 874,
      "du": 875,
      "gesch": 876,
      "Ġlie": 877,
      "rieg": 878,
      "org": 879,
      "ĠTeil": 880,
      "Ġseiner": 881,
      "aupt": 882,
      "ĠBund": 883,
      "wo": 884,
      "ĠGem": 885,
      "assen": 886,
      "ath": 887,
      "eigen": 888,
      "tra": 889,
      "Ġwaren": 890,
      "Ġ6": 891,
      "nung": 892,
      "ĠÃľber": 893,
      "rupp": 894,
      "ay": 895,
      "ĠPolit": 896,
      "usammen": 897,
      "ingen": 898,
      "ĠkÃ¶n": 899,
      "raf": 900,
      "rift": 901,
      "Ġ193": 902,
      "eld": 903,
      "ystem": 904,
      "oren": 905,
      "ĠGeb": 906,
      "Ã¤d": 907,
      "leich": 908,
      "ĠBr": 909,
      "av": 910,
      "Ã¼t": 911,
      "nah": 912,
      "Ġseit": 913,
      "Ġdieser": 914,
      "fall": 915,
      "amerikan": 916,
      "fin": 917,
      "78": 918,
      "stand": 919,
      "Ġges": 920,
      "reu": 921,
      "Ġseine": 922,
      "urop": 923,
      "inn": 924,
      "entr": 925,
      "ĠMen": 926,
      "ĠWelt": 927,
      "Ġhatte": 928,
      "els": 929,
      "Ġgeh": 930,
      "ander": 931,
      "Ġetwa": 932,
      "tschaft": 933,
      "hm": 934,
      "rad": 935,
      "ĠEs": 936,
      "ker": 937,
      "ater": 938,
      "Ã¶ff": 939,
      "Ġhin": 940,
      "ts": 941,
      "ĠKÃ¶nig": 942,
      "Ġbet": 943,
      "if": 944,
      "ĠQ": 945,
      "eter": 946,
      "off": 947,
      "Ġof": 948,
      "Ġwieder": 949,
      "ĠJahre": 950,
      "ĠSchw": 951,
      "Ġjedoch": 952,
      "ĠBau": 953,
      "ek": 954,
      "sel": 955,
      "Ã¤nder": 956,
      "deut": 957,
      "egen": 958,
      "ĠFrie": 959,
      "ive": 960,
      "ĠPl": 961,
      "ĠZu": 962,
      "000": 963,
      "ilm": 964,
      "ais": 965,
      "ĠKir": 966,
      "ĠTh": 967,
      "Ġgel": 968,
      "iter": 969,
      "Ġdiese": 970,
      "ismus": 971,
      "ĠAug": 972,
      "ĠBundes": 973,
      "ĠBl": 974,
      "ine": 975,
      "Ã¤ter": 976,
      "halten": 977,
      "Ġher": 978,
      "ett": 979,
      "zw": 980,
      "Ġle": 981,
      "ĠGemein": 982,
      "th": 983,
      "Ã¤hl": 984,
      "Ġ8": 985,
      "glie": 986,
      "ĠSchl": 987,
      "ibt": 988,
      "Ġ7": 989,
      "werk": 990,
      "Ġdam": 991,
      "anden": 992,
      "asser": 993,
      "iele": 994,
      "ĠEl": 995,
      "Ġsel": 996,
      "ym": 997,
      "ĠQu": 998,
      "ip": 999,
      "ĠAd": 1000,
      "ĠDeutschland": 1001,
      "ans": 1002,
      "ac": 1003,
      "Ġverb": 1004,
      "Ġkl": 1005,
      "ens": 1006,
      "Ġje": 1007,
      "fe": 1008,
      "ĠBerlin": 1009,
      "iden": 1010,
      "ald": 1011,
      "ionen": 1012,
      "yn": 1013,
      "ĠNe": 1014,
      "Ã¤hrend": 1015,
      "sterreich": 1016,
      "vor": 1017,
      "ĠkÃ¶nnen": 1018,
      "ÃŁe": 1019,
      "ĠLeben": 1020,
      "ierten": 1021,
      "ĠReich": 1022,
      "Ġ14": 1023,
      "ehmen": 1024,
      "unden": 1025,
      "stadt": 1026,
      "ivers": 1027,
      "kehr": 1028,
      "pro": 1029,
      "Ġsoll": 1030,
      "eid": 1031,
      "aut": 1032,
      "zial": 1033,
      "zeu": 1034,
      "orden": 1035,
      "ĠRo": 1036,
      "ĠJan": 1037,
      "zÃ¶s": 1038,
      "ĠMon": 1039,
      "len": 1040,
      "eute": 1041,
      "age": 1042,
      "ĠJahren": 1043,
      "ott": 1044,
      "licher": 1045,
      "ĠfÃ¼hr": 1046,
      "ĠGen": 1047,
      "ĠAugust": 1048,
      "lage": 1049,
      "setz": 1050,
      "Ġverw": 1051,
      "ĠBo": 1052,
      "rieb": 1053,
      "str": 1054,
      "of": 1055,
      "istor": 1056,
      "riff": 1057,
      "Ġerst": 1058,
      "ys": 1059,
      "tr": 1060,
      "ĠNeu": 1061,
      "ĠBeg": 1062,
      "lieÃŁ": 1063,
      "ĠAut": 1064,
      "ĠGrund": 1065,
      "Ġe": 1066,
      "Ġ12": 1067,
      "abe": 1068,
      "ball": 1069,
      "Ġ%": 1070,
      "ĠÃĸ": 1071,
      "Ġhaben": 1072,
      "aler": 1073,
      "ub": 1074,
      "ĠFrank": 1075,
      "iss": 1076,
      "auer": 1077,
      "ĠPr": 1078,
      "inder": 1079,
      "ultur": 1080,
      "ĠHand": 1081,
      "ĠWir": 1082,
      "Ġ13": 1083,
      "ĠEine": 1084,
      "ĠGer": 1085,
      "Ã¶glich": 1086,
      "ĠJul": 1087,
      "ĠArb": 1088,
      "issenschaft": 1089,
      "zer": 1090,
      "old": 1091,
      "eht": 1092,
      "weg": 1093,
      "Ġbek": 1094,
      "geben": 1095,
      "ĠVerl": 1096,
      "Ġ10": 1097,
      "Ġc": 1098,
      "schieden": 1099,
      "for": 1100,
      "ht": 1101,
      "olle": 1102,
      "ĠVerb": 1103,
      "Ġgibt": 1104,
      "Ġdrei": 1105,
      "recht": 1106,
      "Ġen": 1107,
      "Ġfol": 1108,
      "Ã¼l": 1109,
      "ĠLe": 1110,
      "ĠMÃ¤r": 1111,
      "tete": 1112,
      "ate": 1113,
      "rÃ¤s": 1114,
      "Ġeigen": 1115,
      "yp": 1116,
      "richt": 1117,
      "ĠPolitiker": 1118,
      "amt": 1119,
      "ma": 1120,
      "ĠLu": 1121,
      "ationen": 1122,
      "halb": 1123,
      "ĠHaupt": 1124,
      "ranzÃ¶s": 1125,
      "ĠspÃ¤ter": 1126,
      "Ġger": 1127,
      "oph": 1128,
      "ubl": 1129,
      "ke": 1130,
      "Ã¤lt": 1131,
      "ĠPers": 1132,
      "ĠKomp": 1133,
      "ce": 1134,
      "igt": 1135,
      "ius": 1136,
      "Ġ192": 1137,
      "schaften": 1138,
      "uÃŁ": 1139,
      "Ã¤nger": 1140,
      "ĠMÃ¼n": 1141,
      "uar": 1142,
      "hne": 1143,
      "wir": 1144,
      "iteratur": 1145,
      "ĠGl": 1146,
      "Ã¼rger": 1147,
      "Ġihre": 1148,
      "ĠFÃ¼r": 1149,
      "ĠStaat": 1150,
      "angen": 1151,
      "eister": 1152,
      "ĠOber": 1153,
      "Ġanderen": 1154,
      "ruck": 1155,
      "iff": 1156,
      "stein": 1157,
      "amerikanischer": 1158,
      "min": 1159,
      "Ã¤ng": 1160,
      "Ġkonn": 1161,
      "alien": 1162,
      ".)": 1163,
      "ĠgrÃ¶": 1164,
      "Ġersten": 1165,
      "stellt": 1166,
      "steller": 1167,
      "Ġausge": 1168,
      "gend": 1169,
      "ĠChrist": 1170,
      "ĠDiese": 1171,
      "gemein": 1172,
      "bt": 1173,
      "ĠII": 1174,
      "ire": 1175,
      "satz": 1176,
      "ost": 1177,
      "Ġ978": 1178,
      "ĠJun": 1179,
      "âĢĻ": 1180,
      "ĠFried": 1181,
      "hann": 1182,
      "stellung": 1183,
      "olf": 1184,
      "ĠAnt": 1185,
      "akt": 1186,
      "ĠGroÃŁ": 1187,
      "ĠOkt": 1188,
      "ĠNov": 1189,
      "ĠEx": 1190,
      "ĠMai": 1191,
      "17": 1192,
      "ielt": 1193,
      "ock": 1194,
      "ĠFor": 1195,
      "ĠJanuar": 1196,
      "onen": 1197,
      "ĠBet": 1198,
      "ĠfranzÃ¶s": 1199,
      "man": 1200,
      "ĠSchau": 1201,
      "entlich": 1202,
      "ogen": 1203,
      "ĠUnivers": 1204,
      "ings": 1205,
      "ĠVol": 1206,
      "gte": 1207,
      "abei": 1208,
      "Ġgleich": 1209,
      "Ġgem": 1210,
      "Ã¤m": 1211,
      "ĠzurÃ¼ck": 1212,
      "ĠSchrift": 1213,
      "gang": 1214,
      "ĠOktober": 1215,
      "ĠY": 1216,
      "Ġbeg": 1217,
      "ĠJohann": 1218,
      "ĠgehÃ¶r": 1219,
      "ologie": 1220,
      "ĠMÃ¤rz": 1221,
      "unst": 1222,
      "Ġpro": 1223,
      "elm": 1224,
      "sg": 1225,
      "ĠDez": 1226,
      "dr": 1227,
      "az": 1228,
      "ĠWest": 1229,
      "igung": 1230,
      "ĠAls": 1231,
      "ĠSep": 1232,
      "ĠGeschichte": 1233,
      "ĠLiteratur": 1234,
      "oge": 1235,
      "15": 1236,
      "ĠNord": 1237,
      "ĠgroÃŁ": 1238,
      "Ġheute": 1239,
      "zeichnet": 1240,
      "tt": 1241,
      "inz": 1242,
      "tember": 1243,
      "orf": 1244,
      "stÃ¤nd": 1245,
      "pril": 1246,
      "ĠÃ¶": 1247,
      "ĠWerk": 1248,
      "ĠMenschen": 1249,
      "unkt": 1250,
      "grund": 1251,
      "stra": 1252,
      "ĠDezember": 1253,
      "bild": 1254,
      "Ġfin": 1255,
      "ĠJuni": 1256,
      "St": 1257,
      "zahl": 1258,
      "ĠSeptember": 1259,
      "ĠBes": 1260,
      "ĠApril": 1261,
      "cher": 1262,
      "Ã¼nd": 1263,
      "ĠFilm": 1264,
      "ĠJuli": 1265,
      "ational": 1266,
      "zie": 1267,
      "oten": 1268,
      "gew": 1269,
      "Ġerh": 1270,
      "kon": 1271,
      "ĠBild": 1272,
      "ossen": 1273,
      "ĠFuÃŁ": 1274,
      "ĠPar": 1275,
      "gleich": 1276,
      "16": 1277,
      "ĠÃĦ": 1278,
      "ĠPhil": 1279,
      "ĠSprach": 1280,
      "our": 1281,
      "ĠNovember": 1282,
      "Ã¶m": 1283,
      "Ġihn": 1284,
      "ĠUr": 1285,
      "ĠEurop": 1286,
      "Ġerste": 1287,
      "lex": 1288,
      "10": 1289,
      "Ġdeutsche": 1290,
      "ere": 1291,
      "Ġseinen": 1292,
      "ende": 1293,
      "Ġviel": 1294,
      "wend": 1295,
      "Ġgeb": 1296,
      "ĠPart": 1297,
      "ĠStra": 1298,
      "ĠInd": 1299,
      "mal": 1300,
      "Ġihrer": 1301,
      "inger": 1302,
      "isches": 1303,
      "sw": 1304,
      "alter": 1305,
      "ĠEnde": 1306,
      "Ġwen": 1307,
      "rag": 1308,
      "orn": 1309,
      "oss": 1310,
      "Ġ190": 1311,
      "Ġverl": 1312,
      "annte": 1313,
      "ina": 1314,
      "âĢľ.": 1315,
      "Ġverschieden": 1316,
      "arten": 1317,
      "esen": 1318,
      "isten": 1319,
      "ĠAuch": 1320,
      "ĠMittel": 1321,
      "ĠWil": 1322,
      "Ġalle": 1323,
      "ĠMin": 1324,
      "ou": 1325,
      "ĠDar": 1326,
      "Ġselbst": 1327,
      "Ġthe": 1328,
      "Ġdamit": 1329,
      "ĠHoch": 1330,
      "ren": 1331,
      "ister": 1332,
      "walt": 1333,
      "Ġbesch": 1334,
      "ame": 1335,
      "Ã¶lker": 1336,
      "ĠGegen": 1337,
      "fte": 1338,
      "gung": 1339,
      "ĠDurch": 1340,
      "Ġkeine": 1341,
      "halt": 1342,
      "Ġaller": 1343,
      "ule": 1344,
      "Ġbereits": 1345,
      "Ġallem": 1346,
      "ĠFrei": 1347,
      "ĠPol": 1348,
      "rieben": 1349,
      "âĢľ,": 1350,
      "sprach": 1351,
      "Ġzusammen": 1352,
      "Ġeinz": 1353,
      "ĠKur": 1354,
      "ĠMusik": 1355,
      "amil": 1356,
      "Ġseinem": 1357,
      "unk": 1358,
      "ĠWe": 1359,
      "ĠFriedrich": 1360,
      "Ġwo": 1361,
      "lagen": 1362,
      "ĠSchauspieler": 1363,
      "essen": 1364,
      "ativ": 1365,
      "ĠRecht": 1366,
      "ĠWei": 1367,
      "ĠSchwei": 1368,
      "ĠKarl": 1369,
      "grÃ¼n": 1370,
      "ĠForm": 1371,
      "ruppen": 1372,
      "ĠArt": 1373,
      "eck": 1374,
      "ellschaft": 1375,
      "ĠwÃ¤hrend": 1376,
      "ĠEinz": 1377,
      "br": 1378,
      "Ġsehr": 1379,
      "aden": 1380,
      "Ġex": 1381,
      "ĠWasser": 1382,
      "ĠKrieg": 1383,
      "Ġdann": 1384,
      "ĠSte": 1385,
      "stoff": 1386,
      "ĠMan": 1387,
      "geh": 1388,
      "Ġeben": 1389,
      "oder": 1390,
      "are": 1391,
      "ĠKo": 1392,
      "Ġeh": 1393,
      "ĠMitglie": 1394,
      "ebru": 1395,
      "zt": 1396,
      "Ġhier": 1397,
      "ebruar": 1398,
      "Ġbzw": 1399,
      "falls": 1400,
      "uten": 1401,
      "rÃ¤siden": 1402,
      "Ġerfol": 1403,
      "ĠHein": 1404,
      "rechen": 1405,
      "endet": 1406,
      "ĠFebruar": 1407,
      "ĠBand": 1408,
      "Ġsei": 1409,
      "ĠLandes": 1410,
      "aum": 1411,
      "anis": 1412,
      "ĠfrÃ¼": 1413,
      "Ġch": 1414,
      "fr": 1415,
      "agen": 1416,
      "Ã¤ÃŁ": 1417,
      "wohn": 1418,
      "haus": 1419,
      "12": 1420,
      "schn": 1421,
      "ĠMed": 1422,
      "unktion": 1423,
      "Ġihm": 1424,
      "ĠDa": 1425,
      "ĠNieder": 1426,
      "fÃ¼": 1427,
      "reg": 1428,
      "ĠRom": 1429,
      "14": 1430,
      "Ġins": 1431,
      "ĠJu": 1432,
      "raph": 1433,
      "fÃ¼hrt": 1434,
      "fang": 1435,
      "fÃ¼r": 1436,
      "eitung": 1437,
      "Ġ202": 1438,
      "kreis": 1439,
      "Ġwenn": 1440,
      "Ã¤hn": 1441,
      "ĠFuÃŁball": 1442,
      "heim": 1443,
      "zug": 1444,
      "ank": 1445,
      "ĠKreis": 1446,
      "ĠSÃ¼d": 1447,
      "ĠZw": 1448,
      "Ġsonder": 1449,
      "chn": 1450,
      "Ġzun": 1451,
      "einen": 1452,
      "Ġ189": 1453,
      "ĠRei": 1454,
      ".,": 1455,
      "Ġsondern": 1456,
      "hof": 1457,
      "ĠKunst": 1458,
      "bert": 1459,
      "bahn": 1460,
      "ĠKais": 1461,
      "sicht": 1462,
      "Ã¤uf": 1463,
      "13": 1464,
      "sst": 1465,
      "Ġeinge": 1466,
      "ĠNamen": 1467,
      "ied": 1468,
      "ĠPf": 1469,
      "50": 1470,
      "meister": 1471,
      "hand": 1472,
      "ond": 1473,
      "Ġbeim": 1474,
      "ĠMet": 1475,
      "ehn": 1476,
      "spr": 1477,
      "Ã¤nde": 1478,
      "keiten": 1479,
      "tre": 1480,
      "Ã¼s": 1481,
      "Ġstatt": 1482,
      "lau": 1483,
      "eite": 1484,
      "achsen": 1485,
      "ilit": 1486,
      "inks": 1487,
      "ĠFrau": 1488,
      "cken": 1489,
      "ĠVers": 1490,
      "ublik": 1491,
      "Ġohne": 1492,
      "ĠDies": 1493,
      "Ġdiesem": 1494,
      "Ġange": 1495,
      "eile": 1496,
      "Ġteil": 1497,
      "hin": 1498,
      "ĠHa": 1499,
      "Ġentst": 1500,
      "Ã¼nst": 1501,
      "Ġderen": 1502,
      "fach": 1503,
      "ĠEis": 1504,
      "ations": 1505,
      "ĠSchriftsteller": 1506,
      "arr": 1507,
      "ika": 1508,
      "sche": 1509,
      "Ġwel": 1510,
      "Ġkonnte": 1511,
      "ont": 1512,
      "Ġersch": 1513,
      "buch": 1514,
      "Ġbezeichnet": 1515,
      "ct": 1516,
      "Ġletz": 1517,
      "ator": 1518,
      "eins": 1519,
      "alis": 1520,
      "sweise": 1521,
      "Ġben": 1522,
      "onist": 1523,
      "wicklung": 1524,
      "ĠOrt": 1525,
      "mals": 1526,
      "schied": 1527,
      "ĠBeispiel": 1528,
      "ĠMill": 1529,
      "ĠZwei": 1530,
      "Sch": 1531,
      "uf": 1532,
      "ondere": 1533,
      "reichen": 1534,
      "lo": 1535,
      "fahren": 1536,
      "klÃ¤r": 1537,
      "rsg": 1538,
      "son": 1539,
      "Ġnah": 1540,
      "raft": 1541,
      "Ġwas": 1542,
      "zog": 1543,
      "ĠFol": 1544,
      "Ġdeutschen": 1545,
      "ĠKultur": 1546,
      "wig": 1547,
      "kommen": 1548,
      "nahme": 1549,
      "ĠProz": 1550,
      "ĠEm": 1551,
      "rom": 1552,
      "ĠGemeinde": 1553,
      "hÃ¤lt": 1554,
      "enden": 1555,
      "Ã¼b": 1556,
      "ĠSpiel": 1557,
      "unter": 1558,
      "enk": 1559,
      "ipp": 1560,
      "ĠVerlag": 1561,
      "gebiet": 1562,
      "ĠMe": 1563,
      "Ġimmer": 1564,
      "ĠZusammen": 1565,
      "ĠBuch": 1566,
      "aul": 1567,
      "mittel": 1568,
      "ĠBÃ¼rger": 1569,
      "ĠAt": 1570,
      "ruch": 1571,
      "angel": 1572,
      "ĠSon": 1573,
      "urt": 1574,
      "krieg": 1575,
      "feld": 1576,
      "dings": 1577,
      "vÃ¶lker": 1578,
      "ruppe": 1579,
      "Ã¶ffentlich": 1580,
      "ĠMÃ¼nchen": 1581,
      "Ġdort": 1582,
      "ĠBest": 1583,
      "verb": 1584,
      "ĠBi": 1585,
      "Ġwicht": 1586,
      "Ġkam": 1587,
      "roÃŁen": 1588,
      "Ġschw": 1589,
      "Ġliegt": 1590,
      "Ġbrit": 1591,
      "helm": 1592,
      "ienst": 1593,
      "ĠInter": 1594,
      "asse": 1595,
      "annten": 1596,
      "inter": 1597,
      "eiden": 1598,
      "Ġvier": 1599,
      "ĠArch": 1600,
      "hÃ¤ng": 1601,
      "erg": 1602,
      "bach": 1603,
      "schw": 1604,
      "mar": 1605,
      "Ġbeiden": 1606,
      "Ġpolit": 1607,
      "ĠVon": 1608,
      "ĠGener": 1609,
      "ĠLa": 1610,
      "ĠOst": 1611,
      "Ġbil": 1612,
      "Ã¤tz": 1613,
      "eum": 1614,
      "Ġand": 1615,
      "ĠZahl": 1616,
      "ider": 1617,
      "ĠIs": 1618,
      "fas": 1619,
      "Ġgab": 1620,
      "ktur": 1621,
      "ez": 1622,
      "ĠTod": 1623,
      "Ã¤h": 1624,
      "icher": 1625,
      "Ġdessen": 1626,
      "ĠKomm": 1627,
      "punkt": 1628,
      "emen": 1629,
      "ĠAll": 1630,
      "Ġentwick": 1631,
      "genden": 1632,
      "dern": 1633,
      "ĠSeit": 1634,
      "na": 1635,
      "jekt": 1636,
      "ograph": 1637,
      "Ġbel": 1638,
      "ĠSu": 1639,
      "Ġ188": 1640,
      "rot": 1641,
      "aaten": 1642,
      "cke": 1643,
      "hein": 1644,
      "ange": 1645,
      "Ġdenen": 1646,
      "ĠHe": 1647,
      "gabe": 1648,
      "Ġihren": 1649,
      "gegen": 1650,
      "red": 1651,
      "ĠHerr": 1652,
      "dete": 1653,
      "Ġandere": 1654,
      "Ġbefin": 1655,
      "ausen": 1656,
      "nisse": 1657,
      "ĠHÃ¶": 1658,
      "Ġ30": 1659,
      "Ġgesch": 1660,
      "hard": 1661,
      "Ġ-": 1662,
      "Ġweitere": 1663,
      "amp": 1664,
      "ischof": 1665,
      "gesetzt": 1666,
      "ĠJahrhunderts": 1667,
      "wohl": 1668,
      "ologe": 1669,
      "ĠhÃ¶": 1670,
      "ĠNatur": 1671,
      "ĠKirche": 1672,
      "Ġfest": 1673,
      "ient": 1674,
      "ons": 1675,
      "weil": 1676,
      ".):": 1677,
      "scher": 1678,
      "elig": 1679,
      "Ã¤chst": 1680,
      "Hrsg": 1681,
      "stit": 1682,
      "einander": 1683,
      "ilt": 1684,
      "zentr": 1685,
      "Ġho": 1686,
      "ĠGott": 1687,
      "ĠVerein": 1688,
      "ĠBas": 1689,
      "ĠSk": 1690,
      "ĠgrÃ¶ÃŁ": 1691,
      "raum": 1692,
      "ĠKaiser": 1693,
      "ĠKomponist": 1694,
      "ĠWeiter": 1695,
      "ĠHeinrich": 1696,
      "schlossen": 1697,
      "Ġkomm": 1698,
      "ennt": 1699,
      "ution": 1700,
      "ĠWilhelm": 1701,
      "stru": 1702,
      "arch": 1703,
      "lieÃŁlich": 1704,
      "unde": 1705,
      "ĠFern": 1706,
      "Ġverm": 1707,
      "ĠStud": 1708,
      "Ver": 1709,
      "ĠTr": 1710,
      "sbes": 1711,
      "urz": 1712,
      "ide": 1713,
      "ĠMo": 1714,
      "Ġoft": 1715,
      "Ġentsp": 1716,
      "Ġmitt": 1717,
      "erst": 1718,
      "orie": 1719,
      "Ġworden": 1720,
      "Ġgef": 1721,
      "ĠLin": 1722,
      "Ġ11": 1723,
      "Ġzahl": 1724,
      "Ġverwendet": 1725,
      "ĠWo": 1726,
      "ĠWien": 1727,
      "Ġmus": 1728,
      "iner": 1729,
      "Ġu": 1730,
      "umen": 1731,
      "Ġdabei": 1732,
      "ument": 1733,
      "ĠÃ¶sterreich": 1734,
      "iere": 1735,
      "Ġ0": 1736,
      "Ġ25": 1737,
      "gestellt": 1738,
      "Ġbestimm": 1739,
      "ĠMann": 1740,
      "ĠBur": 1741,
      "40": 1742,
      "Ġstell": 1743,
      "ĠDr": 1744,
      "yr": 1745,
      "ffiz": 1746,
      "osoph": 1747,
      "athol": 1748,
      "ĠPeter": 1749,
      "yl": 1750,
      "ĠFre": 1751,
      "ĠWebl": 1752,
      "ĠSystem": 1753,
      "chte": 1754,
      "ĠFamil": 1755,
      "eren": 1756,
      "igten": 1757,
      "ĠDi": 1758,
      "assung": 1759,
      "druck": 1760,
      "ĠWeblinks": 1761,
      "ĠWirtschaft": 1762,
      "vol": 1763,
      "euer": 1764,
      "ĠRad": 1765,
      "ĠOb": 1766,
      "Ã¤re": 1767,
      "ĠProdu": 1768,
      "hol": 1769,
      "Ã¡": 1770,
      "esse": 1771,
      "bung": 1772,
      "publik": 1773,
      "ats": 1774,
      "Ġalso": 1775,
      "eisten": 1776,
      "utt": 1777,
      "ĠmÃ¶glich": 1778,
      "italien": 1779,
      "ĠEd": 1780,
      "ĠCo": 1781,
      "mit": 1782,
      "so": 1783,
      "Ã¶t": 1784,
      "ĠBegriff": 1785,
      "ilitÃ¤r": 1786,
      "ĠGra": 1787,
      "prÃ¤": 1788,
      "ute": 1789,
      "sbesondere": 1790,
      "ies": 1791,
      "Ġbede": 1792,
      "Ġstark": 1793,
      "ĠUntern": 1794,
      "riv": 1795,
      "ĠIntern": 1796,
      "elte": 1797,
      "ĠJe": 1798,
      "ĠSal": 1799,
      "emal": 1800,
      "Ġur": 1801,
      "ĠHans": 1802,
      "ĠUniversitÃ¤t": 1803,
      "ĠPer": 1804,
      "ĠFuÃŁballspieler": 1805,
      "inen": 1806,
      "ament": 1807,
      "ĠFahr": 1808,
      "ĠBevÃ¶lker": 1809,
      "Ã¤hlt": 1810,
      "Ġ186": 1811,
      "zieh": 1812,
      "achen": 1813,
      "ichten": 1814,
      "ĠBedeut": 1815,
      "ore": 1816,
      "ign": 1817,
      "ritt": 1818,
      "ĠFlug": 1819,
      "ĠLebens": 1820,
      "ade": 1821,
      "Ġneue": 1822,
      "ĠOl": 1823,
      "vangel": 1824,
      "Ġinner": 1825,
      "von": 1826,
      "emat": 1827,
      "ĠFest": 1828,
      "schul": 1829,
      "reiche": 1830,
      "ĠHam": 1831,
      "ĠBar": 1832,
      "Ġ187": 1833,
      "Ã¤ft": 1834,
      "aher": 1835,
      "ĠHo": 1836,
      "ĠNew": 1837,
      "ĠDeutschen": 1838,
      "ampf": 1839,
      "ĠWahl": 1840,
      "stalt": 1841,
      "ĠMich": 1842,
      "ĠTex": 1843,
      "fern": 1844,
      "ĠKinder": 1845,
      "Ġmeist": 1846,
      "co": 1847,
      "Ã¤ufig": 1848,
      "ĠSchul": 1849,
      "ĠHaus": 1850,
      "Ġgilt": 1851,
      "Ġviele": 1852,
      "schluss": 1853,
      "isk": 1854,
      "rÃ¤ger": 1855,
      "ĠX": 1856,
      "trag": 1857,
      "itel": 1858,
      "ele": 1859,
      "ĠLuft": 1860,
      "folge": 1861,
      "Ġbekannt": 1862,
      "ĠÃĸsterreich": 1863,
      "setzung": 1864,
      "ĠDem": 1865,
      "Ġfrei": 1866,
      "ĠHistor": 1867,
      "we": 1868,
      "ĠRÃ¼ck": 1869,
      "Ġweit": 1870,
      "11": 1871,
      "Ġanderem": 1872,
      "Ġebenfalls": 1873,
      "ins": 1874,
      "Ġschon": 1875,
      "one": 1876,
      "30": 1877,
      "anten": 1878,
      "ĠSa": 1879,
      "ĠauÃŁer": 1880,
      "Ġjeweil": 1881,
      "techn": 1882,
      "Ã¼tz": 1883,
      "ĠHal": 1884,
      "wert": 1885,
      "ĠKirchen": 1886,
      "ĠAk": 1887,
      "ĠOrg": 1888,
      "ikt": 1889,
      "lei": 1890,
      "such": 1891,
      "aren": 1892,
      "Ġheut": 1893,
      "ĠZentr": 1894,
      "igte": 1895,
      "schule": 1896,
      "ĠKr": 1897,
      "Ġerw": 1898,
      "Ã¶rper": 1899,
      "furt": 1900,
      "ity": 1901,
      "wohner": 1902,
      "onders": 1903,
      "echs": 1904,
      "ĠBay": 1905,
      "ĠJohn": 1906,
      "ums": 1907,
      "Ġvoll": 1908,
      "Ġel": 1909,
      "indung": 1910,
      "deck": 1911,
      "ucht": 1912,
      "ĠStÃ¤d": 1913,
      "rop": 1914,
      "kir": 1915,
      "gesetz": 1916,
      "achweise": 1917,
      "ĠLud": 1918,
      "ĠEinzeln": 1919,
      "gende": 1920,
      "Ġengl": 1921,
      "ĠBedeutung": 1922,
      "Ã¤nge": 1923,
      "ven": 1924,
      "Ã¼ss": 1925,
      "ĠWill": 1926,
      "ĠEinzelnachweise": 1927,
      "gaben": 1928,
      "ych": 1929,
      "ĠBel": 1930,
      "ĠMag": 1931,
      "anzen": 1932,
      "gar": 1933,
      "alten": 1934,
      "ĠFranz": 1935,
      "ĠArbeit": 1936,
      "Ġneuen": 1937,
      "ograf": 1938,
      "fluss": 1939,
      "ĠStand": 1940,
      "lungen": 1941,
      "rÃ¤sident": 1942,
      "echn": 1943,
      "ĠÂ": 1944,
      "rank": 1945,
      "Ã¼nf": 1946,
      "ĠsÃ¼d": 1947,
      "heiten": 1948,
      "ĠEntwicklung": 1949,
      "ĠgroÃŁe": 1950,
      "ĠFrankreich": 1951,
      "Ġgenannt": 1952,
      "racht": 1953,
      "zir": 1954,
      "omit": 1955,
      "innen": 1956,
      "ions": 1957,
      "stellen": 1958,
      "istischen": 1959,
      "eitet": 1960,
      "ĠPartei": 1961,
      "Ġgest": 1962,
      "spielsweise": 1963,
      "Ġitalien": 1964,
      "fÃ¼hrung": 1965,
      "ichter": 1966,
      "ĠSel": 1967,
      "zeichnung": 1968,
      "ĠMitglied": 1969,
      "ĠVolks": 1970,
      "45": 1971,
      "Ġneben": 1972,
      "itzen": 1973,
      "Ġ2005": 1974,
      "Ġallerdings": 1975,
      "ĠgroÃŁen": 1976,
      "ĠLehr": 1977,
      "ĠGew": 1978,
      "ĠzunÃ¤chst": 1979,
      "ĠHol": 1980,
      "lichkeit": 1981,
      "hren": 1982,
      "200": 1983,
      "geschichte": 1984,
      "ĠBereich": 1985,
      "ĠBern": 1986,
      "egt": 1987,
      "Ġern": 1988,
      "genommen": 1989,
      "schnitt": 1990,
      "ĠErn": 1991,
      "Ġdiesen": 1992,
      "Ġverst": 1993,
      "Ġrund": 1994,
      "ase": 1995,
      "opp": 1996,
      "osition": 1997,
      "schrift": 1998,
      "ĠEigen": 1999,
      "Ã¤ten": 2000,
      "Ã¤us": 2001,
      "Ġ24": 2002,
      "ĠNeben": 2003,
      "ĠHerzog": 2004,
      "Ġob": 2005,
      "ĠLandkreis": 2006,
      "25": 2007,
      "Ġeinige": 2008,
      "ĠErz": 2009,
      "ĠStr": 2010,
      "nahmen": 2011,
      "ichts": 2012,
      "ack": 2013,
      "Ġehemal": 2014,
      "ix": 2015,
      "reuz": 2016,
      "irekt": 2017,
      "ĠPaul": 2018,
      "ĠAlt": 2019,
      ".âĢľ": 2020,
      "ĠNational": 2021,
      "Ġ2006": 2022,
      "ĠMaler": 2023,
      "ĠgegrÃ¼n": 2024,
      "iste": 2025,
      "ork": 2026,
      "ĠSchweizer": 2027,
      "nete": 2028,
      "ĠBahn": 2029,
      "In": 2030,
      "radition": 2031,
      "urn": 2032,
      "Ġbef": 2033,
      "Ġsol": 2034,
      "ĠJose": 2035,
      "ĠGebiet": 2036,
      "Ġ1990": 2037,
      "Ġunterschied": 2038,
      "ĠCl": 2039,
      "ĠSer": 2040,
      "ĠHil": 2041,
      "ĠWa": 2042,
      "ĠBerg": 2043,
      "rÃ¤n": 2044,
      "ĠHeil": 2045,
      "Ġ23": 2046,
      "ĠDan": 2047,
      "gramm": 2048,
      "iges": 2049,
      "kte": 2050,
      "Ġabge": 2051,
      "ĠGeneral": 2052,
      "ĠRu": 2053,
      "Ġ2007": 2054,
      "ĠRegel": 2055,
      "Ġkm": 2056,
      "Ġsteht": 2057,
      "Ġkein": 2058,
      "jahr": 2059,
      "schrei": 2060,
      "iven": 2061,
      "ĠEle": 2062,
      "ĠPap": 2063,
      "Ġaufge": 2064,
      "Ġwegen": 2065,
      "ink": 2066,
      "arm": 2067,
      "flÃ¤": 2068,
      "ĠKap": 2069,
      "fÃ¤l": 2070,
      "ĠTag": 2071,
      "Ġ21": 2072,
      "Ġdazu": 2073,
      "Ġhatten": 2074,
      "sych": 2075,
      "eig": 2076,
      "abhÃ¤ng": 2077,
      "ement": 2078,
      "Ġ(âĢŀ": 2079,
      "Ġbesteht": 2080,
      "Ġmeisten": 2081,
      "uren": 2082,
      "lÃ¤nd": 2083,
      "ĠLudwig": 2084,
      "ĠRegion": 2085,
      "ĠStaats": 2086,
      "ĠRaum": 2087,
      "Ġdieses": 2088,
      "Ġ2000": 2089,
      "Ġbeispielsweise": 2090,
      "ieg": 2091,
      "schein": 2092,
      "ative": 2093,
      "iver": 2094,
      "ingt": 2095,
      "omin": 2096,
      "Ġ22": 2097,
      "ĠrÃ¶m": 2098,
      "Ġmehrere": 2099,
      "ĠfranzÃ¶sischer": 2100,
      "ese": 2101,
      "eigt": 2102,
      "zeug": 2103,
      "fel": 2104,
      "mÃ¤ÃŁ": 2105,
      "schung": 2106,
      "Ġ2008": 2107,
      "unft": 2108,
      "Ġ2010": 2109,
      "wirtschaft": 2110,
      "ox": 2111,
      "Ã¤ss": 2112,
      "ĠHier": 2113,
      "80": 2114,
      "wendung": 2115,
      "Ġ26": 2116,
      "alitÃ¤t": 2117,
      "Ġsollte": 2118,
      "ppen": 2119,
      "jÃ¤hr": 2120,
      "ĠgegenÃ¼ber": 2121,
      "ĠMillionen": 2122,
      "straÃŁe": 2123,
      "ĠLei": 2124,
      "ĠKar": 2125,
      "ko": 2126,
      "An": 2127,
      "obei": 2128,
      "Ġsogen": 2129,
      "iken": 2130,
      "ĠGrÃ¼n": 2131,
      "ĠWÃ¤hrend": 2132,
      "ure": 2133,
      "verkehr": 2134,
      "Ġ2009": 2135,
      "ĠPerson": 2136,
      "ĠSc": 2137,
      "frei": 2138,
      "Ġinsbesondere": 2139,
      "othe": 2140,
      "Ġ2004": 2141,
      "ift": 2142,
      "eiÃŁ": 2143,
      "derung": 2144,
      "herr": 2145,
      "Ġnieder": 2146,
      "ĠStaaten": 2147,
      "schutz": 2148,
      "ĠGraf": 2149,
      "ienen": 2150,
      "ĠgrÃ¶ÃŁer": 2151,
      "ĠTran": 2152,
      "ĠAlex": 2153,
      "ĠAnfang": 2154,
      "ĠGeorg": 2155,
      "ĠGel": 2156,
      "sh": 2157,
      "Ġklein": 2158,
      "ĠPersonen": 2159,
      "frie": 2160,
      "hlen": 2161,
      "ommer": 2162,
      "apan": 2163,
      "sprÃ¼n": 2164,
      "âĢľ)": 2165,
      "zogen": 2166,
      "dent": 2167,
      "ĠSh": 2168,
      "system": 2169,
      "ĠFra": 2170,
      "Ġ&": 2171,
      "pfer": 2172,
      "ax": 2173,
      "Ġlang": 2174,
      "Ġ,": 2175,
      "ĠTer": 2176,
      "riften": 2177,
      "Ġwobei": 2178,
      "ĠfÃ¼nf": 2179,
      "Ã¼cke": 2180,
      "dert": 2181,
      "ane": 2182,
      "Ġ2011": 2183,
      "istische": 2184,
      "ordnung": 2185,
      "oc": 2186,
      "emie": 2187,
      "ĠAutor": 2188,
      "Ġerstmals": 2189,
      "ĠUSA": 2190,
      "dorf": 2191,
      "deten": 2192,
      "ĠCon": 2193,
      "Ġmuss": 2194,
      "ose": 2195,
      "ĠFr": 2196,
      "ĠfÃ¼hrte": 2197,
      "ĠBen": 2198,
      "utter": 2199,
      "ĠPat": 2200,
      "zept": 2201,
      "vent": 2202,
      "ĠÃ¤l": 2203,
      "inde": 2204,
      "Ġkommt": 2205,
      "Ġhand": 2206,
      "ĠWer": 2207,
      "ĠhÃ¤ufig": 2208,
      "ĠFunktion": 2209,
      "burger": 2210,
      "Ã¼nstler": 2211,
      "ĠWolf": 2212,
      "ĠAnd": 2213,
      "Ġnun": 2214,
      "Ġhistor": 2215,
      "ĠLie": 2216,
      "scheid": 2217,
      "volution": 2218,
      "Ġdarauf": 2219,
      "ierungs": 2220,
      "Ġind": 2221,
      "ĠMal": 2222,
      "bei": 2223,
      "Ġerhalten": 2224,
      "lauf": 2225,
      "PD": 2226,
      "Ġ2003": 2227,
      "minister": 2228,
      "ĠTem": 2229,
      "Ġbefindet": 2230,
      "ari": 2231,
      "duz": 2232,
      "ritten": 2233,
      "dens": 2234,
      "Ġ.": 2235,
      "ĠVerwalt": 2236,
      "utzt": 2237,
      "Ġerm": 2238,
      "ester": 2239,
      "fahrer": 2240,
      "ĠMart": 2241,
      "ĠTechn": 2242,
      "Ġseines": 2243,
      "tin": 2244,
      "Ġ28": 2245,
      "urm": 2246,
      "ĠKol": 2247,
      "Ġ/": 2248,
      "Ġ27": 2249,
      "ichtung": 2250,
      "sport": 2251,
      "okrat": 2252,
      "ael": 2253,
      "bereich": 2254,
      "ĠGesetz": 2255,
      "60": 2256,
      "obert": 2257,
      "ĠAlb": 2258,
      "jet": 2259,
      "ĠStein": 2260,
      "lan": 2261,
      "ĠMod": 2262,
      "Ã³": 2263,
      "ĠBis": 2264,
      "23": 2265,
      "ĠFrauen": 2266,
      "arz": 2267,
      "ĠErst": 2268,
      "ĠKn": 2269,
      "ĠWie": 2270,
      "48": 2271,
      "II": 2272,
      "ĠDabei": 2273,
      "ĠRa": 2274,
      "licht": 2275,
      "lag": 2276,
      "ichtet": 2277,
      "wort": 2278,
      "eth": 2279,
      "wand": 2280,
      "ĠProzent": 2281,
      "ehl": 2282,
      "Ġbegann": 2283,
      "ĠFrankfurt": 2284,
      "echsel": 2285,
      "ae": 2286,
      "ĠBetrieb": 2287,
      "Ġ[": 2288,
      "iell": 2289,
      "ĠFolge": 2290,
      "ĠBevÃ¶lkerung": 2291,
      "tag": 2292,
      "ĠMot": 2293,
      "ĠOtt": 2294,
      "Ġentsprechen": 2295,
      "ĠSchm": 2296,
      "Ġletzten": 2297,
      "ĠIt": 2298,
      "isse": 2299,
      "ielle": 2300,
      "eller": 2301,
      "uer": 2302,
      "fasst": 2303,
      "par": 2304,
      "Ġintern": 2305,
      "akter": 2306,
      "cker": 2307,
      "Ã¶st": 2308,
      "ai": 2309,
      "ĠParis": 2310,
      "Ġaufgrund": 2311,
      "ĠFall": 2312,
      "ĠKat": 2313,
      "Ġ180": 2314,
      "kung": 2315,
      "bli": 2316,
      "ĠGesellschaft": 2317,
      "DR": 2318,
      "ĠMax": 2319,
      "Ġerhielt": 2320,
      "sie": 2321,
      "bildung": 2322,
      "fra": 2323,
      "Ġ2012": 2324,
      "Ã¤ren": 2325,
      "ĠUnternehmen": 2326,
      "omb": 2327,
      "89": 2328,
      "rech": 2329,
      "Ġakt": 2330,
      "Ġ185": 2331,
      "):": 2332,
      "ĠEinwohner": 2333,
      "Ġreg": 2334,
      "Ġerrich": 2335,
      "stre": 2336,
      "aktion": 2337,
      "wissenschaft": 2338,
      "Ġdaher": 2339,
      "hre": 2340,
      "Ġ2002": 2341,
      "Ġblie": 2342,
      "Ġar": 2343,
      "ĠRhein": 2344,
      "ief": 2345,
      "orben": 2346,
      "22": 2347,
      "ĠEisen": 2348,
      "ĠÃ¼b": 2349,
      "ĠCarl": 2350,
      "ĠMark": 2351,
      "pen": 2352,
      "ĠverÃ¶ffentlich": 2353,
      "Ġrecht": 2354,
      "Ã¤ndern": 2355,
      "Ġgemeins": 2356,
      "Ġbesonders": 2357,
      "ĠVerkehr": 2358,
      "hÃ¶": 2359,
      "ĠEuropa": 2360,
      "rim": 2361,
      "ĠThom": 2362,
      "Ġeinzel": 2363,
      "ĠPhilosoph": 2364,
      "ĠWissenschaft": 2365,
      "ergie": 2366,
      "ĠDaten": 2367,
      "70": 2368,
      "port": 2369,
      "Ġ1945": 2370,
      "49": 2371,
      "int": 2372,
      "ile": 2373,
      "ĠRolle": 2374,
      "ise": 2375,
      "Ġkomp": 2376,
      "ĠRegierung": 2377,
      "rist": 2378,
      "ĠMor": 2379,
      "ĠAuflage": 2380,
      "teilt": 2381,
      "ĠSohn": 2382,
      "setzt": 2383,
      "igkeiten": 2384,
      "Ġ100": 2385,
      "Ġwest": 2386,
      "immen": 2387,
      "199": 2388,
      "ĠSozial": 2389,
      "Ġfinden": 2390,
      "bes": 2391,
      "eint": 2392,
      "Ġ2013": 2393,
      "Ã¤sst": 2394,
      "ĠWeltkrieg": 2395,
      "ĠSprache": 2396,
      "ĠDen": 2397,
      "Ġ2014": 2398,
      "ĠFrÃ¼": 2399,
      "ite": 2400,
      "west": 2401,
      "ĠRah": 2402,
      "ca": 2403,
      "ĠWort": 2404,
      "Ã¤ischen": 2405,
      "ĠSport": 2406,
      "tragen": 2407,
      "wegung": 2408,
      "Ġwelche": 2409,
      "ĠKommun": 2410,
      "ĠUl": 2411,
      "Ġhabe": 2412,
      "Ġ29": 2413,
      "Ġheraus": 2414,
      "omen": 2415,
      "athemat": 2416,
      "ĠAmer": 2417,
      "neh": 2418,
      "Ġfindet": 2419,
      "ĠHin": 2420,
      "ĠKu": 2421,
      "Ġverschiedenen": 2422,
      "ĠTon": 2423,
      "zÃ¼": 2424,
      "Ġ2001": 2425,
      "ĠSchauspielerin": 2426,
      "ĠKrit": 2427,
      "Ġentstanden": 2428,
      "ĠBÃ¼": 2429,
      "ka": 2430,
      "ĠKÃ¶l": 2431,
      "Ġfast": 2432,
      "ĠmÃ¼s": 2433,
      "ĠIns": 2434,
      "teilung": 2435,
      "liches": 2436,
      "fess": 2437,
      "bet": 2438,
      "bel": 2439,
      "Ġbr": 2440,
      "gesamt": 2441,
      "Ġem": 2442,
      "ustrie": 2443,
      "ĠInform": 2444,
      "Ġallen": 2445,
      "ias": 2446,
      "ĠSchn": 2447,
      "gart": 2448,
      "ekte": 2449,
      "ĠProv": 2450,
      "lungs": 2451,
      "Ġdeut": 2452,
      "ÃŃ": 2453,
      "organis": 2454,
      "bte": 2455,
      "weis": 2456,
      "ĠRelig": 2457,
      "yt": 2458,
      "ĠKan": 2459,
      "nungen": 2460,
      "ĠPolitik": 2461,
      "ĠBischof": 2462,
      "Un": 2463,
      "ve": 2464,
      "Ġ1980": 2465,
      "Ġinnerhalb": 2466,
      "Ġweil": 2467,
      "enzen": 2468,
      "Ã¤tze": 2469,
      "ĠComp": 2470,
      "Ġschwer": 2471,
      "ĠDeutsche": 2472,
      "ochen": 2473,
      "ĠZur": 2474,
      "ĠMichael": 2475,
      "treten": 2476,
      "ĠBed": 2477,
      "Ġmoder": 2478,
      "ĠDre": 2479,
      "Ġ2015": 2480,
      "ĠVerf": 2481,
      "wahl": 2482,
      "Ġlassen": 2483,
      "ĠRuss": 2484,
      "ĠJugend": 2485,
      "Ġruss": 2486,
      "hausen": 2487,
      "heits": 2488,
      "urs": 2489,
      "weit": 2490,
      "Ã¼ndung": 2491,
      "kan": 2492,
      "ĠStutt": 2493,
      "ammlung": 2494,
      "ĠDam": 2495,
      "yd": 2496,
      "hil": 2497,
      "Ã¶rd": 2498,
      "welt": 2499,
      "Ġihrem": 2500,
      "35": 2501,
      "Ġ1970": 2502,
      "itekt": 2503,
      "ĠRoman": 2504,
      "schlag": 2505,
      "lig": 2506,
      "ĠSan": 2507,
      "ole": 2508,
      "rid": 2509,
      "ĠGleich": 2510,
      "ĠPal": 2511,
      "iete": 2512,
      "ĠEur": 2513,
      "ĠThomas": 2514,
      "ĠDieser": 2515,
      "lang": 2516,
      "stens": 2517,
      "Ġspiel": 2518,
      "blem": 2519,
      "atten": 2520,
      "die": 2521,
      "ĠMehr": 2522,
      "Ġkommen": 2523,
      "ĠFach": 2524,
      "ĠfrÃ¼her": 2525,
      "los": 2526,
      "Ġ2016": 2527,
      "bo": 2528,
      "ĠerklÃ¤r": 2529,
      "iam": 2530,
      "ache": 2531,
      "ĠZiel": 2532,
      "ĠDav": 2533,
      "see": 2534,
      "Ġsozial": 2535,
      "Ã¤ude": 2536,
      "ĠRahmen": 2537,
      "ĠursprÃ¼n": 2538,
      "ĠIII": 2539,
      "Ġfor": 2540,
      "ĠStu": 2541,
      "Ġdavon": 2542,
      "zig": 2543,
      "ĠFin": 2544,
      "Ġsetz": 2545,
      "Ġerg": 2546,
      "Ġ2017": 2547,
      "ĠJahres": 2548,
      "ĠDes": 2549,
      "stitut": 2550,
      "immt": 2551,
      "kr": 2552,
      "ette": 2553,
      "itter": 2554,
      "sam": 2555,
      "ĠGu": 2556,
      "Ġwei": 2557,
      "Ġvielen": 2558,
      "ĠfÃ¼hrt": 2559,
      "ong": 2560,
      "ieten": 2561,
      "omat": 2562,
      "ruktur": 2563,
      "46": 2564,
      "Ġgesam": 2565,
      "ĠKÃ¼": 2566,
      "ollen": 2567,
      "Ġpol": 2568,
      "ĠErd": 2569,
      "ome": 2570,
      "ĠArbeits": 2571,
      "ĠRobert": 2572,
      "ĠSelbst": 2573,
      "ĠBeh": 2574,
      "denburg": 2575,
      "ĠVert": 2576,
      "glichen": 2577,
      "ĠInsel": 2578,
      "uter": 2579,
      "ĠÃ¶ff": 2580,
      "eicht": 2581,
      "ĠÃ¶sterreichischer": 2582,
      "ager": 2583,
      "spro": 2584,
      "Ġ2019": 2585,
      "ĠMain": 2586,
      "ĠwÃ¼r": 2587,
      "ĠFernse": 2588,
      "geord": 2589,
      "fest": 2590,
      "Ġkonnten": 2591,
      "riech": 2592,
      "neten": 2593,
      "ĠÃ¤hn": 2594,
      "peratur": 2595,
      "ĠElekt": 2596,
      "auch": 2597,
      "anischen": 2598,
      "usÃ¤tz": 2599,
      "Ġelekt": 2600,
      "ĠAuft": 2601,
      "Ġverschiedene": 2602,
      "86": 2603,
      "Ar": 2604,
      "arbeit": 2605,
      "ationalen": 2606,
      "Ġheutigen": 2607,
      "elten": 2608,
      "ital": 2609,
      "zeichen": 2610,
      "best": 2611,
      "ĠRechts": 2612,
      "ĠTitel": 2613,
      "reicht": 2614,
      "Ġverk": 2615,
      "Ã¶rt": 2616,
      "teten": 2617,
      "adurch": 2618,
      "uk": 2619,
      "ry": 2620,
      "ĠSin": 2621,
      "opf": 2622,
      "reten": 2623,
      "ica": 2624,
      "allen": 2625,
      "rauch": 2626,
      "dienst": 2627,
      "ĠChristian": 2628,
      "leben": 2629,
      "stag": 2630,
      "21": 2631,
      "ĠHamburg": 2632,
      "ĠWieder": 2633,
      "lt": 2634,
      "ĠPort": 2635,
      "itu": 2636,
      "ĠMuseum": 2637,
      "ĠBra": 2638,
      "Ġ2018": 2639,
      "weiter": 2640,
      "29": 2641,
      "ĠStuttgart": 2642,
      "amerikanische": 2643,
      "ĠhÃ¶her": 2644,
      "47": 2645,
      "Ġ50": 2646,
      "ĠMitte": 2647,
      "schau": 2648,
      "scheiden": 2649,
      "ĠYork": 2650,
      "iten": 2651,
      "Ġteilweise": 2652,
      "ĠTa": 2653,
      "Ġ2020": 2654,
      "arf": 2655,
      "aterial": 2656,
      "hle": 2657,
      "iens": 2658,
      "Ġeigenen": 2659,
      "ĠSen": 2660,
      "reuÃŁen": 2661,
      "Ġ1999": 2662,
      "ĠSil": 2663,
      "ĠCar": 2664,
      "wasser": 2665,
      "ĠKor": 2666,
      "Ġwes": 2667,
      "ille": 2668,
      "ĠJur": 2669,
      "oth": 2670,
      "27": 2671,
      "ĠDruck": 2672,
      "ĠKal": 2673,
      "ĠMilitÃ¤r": 2674,
      "Ġbedeuten": 2675,
      "ode": 2676,
      "ĠTra": 2677,
      "Ġbestehen": 2678,
      "met": 2679,
      "oz": 2680,
      "Ġstehen": 2681,
      "ĠSitz": 2682,
      "ĠSÃ¼": 2683,
      "ĠHeim": 2684,
      "rÃ¤gt": 2685,
      "ĠPhys": 2686,
      "Ġexist": 2687,
      "26": 2688,
      "Ġfand": 2689,
      "ĠFeld": 2690,
      "33": 2691,
      "gehen": 2692,
      "ĠEben": 2693,
      "ĠWohn": 2694,
      "ĠAp": 2695,
      "izin": 2696,
      "wiesen": 2697,
      "ĠlÃ¤sst": 2698,
      "ĠKriegs": 2699,
      "ĠWider": 2700,
      "Ġkurz": 2701,
      "ĠEinsatz": 2702,
      "Ġleben": 2703,
      "Sp": 2704,
      "ationale": 2705,
      "je": 2706,
      "ĠOper": 2707,
      "Ġ(=": 2708,
      "Ġjeweils": 2709,
      "ĠHar": 2710,
      "ĠgegrÃ¼ndet": 2711,
      "eitete": 2712,
      "ondon": 2713,
      "lÃ¤u": 2714,
      "platz": 2715,
      "ission": 2716,
      "Ã¼cken": 2717,
      "sprache": 2718,
      "ĠMarkt": 2719,
      "ĠBurg": 2720,
      "ĠStÃ¤dte": 2721,
      "ĠGeh": 2722,
      "Ġweniger": 2723,
      "Ġnie": 2724,
      "spiele": 2725,
      "Ġzeit": 2726,
      "richtung": 2727,
      "Ġ1960": 2728,
      "Ġsowohl": 2729,
      "ĠHof": 2730,
      "Ġzwar": 2731,
      "ĠZweiten": 2732,
      "Ġeurop": 2733,
      "sol": 2734,
      "achten": 2735,
      "Ġwelt": 2736,
      "ĠKil": 2737,
      "ĠSchweiz": 2738,
      "ĠEng": 2739,
      "eier": 2740,
      "ike": 2741,
      "wind": 2742,
      "ĠPa": 2743,
      "lieÃŁen": 2744,
      "ĠBru": 2745,
      "-,": 2746,
      "Ġitalienischer": 2747,
      "ĠOtto": 2748,
      "ĠSiehe": 2749,
      "Ġweiteren": 2750,
      "ĠBeginn": 2751,
      "ĠText": 2752,
      "sburg": 2753,
      "entlichen": 2754,
      "ĠSyn": 2755,
      "ĠFamilie": 2756,
      "ĠItalien": 2757,
      "ĠStre": 2758,
      "ĠDu": 2759,
      "ikel": 2760,
      "ĠgehÃ¶rt": 2761,
      "ĠRepublik": 2762,
      "han": 2763,
      "ĠMacht": 2764,
      "ĠEt": 2765,
      "ennfahrer": 2766,
      "ĠZeich": 2767,
      "lager": 2768,
      "ĠSchiff": 2769,
      "ilder": 2770,
      "Ġ31": 2771,
      "ĠErnst": 2772,
      "ĠverfÃ¼": 2773,
      "ĠgrÃ¶ÃŁten": 2774,
      "Ã¤chlich": 2775,
      "36": 2776,
      "ikation": 2777,
      "ĠGo": 2778,
      "ĠRich": 2779,
      "ĠMartin": 2780,
      "zeitig": 2781,
      "Ġ2021": 2782,
      "Ġihnen": 2783,
      "28": 2784,
      "bek": 2785,
      "alist": 2786,
      "ĠFer": 2787,
      "ĠAnder": 2788,
      "ĠListe": 2789,
      "ski": 2790,
      "ĠStraÃŁen": 2791,
      "bliothe": 2792,
      "ufen": 2793,
      "oster": 2794,
      "Ġschn": 2795,
      "ĠHen": 2796,
      "ĠArten": 2797,
      "engl": 2798,
      "ĠGemeinden": 2799,
      "ĠAng": 2800,
      "Ġarb": 2801,
      "Ġ179": 2802,
      "rotz": 2803,
      "Ġzahlreiche": 2804,
      "ĠDon": 2805,
      "echt": 2806,
      "ifiz": 2807,
      "ĠLondon": 2808,
      "ĠBezeichnung": 2809,
      "ĠOrganis": 2810,
      "fred": 2811,
      "Ġwahr": 2812,
      "ĠAmt": 2813,
      "37": 2814,
      "ĠHerrschaft": 2815,
      "ĠSol": 2816,
      "Ġant": 2817,
      "Ã¤dag": 2818,
      "Ã¼rt": 2819,
      "Ġ1998": 2820,
      "gangen": 2821,
      "Ġangeb": 2822,
      "iegel": 2823,
      "39": 2824,
      "hang": 2825,
      "Ġvers": 2826,
      "gten": 2827,
      "bare": 2828,
      "ĠJohannes": 2829,
      "orge": 2830,
      "Ġbritischer": 2831,
      "Ġwichtig": 2832,
      "Ġoffen": 2833,
      "ote": 2834,
      "inzip": 2835,
      "Ġsog": 2836,
      "iellen": 2837,
      "reuÃŁ": 2838,
      "gelegt": 2839,
      "aur": 2840,
      "atein": 2841,
      "ith": 2842,
      "tum": 2843,
      "Ġzweiten": 2844,
      "Ġspez": 2845,
      "les": 2846,
      "ĠRes": 2847,
      "baren": 2848,
      "abr": 2849,
      "ĠAkt": 2850,
      "etten": 2851,
      "ĠPlatz": 2852,
      "ĠZug": 2853,
      "wÃ¤r": 2854,
      "ĠVerm": 2855,
      "ĠSachsen": 2856,
      "ĠIde": 2857,
      "Ġging": 2858,
      "gehend": 2859,
      "ĠTruppen": 2860,
      "Ã¼rz": 2861,
      "38": 2862,
      "ĠWeg": 2863,
      "gef": 2864,
      "yer": 2865,
      "Ġdeutlich": 2866,
      "ĠKern": 2867,
      "Ġlange": 2868,
      "ĠReichs": 2869,
      "ĠKlein": 2870,
      "ographie": 2871,
      "unt": 2872,
      "stÃ¼tz": 2873,
      "Ã¤nden": 2874,
      "ĠlieÃŁ": 2875,
      "alz": 2876,
      "amb": 2877,
      "ĠschlieÃŁlich": 2878,
      "ĠAuÃŁer": 2879,
      "Ġganz": 2880,
      "ors": 2881,
      "ĠKraft": 2882,
      "enze": 2883,
      "nahm": 2884,
      "Ã¶sung": 2885,
      "ĠgehÃ¶ren": 2886,
      "ino": 2887,
      "ĠGeist": 2888,
      "ice": 2889,
      "Ġentstand": 2890,
      "rug": 2891,
      "rigen": 2892,
      "fahrt": 2893,
      "lam": 2894,
      "ĠWald": 2895,
      "ĠPrÃ¤": 2896,
      "Ġeinfach": 2897,
      "test": 2898,
      "stÃ¤ndig": 2899,
      "Ġeingesetzt": 2900,
      "Ã¶tt": 2901,
      "Ġfl": 2902,
      "polit": 2903,
      "ĠRen": 2904,
      "Ġhinaus": 2905,
      "schaffen": 2906,
      "ĠLeip": 2907,
      "ĠTheater": 2908,
      "ĠEp": 2909,
      "Ġbew": 2910,
      "hÃ¤ltnis": 2911,
      "Ã¤mpf": 2912,
      "ĠGruppe": 2913,
      "ĠGesamt": 2914,
      "Ġbed": 2915,
      "esser": 2916,
      "ĠEinfluss": 2917,
      "24": 2918,
      "ĠSÃ¤nger": 2919,
      "ĠFort": 2920,
      "flÃ¤che": 2921,
      "staat": 2922,
      "stellungen": 2923,
      "Ġgeht": 2924,
      "ĠHÃ¶he": 2925,
      "kirche": 2926,
      "Pro": 2927,
      "ĠStat": 2928,
      "Ġevangel": 2929,
      "ennung": 2930,
      "ĠWar": 2931,
      "Ġinter": 2932,
      "baut": 2933,
      "Ġeinigen": 2934,
      "inal": 2935,
      "isiert": 2936,
      "obil": 2937,
      "ines": 2938,
      "reise": 2939,
      "ĠName": 2940,
      "ĠZum": 2941,
      "ĠDrei": 2942,
      "up": 2943,
      "Ã¼hrung": 2944,
      "ĠnÃ¶rd": 2945,
      "ĠKÃ¶ln": 2946,
      "Ġ40": 2947,
      "ĠgrÃ¼n": 2948,
      "arakter": 2949,
      "nach": 2950,
      "grÃ¶": 2951,
      "ymp": 2952,
      "ull": 2953,
      "ĠEnergie": 2954,
      "ĠKreuz": 2955,
      "ĠGebur": 2956,
      "gesehen": 2957,
      "ĠJoseph": 2958,
      "res": 2959,
      "ĠWert": 2960,
      "ĠHann": 2961,
      "75": 2962,
      "also": 2963,
      "ĠBezir": 2964,
      "ames": 2965,
      "ĠBayern": 2966,
      "ara": 2967,
      "arlament": 2968,
      "ologische": 2969,
      "ue": 2970,
      "ĠHel": 2971,
      "ĠSchutz": 2972,
      "ĠWerke": 2973,
      "ĠMaria": 2974,
      "ĠLauf": 2975,
      "line": 2976,
      "immung": 2977,
      "kten": 2978,
      "Ġvert": 2979,
      "ĠAnton": 2980,
      "mee": 2981,
      "Ġfolgenden": 2982,
      "ĠSeite": 2983,
      "ĠdafÃ¼r": 2984,
      "Ġâ": 2985,
      "Ġca": 2986,
      "ĠAndre": 2987,
      "fried": 2988,
      "fÃ¤h": 2989,
      "weisen": 2990,
      "ĠSchlacht": 2991,
      "ikal": 2992,
      "Ġ1994": 2993,
      "geber": 2994,
      "ĠWeitere": 2995,
      "Ġblieb": 2996,
      "zess": 2997,
      "Ġverbunden": 2998,
      "79": 2999,
      "beh": 3000,
      "des": 3001,
      "wehr": 3002,
      "ĠVolk": 3003,
      "Ġsechs": 3004,
      "anstalt": 3005,
      "stÃ¤t": 3006,
      "berger": 3007,
      "Ġ1996": 3008,
      "ĠBad": 3009,
      "siehe": 3010,
      "ĠJourn": 3011,
      "ĠWahr": 3012,
      "Ġgelang": 3013,
      "rief": 3014,
      "haft": 3015,
      "Ġfort": 3016,
      "ĠMÃ¶glich": 3017,
      "itÃ¤ten": 3018,
      "Ġhoch": 3019,
      "Ġverbrei": 3020,
      "ĠKÃ¶rper": 3021,
      "isierung": 3022,
      "gefÃ¼hrt": 3023,
      "was": 3024,
      "ĠDDR": 3025,
      "ja": 3026,
      "ĠAlter": 3027,
      "spruch": 3028,
      "Ġverh": 3029,
      "ĠBon": 3030,
      "schiff": 3031,
      "Ġnahm": 3032,
      "ĠAlexander": 3033,
      "ĠGrÃ¶": 3034,
      "Ġsiehe": 3035,
      "osten": 3036,
      "ikanischen": 3037,
      "Ġkathol": 3038,
      "Ġ1991": 3039,
      "ĠRud": 3040,
      "ĠMÃ¤n": 3041,
      "Al": 3042,
      "ĠPhilipp": 3043,
      "eder": 3044,
      "ometer": 3045,
      "ĠProduktion": 3046,
      "Ġ1997": 3047,
      "uth": 3048,
      "ĠKÃ¼nstler": 3049,
      "44": 3050,
      "76": 3051,
      "ĠZust": 3052,
      "Äģ": 3053,
      "anische": 3054,
      "Ġ1989": 3055,
      "auft": 3056,
      "ĠSpe": 3057,
      "85": 3058,
      "ĠSommer": 3059,
      "usst": 3060,
      "ĠZwischen": 3061,
      "wald": 3062,
      "Ġ1995": 3063,
      "ĠNorden": 3064,
      "ĠMathemat": 3065,
      "ton": 3066,
      "alle": 3067,
      "ĠRichard": 3068,
      "ĠDamit": 3069,
      "Ġschl": 3070,
      "lav": 3071,
      "ĠEhren": 3072,
      "ain": 3073,
      "ĠWind": 3074,
      "ammer": 3075,
      "âĢĺ": 3076,
      "ĠzusÃ¤tz": 3077,
      "ĠNation": 3078,
      "Ġ1950": 3079,
      "190": 3080,
      "elativ": 3081,
      "ranken": 3082,
      "Ġbisher": 3083,
      "ĠhÃ¶ch": 3084,
      "ĠDienst": 3085,
      "ĠmÃ¼ssen": 3086,
      "stelle": 3087,
      "Ġmusste": 3088,
      "Ġne": 3089,
      "Ġdenn": 3090,
      "anien": 3091,
      "ĠSicher": 3092,
      "werke": 3093,
      "dig": 3094,
      "ĠSeine": 3095,
      "Ġstand": 3096,
      "Ġerf": 3097,
      "rakt": 3098,
      "bruch": 3099,
      "Ã¨": 3100,
      "ĠArchitekt": 3101,
      "folg": 3102,
      "Ġ1992": 3103,
      "Ã¼lt": 3104,
      "steil": 3105,
      "31": 3106,
      "asen": 3107,
      "ĠSied": 3108,
      "ana": 3109,
      "okument": 3110,
      "ĠWal": 3111,
      "Ġerfolg": 3112,
      "ĠRein": 3113,
      "achte": 3114,
      "ĠGed": 3115,
      "Ġsomit": 3116,
      "ĠHochschul": 3117,
      "Ġbilden": 3118,
      "ĠSein": 3119,
      "ĠFil": 3120,
      "Ġbrach": 3121,
      "ĠIl": 3122,
      "ets": 3123,
      "ĠMutter": 3124,
      "fÃ¶r": 3125,
      "ĠNor": 3126,
      "Ġblei": 3127,
      "ĠVater": 3128,
      "Ã¤uÃŁer": 3129,
      "ĠTe": 3130,
      "ĠVerwaltungs": 3131,
      "reifen": 3132,
      "ymb": 3133,
      "ĠOn": 3134,
      "ĠAs": 3135,
      "chten": 3136,
      "Ġ1993": 3137,
      "Ġwirtschaft": 3138,
      "ĠEinzel": 3139,
      "Ġerreich": 3140,
      "ros": 3141,
      "ĠLeist": 3142,
      "ict": 3143,
      "anken": 3144,
      "sph": 3145,
      "uther": 3146,
      "ĠgrÃ¶ÃŁte": 3147,
      "di": 3148,
      "ĠSow": 3149,
      "ĠSee": 3150,
      "ĠBoden": 3151,
      "34": 3152,
      "ĠWilliam": 3153,
      "get": 3154,
      "Ġgut": 3155,
      "Ġeigene": 3156,
      "eiger": 3157,
      "ĠfranzÃ¶sischen": 3158,
      "reiben": 3159,
      "issenschaften": 3160,
      "ling": 3161,
      "ĠNot": 3162,
      "Ġinsgesamt": 3163,
      "tex": 3164,
      "Ġnahe": 3165,
      "orp": 3166,
      "ume": 3167,
      "Ġ2022": 3168,
      "rÃ¤ge": 3169,
      "ĠCharl": 3170,
      "itten": 3171,
      "yth": 3172,
      "ĠErk": 3173,
      "forder": 3174,
      "struktur": 3175,
      "ĠMinister": 3176,
      "Ġqu": 3177,
      "ĠPfl": 3178,
      "onnen": 3179,
      "haupt": 3180,
      "folger": 3181,
      "rÃ¤sent": 3182,
      "beg": 3183,
      "eis": 3184,
      "erner": 3185,
      "use": 3186,
      "ĠPapst": 3187,
      "189": 3188,
      "ĠPlan": 3189,
      "ĠSeiten": 3190,
      "ward": 3191,
      "ierenden": 3192,
      "ĠTeile": 3193,
      "Ġehemaligen": 3194,
      "ĠBu": 3195,
      "Ġung": 3196,
      "ĠOs": 3197,
      "Ġerk": 3198,
      "schlieÃŁ": 3199,
      "ĠBÃ¼rgermeister": 3200,
      "ĠRegen": 3201,
      "indungen": 3202,
      "schlieÃŁlich": 3203,
      "Ġdoch": 3204,
      "itze": 3205,
      "ĠHolz": 3206,
      "196": 3207,
      "ĠEhe": 3208,
      "ĠMil": 3209,
      "88": 3210,
      "ĠVar": 3211,
      "Ġpolitischen": 3212,
      "bischof": 3213,
      "ĠWeb": 3214,
      "ĠKont": 3215,
      "ĠEuro": 3216,
      "ime": 3217,
      "ĠLage": 3218,
      "ĠHermann": 3219,
      "ĠKÃ¶nigs": 3220,
      "gebaut": 3221,
      "ĠDreh": 3222,
      "Ġoffiz": 3223,
      "ĠTour": 3224,
      "wart": 3225,
      "ĠFar": 3226,
      "ĠProblem": 3227,
      "Ġzunehmen": 3228,
      "mÃ¤ÃŁig": 3229,
      "ĠMaÃŁ": 3230,
      "ware": 3231,
      "Ġdamals": 3232,
      "ĠPriv": 3233,
      "Ã¤ngen": 3234,
      "Ġhervor": 3235,
      "Ġgelegen": 3236,
      "ĠgewÃ¤hlt": 3237,
      "ĠKant": 3238,
      "Ġallgemein": 3239,
      "Ġzeigt": 3240,
      "ĠProgramm": 3241,
      "iber": 3242,
      "ĠRot": 3243,
      "Ġsogar": 3244,
      "ĠTri": 3245,
      "ande": 3246,
      "formen": 3247,
      "heorie": 3248,
      "ĠPsych": 3249,
      "utet": 3250,
      "ĠWinter": 3251,
      "over": 3252,
      "fert": 3253,
      "leist": 3254,
      "ima": 3255,
      "produ": 3256,
      "seit": 3257,
      "lecht": 3258,
      "ĠfÃ¼hren": 3259,
      "rÃ¤sidenten": 3260,
      "ĠGold": 3261,
      "ĠMeer": 3262,
      "ĠAg": 3263,
      "Ġober": 3264,
      "igit": 3265,
      "alsozial": 3266,
      "Ġkur": 3267,
      "Ġliegen": 3268,
      "Ġdarunter": 3269,
      "Ġpoln": 3270,
      "ĠLicht": 3271,
      "nehmen": 3272,
      "Ġdirekt": 3273,
      "Ġper": 3274,
      "Ã¤cht": 3275,
      "Ġalten": 3276,
      "ĠâĢļ": 3277,
      "ĠLeipzig": 3278,
      "ĠErgeb": 3279,
      "part": 3280,
      "Ġpers": 3281,
      "Ġselten": 3282,
      "ĠUniversity": 3283,
      "ennen": 3284,
      "ĠAmts": 3285,
      "ĠAc": 3286,
      "ĠAbs": 3287,
      "32": 3288,
      "Ġklass": 3289,
      "zeuge": 3290,
      "ĠBÃ¶": 3291,
      "zehn": 3292,
      "Ġstellt": 3293,
      "ĠWolfgang": 3294,
      "deutsch": 3295,
      "Ġhandelt": 3296,
      "ĠDort": 3297,
      "Ġerster": 3298,
      "ĠGef": 3299,
      "iqu": 3300,
      "Ġentwickelte": 3301,
      "temberg": 3302,
      "Ã¤te": 3303,
      "verein": 3304,
      "wiegend": 3305,
      "isseur": 3306,
      "ĠVerwendung": 3307,
      "ĠBeruf": 3308,
      "wesen": 3309,
      "59": 3310,
      "tens": 3311,
      "da": 3312,
      "ĠMitglieder": 3313,
      "atÃ¼r": 3314,
      "ĠMeter": 3315,
      "aff": 3316,
      "Ġentwickelt": 3317,
      "ĠMer": 3318,
      "ĠRichtung": 3319,
      "Ã¼sse": 3320,
      "ĠerÃ¶ff": 3321,
      "tere": 3322,
      "ĠTyp": 3323,
      "kraft": 3324,
      "anischer": 3325,
      "ĠDichter": 3326,
      "ĠAuÃŁen": 3327,
      "ĠBran": 3328,
      "ĠArn": 3329,
      "ama": 3330,
      "ĠGegensatz": 3331,
      "treter": 3332,
      "77": 3333,
      "ĠFamilien": 3334,
      "ĠUntersuch": 3335,
      "uchs": 3336,
      "ĠAst": 3337,
      "ĠStruktur": 3338,
      "ĠSam": 3339,
      "lÃ¤ss": 3340,
      "ĠSchloss": 3341,
      "gruppe": 3342,
      "ochter": 3343,
      "ografie": 3344,
      "schinen": 3345,
      "ĠÃ¤uÃŁer": 3346,
      "ĠAuÃŁerdem": 3347,
      "ĠBro": 3348,
      "ĠForsch": 3349,
      "Ã¤s": 3350,
      "ĠTrans": 3351,
      "ologischen": 3352,
      "ep": 3353,
      "ĠKampf": 3354,
      "Ã¶hn": 3355,
      "ĠHor": 3356,
      "Ġgriech": 3357,
      "ĠHinter": 3358,
      "low": 3359,
      "ĠKrie": 3360,
      "Ġwoll": 3361,
      "flug": 3362,
      "Ã¼gel": 3363,
      "ĠgeprÃ¤": 3364,
      "Ġstar": 3365,
      "prochen": 3366,
      "tegr": 3367,
      "ĠSÃ¼den": 3368,
      "lass": 3369,
      "iment": 3370,
      "ĠVerbindung": 3371,
      "Ġ1988": 3372,
      "ĠTage": 3373,
      "bliothek": 3374,
      "Ġstellte": 3375,
      "ĠFlÃ¤": 3376,
      "ĠWor": 3377,
      "etter": 3378,
      "Ġzuvor": 3379,
      "55": 3380,
      "opul": 3381,
      "ola": 3382,
      "Ġzehn": 3383,
      "ĠMedien": 3384,
      "Ġhohen": 3385,
      "ĠReihe": 3386,
      "aly": 3387,
      "arbeiter": 3388,
      "windigkeit": 3389,
      "ĠHei": 3390,
      "ĠTrÃ¤ger": 3391,
      "ĠNutz": 3392,
      "Ġzentr": 3393,
      "lehr": 3394,
      "voll": 3395,
      "ante": 3396,
      "ĠNetz": 3397,
      "ĠTradition": 3398,
      "Ġget": 3399,
      "ĠKolon": 3400,
      "Ġor": 3401,
      "ĠLang": 3402,
      "ĠGottes": 3403,
      "Åį": 3404,
      "ĠMess": 3405,
      "iti": 3406,
      "ĠheiÃŁ": 3407,
      "ĠStudien": 3408,
      "gebung": 3409,
      "gra": 3410,
      "denk": 3411,
      "gesellschaft": 3412,
      "ars": 3413,
      "Ã¶sen": 3414,
      "ment": 3415,
      "wor": 3416,
      "tlich": 3417,
      "ĠWein": 3418,
      "uel": 3419,
      "Ġbekannte": 3420,
      "ical": 3421,
      "ativen": 3422,
      "ademie": 3423,
      "bed": 3424,
      "win": 3425,
      "ĠFeuer": 3426,
      "ĠAnzahl": 3427,
      "ĠGest": 3428,
      "ĠâĢł": 3429,
      "ierungen": 3430,
      "republik": 3431,
      "ĠProvinz": 3432,
      "ĠNr": 3433,
      "ĠFÃ¼rst": 3434,
      "zentrum": 3435,
      "antin": 3436,
      "hafen": 3437,
      "ĠKloster": 3438,
      "chter": 3439,
      "Ġmehreren": 3440,
      "ĠRest": 3441,
      "Ġgenutzt": 3442,
      "schei": 3443,
      "grenz": 3444,
      "sver": 3445,
      "ĠGruppen": 3446,
      "ĠfranzÃ¶sische": 3447,
      "osit": 3448,
      "42": 3449,
      "Ġwenig": 3450,
      "ĠDavid": 3451,
      "Ġkrit": 3452,
      "ĠOsten": 3453,
      "Ġamer": 3454,
      "law": 3455,
      "Ġsetzte": 3456,
      "scht": 3457,
      "ĠWalter": 3458,
      "igur": 3459,
      "ĠJean": 3460,
      "ĠHum": 3461,
      "ĠerwÃ¤hn": 3462,
      "komm": 3463,
      "Ġ1987": 3464,
      "ĠNÃ¤": 3465,
      "Ġzudem": 3466,
      "pel": 3467,
      "ĠSold": 3468,
      ".:": 3469,
      "Ġregel": 3470,
      "ĠBaden": 3471,
      "heb": 3472,
      "ema": 3473,
      "schriften": 3474,
      "ĠjÃ¼d": 3475,
      "Ġform": 3476,
      "af": 3477,
      "reig": 3478,
      "Ġerreicht": 3479,
      "itsch": 3480,
      "barkeit": 3481,
      "alb": 3482,
      "Ġwohl": 3483,
      "Ġeher": 3484,
      "ĠWesten": 3485,
      "mitt": 3486,
      "gegeben": 3487,
      "Ġkamen": 3488,
      "ĠMittelalter": 3489,
      "Ã¼rk": 3490,
      "Die": 3491,
      "ĠRegie": 3492,
      "ĠPo": 3493,
      "ĠAnteil": 3494,
      "ĠGebÃ¤ude": 3495,
      "ĠFot": 3496,
      "ĠÃ¤lte": 3497,
      "Ġgewesen": 3498,
      "Er": 3499,
      "lingen": 3500,
      "zi": 3501,
      "sehen": 3502,
      "mund": 3503,
      "ĠPress": 3504,
      "uchen": 3505,
      "Ġeinzelnen": 3506,
      "Ġzerst": 3507,
      "Ã¼tzen": 3508,
      "Ġph": 3509,
      "ata": 3510,
      "ĠBildung": 3511,
      "Ġetwas": 3512,
      "Ġhinter": 3513,
      "43": 3514,
      "Ġverein": 3515,
      "Ġtrat": 3516,
      "Ġ1986": 3517,
      "Ġerrichtet": 3518,
      "Ã¼ter": 3519,
      "Ġpolitische": 3520,
      "ĠHilfe": 3521,
      "reibt": 3522,
      "Ġabgel": 3523,
      "Ã¤lfte": 3524,
      "ĠTheologe": 3525,
      "ches": 3526,
      "ĠSprachen": 3527,
      "innt": 3528,
      "Ġlag": 3529,
      "ingungen": 3530,
      "ĠRat": 3531,
      "ĠFir": 3532,
      "handen": 3533,
      "ĠBezieh": 3534,
      "ĠReform": 3535,
      "ini": 3536,
      "acher": 3537,
      "rÃ¤fte": 3538,
      "abel": 3539,
      "Ġis": 3540,
      "90": 3541,
      "ĠRevolution": 3542,
      "altung": 3543,
      "ĠBek": 3544,
      "ĠParlament": 3545,
      "ildet": 3546,
      "Ġ1985": 3547,
      "ĠhÃ¤t": 3548,
      "ĠViel": 3549,
      "ĠZÃ¼r": 3550,
      "hÃ¤us": 3551,
      "ĠVergleich": 3552,
      "iffer": 3553,
      "ĠKÃ¶nigreich": 3554,
      "ĠniederlÃ¤nd": 3555,
      "Ġwissenschaft": 3556,
      "ĠInstitut": 3557,
      "ĠÃ¶st": 3558,
      "wagen": 3559,
      "andt": 3560,
      "ley": 3561,
      "uelle": 3562,
      "emente": 3563,
      "attung": 3564,
      "din": 3565,
      "assungs": 3566,
      "ĠfrÃ¼hen": 3567,
      "ĠInnen": 3568,
      "fÃ¼hrer": 3569,
      "ĠGlau": 3570,
      "Ġtechn": 3571,
      "frika": 3572,
      "ĠPrÃ¤sident": 3573,
      "Ġjapan": 3574,
      "Ġ1984": 3575,
      "Ġempf": 3576,
      "Ġnot": 3577,
      "Ġ:": 3578,
      "ĠEnd": 3579,
      "ilien": 3580,
      "schech": 3581,
      "Ġsogenannten": 3582,
      "Ġ1933": 3583,
      "ĠRussland": 3584,
      "ĠHalb": 3585,
      "film": 3586,
      "Ġ1972": 3587,
      "ance": 3588,
      "ĠBerliner": 3589,
      "steh": 3590,
      "ĠTor": 3591,
      "Ã¼rttemberg": 3592,
      "ĠFrage": 3593,
      "ĠHeimat": 3594,
      "Ġtradition": 3595,
      "ĠEreig": 3596,
      "uche": 3597,
      "reffen": 3598,
      "Ġrelativ": 3599,
      "bÃ¼rger": 3600,
      "ĠGi": 3601,
      "ĠheiÃŁt": 3602,
      "Ġdadurch": 3603,
      "ĠPra": 3604,
      "mod": 3605,
      "gress": 3606,
      "ĠZusammenhang": 3607,
      "ĠSim": 3608,
      "Ġgenau": 3609,
      "ĠmilitÃ¤r": 3610,
      "ĠIndustrie": 3611,
      "ash": 3612,
      "Ġstamm": 3613,
      "Ġgelten": 3614,
      "ierende": 3615,
      "bten": 3616,
      "preis": 3617,
      "Ġbezeich": 3618,
      "ĠzÃ¤hl": 3619,
      "aÃŁ": 3620,
      "hung": 3621,
      "unkte": 3622,
      "ĠReligion": 3623,
      "ĠSinne": 3624,
      "ĠStell": 3625,
      "ĠVereinigten": 3626,
      "ĠBeit": 3627,
      "ĠWiderstand": 3628,
      "igungs": 3629,
      "last": 3630,
      "ĠIr": 3631,
      "ĠFÃ¤l": 3632,
      "ĠMos": 3633,
      "unn": 3634,
      "ienten": 3635,
      "Ġ1974": 3636,
      "ĠZentrum": 3637,
      "ĠBesch": 3638,
      "ragen": 3639,
      "undes": 3640,
      "Ġbefinden": 3641,
      "ĠEngland": 3642,
      "ĠStraÃŁe": 3643,
      "ĠAlbert": 3644,
      "ĠSalz": 3645,
      "mo": 3646,
      "56": 3647,
      "ĠRegierungs": 3648,
      "ĠArmee": 3649,
      "Ġ1969": 3650,
      "Ġdefin": 3651,
      "Ġ1975": 3652,
      "Ġmittler": 3653,
      "Ġdamal": 3654,
      "aw": 3655,
      "ĠTemperatur": 3656,
      "iums": 3657,
      "anad": 3658,
      "Ġgez": 3659,
      "Ã¼tzt": 3660,
      "Ġerschien": 3661,
      "ĠGeld": 3662,
      "Ġjeder": 3663,
      "Ġdan": 3664,
      "ois": 3665,
      "ustr": 3666,
      "Ġebenso": 3667,
      "ĠkÃ¶nn": 3668,
      "Ġ1982": 3669,
      "ĠEvangel": 3670,
      "Ã¼hl": 3671,
      "ĠDieses": 3672,
      "ĠBor": 3673,
      "Ġ1976": 3674,
      "Ġversch": 3675,
      "Ġend": 3676,
      "ĠJuden": 3677,
      "bs": 3678,
      "mon": 3679,
      "ivid": 3680,
      "ĠunabhÃ¤ng": 3681,
      "ĠAss": 3682,
      "ĠMensch": 3683,
      "richtungen": 3684,
      "zy": 3685,
      "Verlag": 3686,
      "englisch": 3687,
      "Ġsieben": 3688,
      "altet": 3689,
      "Ġ1979": 3690,
      "Ġ60": 3691,
      "antwort": 3692,
      "kunft": 3693,
      "ĠDom": 3694,
      "ĠPost": 3695,
      "rennfahrer": 3696,
      "ĠLou": 3697,
      "ĠOffiz": 3698,
      "ĠJes": 3699,
      "ritann": 3700,
      "ĠSieg": 3701,
      "ĠFluss": 3702,
      "ĠQuellen": 3703,
      "ĠRudolf": 3704,
      "spekt": 3705,
      "Ġnord": 3706,
      "angs": 3707,
      "lehrer": 3708,
      "urg": 3709,
      "abil": 3710,
      "ĠNachdem": 3711,
      "itzt": 3712,
      "ĠstÃ¤r": 3713,
      "wÃ¼r": 3714,
      "ric": 3715,
      "Ġ1968": 3716,
      "Ġhohe": 3717,
      "ĠVen": 3718,
      "ham": 3719,
      "kel": 3720,
      "press": 3721,
      "azz": 3722,
      "ĠMel": 3723,
      "Ġ1983": 3724,
      "Ġ()": 3725,
      "Ġindem": 3726,
      "ĠRed": 3727,
      "41": 3728,
      "eira": 3729,
      "kur": 3730,
      "ĠTochter": 3731,
      "ibel": 3732,
      "ensch": 3733,
      "Ġchrist": 3734,
      "oret": 3735,
      "ĠTier": 3736,
      "ĠVertrag": 3737,
      "ĠIV": 3738,
      "ĠEisenbahn": 3739,
      "ĠModer": 3740,
      "ĠpreuÃŁ": 3741,
      "anc": 3742,
      "Ġletzte": 3743,
      "ĠÃĸff": 3744,
      "Ġ1973": 3745,
      "aufen": 3746,
      "schreibung": 3747,
      "funktion": 3748,
      "alog": 3749,
      "fan": 3750,
      "Ġunterst": 3751,
      "ierter": 3752,
      "herap": 3753,
      "ĠKritik": 3754,
      "istik": 3755,
      "Ġzweite": 3756,
      "inner": 3757,
      "Ġbetrach": 3758,
      "ary": 3759,
      "orth": 3760,
      "ĠOp": 3761,
      "ĠursprÃ¼nglich": 3762,
      "87": 3763,
      "ĠKind": 3764,
      "ĠSchwe": 3765,
      "ymbol": 3766,
      "merk": 3767,
      "ĠMetho": 3768,
      "ĠSchÃ¶n": 3769,
      "fÃ¼hren": 3770,
      "ĠNik": 3771,
      "ĠAller": 3772,
      "erseits": 3773,
      "ĠLÃ¶": 3774,
      "bus": 3775,
      "scheidung": 3776,
      "ĠPark": 3777,
      "Ġdi": 3778,
      "ĠTest": 3779,
      "Ġerfolgte": 3780,
      "Ġfolgende": 3781,
      "Ġgegeben": 3782,
      "ĠAngel": 3783,
      "funk": 3784,
      "ĠKonz": 3785,
      "ĠProzess": 3786,
      "irche": 3787,
      "ĠJurist": 3788,
      "ĠenthÃ¤lt": 3789,
      "ĠMÃ¼l": 3790,
      "Ġstaat": 3791,
      "ekten": 3792,
      "hoben": 3793,
      "ĠMerk": 3794,
      "ĠVerfahren": 3795,
      "GB": 3796,
      "mb": 3797,
      "ĠFranc": 3798,
      "zeichnungen": 3799,
      "Ġvorhanden": 3800,
      "Ġerfolgt": 3801,
      "ĠMein": 3802,
      "ĠNachfolger": 3803,
      "ĠCol": 3804,
      "ĠFel": 3805,
      "Ġmachen": 3806,
      "ĠHistoriker": 3807,
      "ĠEinfÃ¼hrung": 3808,
      "ĠRund": 3809,
      "zeugen": 3810,
      "ritte": 3811,
      "ĠMaterial": 3812,
      "ĠerhÃ¶": 3813,
      "ĠVerbr": 3814,
      "ĠSowjet": 3815,
      "ischem": 3816,
      "ĠGeorge": 3817,
      "egel": 3818,
      "ĠCal": 3819,
      "ĠMatt": 3820,
      "ĠNicht": 3821,
      "Ġ1981": 3822,
      "ace": 3823,
      "ĠSonder": 3824,
      "ĠSchwer": 3825,
      "ĠSpr": 3826,
      "Ġacht": 3827,
      "Ġenthalten": 3828,
      "legen": 3829,
      "agt": 3830,
      "Ġkleine": 3831,
      "ĠDisk": 3832,
      "gericht": 3833,
      "Ġgek": 3834,
      "ĠLÃ¤ndern": 3835,
      "ake": 3836,
      "izei": 3837,
      "ĠPass": 3838,
      "Ġ1930": 3839,
      "ĠHauptstadt": 3840,
      "raten": 3841,
      "stieg": 3842,
      "ĠWes": 3843,
      "Ġgrund": 3844,
      "ielten": 3845,
      "ĠKauf": 3846,
      "ĠHit": 3847,
      "olden": 3848,
      "Ġ1978": 3849,
      "Ġbildet": 3850,
      "ĠHÃ¤lfte": 3851,
      "ahnen": 3852,
      "ritz": 3853,
      "83": 3854,
      "ĠHan": 3855,
      "sto": 3856,
      "lÃ¤ufer": 3857,
      "quenz": 3858,
      "ivil": 3859,
      "gn": 3860,
      "rael": 3861,
      "ĠgehÃ¶rte": 3862,
      "ffekt": 3863,
      "bi": 3864,
      "roffen": 3865,
      "ĠProt": 3866,
      "ĠKilometer": 3867,
      "Or": 3868,
      "med": 3869,
      "ĠnatÃ¼r": 3870,
      "ktor": 3871,
      "deutschen": 3872,
      "eien": 3873,
      "ĠGrÃ¼ndung": 3874,
      "ĠChem": 3875,
      "ĠHu": 3876,
      "union": 3877,
      "ĠLes": 3878,
      "ĠAuff": 3879,
      "Ġ1938": 3880,
      "Ġ1971": 3881,
      "ĠFinanz": 3882,
      "hei": 3883,
      "ĠChina": 3884,
      "Ġ1920": 3885,
      "ĠLau": 3886,
      "ĠGrenz": 3887,
      "ĠKonst": 3888,
      "osen": 3889,
      "ĠDel": 3890,
      "Ġsogenannte": 3891,
      "unsch": 3892,
      "Aus": 3893,
      "ĠMusiker": 3894,
      "ombin": 3895,
      "Ġschwed": 3896,
      "klÃ¤rung": 3897,
      "ĠSchriften": 3898,
      "ĠCharles": 3899,
      "Ġkleinen": 3900,
      "Ã¤chs": 3901,
      "ĠBrÃ¼": 3902,
      "ĠDenk": 3903,
      "ĠNorm": 3904,
      "sitzen": 3905,
      "rang": 3906,
      "ĠJac": 3907,
      "mat": 3908,
      "ilian": 3909,
      "ĠVerfÃ¼": 3910,
      "museum": 3911,
      "Ġschrieb": 3912,
      "adem": 3913,
      "ĠStamm": 3914,
      "riffen": 3915,
      "bezir": 3916,
      "ĠDial": 3917,
      "iat": 3918,
      "Ġkaum": 3919,
      "ĠBasis": 3920,
      "schafts": 3921,
      "anze": 3922,
      "ĠJames": 3923,
      "Ġpriv": 3924,
      "Ġnachdem": 3925,
      "Ġbeide": 3926,
      "bÃ¼": 3927,
      "82": 3928,
      "ĠBesitz": 3929,
      "stat": 3930,
      "ĠFischer": 3931,
      "setzungen": 3932,
      "ford": 3933,
      "ĠAufl": 3934,
      "Ġ1944": 3935,
      "entliche": 3936,
      "ĠDis": 3937,
      "Ġla": 3938,
      "kungen": 3939,
      "urf": 3940,
      "ders": 3941,
      "Ã¼nger": 3942,
      "ĠKurz": 3943,
      "ĠPflanzen": 3944,
      "ĠOrd": 3945,
      "ĠStrom": 3946,
      "ĠStelle": 3947,
      "serv": 3948,
      "ĠZahlen": 3949,
      "ĠTodes": 3950,
      "vis": 3951,
      "ĠErde": 3952,
      "text": 3953,
      "ĠHÃ¶r": 3954,
      "verband": 3955,
      "ĠDarstellung": 3956,
      "orien": 3957,
      "mel": 3958,
      "Ġdagegen": 3959,
      "abl": 3960,
      "atte": 3961,
      "Ġbestimmten": 3962,
      "ĠFrÃ¼h": 3963,
      "oper": 3964,
      "ĠJapan": 3965,
      "ymn": 3966,
      "Ġ1977": 3967,
      "Ġgleichen": 3968,
      "ateg": 3969,
      "ĠBeim": 3970,
      "ĠEngl": 3971,
      "ĠAutom": 3972,
      "inge": 3973,
      "verfahren": 3974,
      "ĠPolen": 3975,
      "65": 3976,
      "ĠFernseh": 3977,
      "schaf": 3978,
      "uellen": 3979,
      "omie": 3980,
      "ĠRh": 3981,
      "Ġsollten": 3982,
      "ĠjÃ¤hr": 3983,
      "setzen": 3984,
      "erv": 3985,
      "ĠNS": 3986,
      "ĠStraf": 3987,
      "Ġ1967": 3988,
      "rÃ¼f": 3989,
      "ĠStandard": 3990,
      "okal": 3991,
      "ĠBus": 3992,
      "lassen": 3993,
      "inden": 3994,
      "hnen": 3995,
      "gehÃ¶": 3996,
      "Ġhaupt": 3997,
      "ĠZÃ¼rich": 3998,
      "leg": 3999,
      "Ġbevor": 4000,
      "Ġerz": 4001,
      "oy": 4002,
      "Ġsollen": 4003,
      "rhein": 4004,
      "zwischen": 4005,
      "arte": 4006,
      "Ġsah": 4007,
      "Ġbeteil": 4008,
      "reisen": 4009,
      "verwalt": 4010,
      "ĠAdel": 4011,
      "enntnis": 4012,
      "pol": 4013,
      "ĠPosition": 4014,
      "ĠMu": 4015,
      "dung": 4016,
      "ÅĤ": 4017,
      "arn": 4018,
      "ĠErfolg": 4019,
      "Ġweiterhin": 4020,
      "ĠBot": 4021,
      "ĠMitt": 4022,
      "ĠSteuer": 4023,
      "ĠHerz": 4024,
      "ĠeuropÃ¤ischen": 4025,
      "ĠNÃ¤he": 4026,
      "71": 4027,
      "nam": 4028,
      "ail": 4029,
      "recher": 4030,
      "ĠTal": 4031,
      "ĠForschung": 4032,
      "ĠMotor": 4033,
      "Ġmittel": 4034,
      "stu": 4035,
      "estag": 4036,
      "ĠJak": 4037,
      "ĠVort": 4038,
      "Ã¤ische": 4039,
      "etr": 4040,
      "Ġpl": 4041,
      "oppel": 4042,
      "Ġseien": 4043,
      "Ġsehen": 4044,
      "Ġerneut": 4045,
      "jÃ¤hrigen": 4046,
      "Ã¶rder": 4047,
      "ĠPil": 4048,
      "eligi": 4049,
      "ĠGÃ¶tt": 4050,
      "ĠTro": 4051,
      "Ġbelie": 4052,
      "ĠBlut": 4053,
      "band": 4054,
      "ziehen": 4055,
      "iew": 4056,
      "ĠWenn": 4057,
      "Ã¤ngt": 4058,
      "ĠNacht": 4059,
      "Ġsolche": 4060,
      "ĠGre": 4061,
      "rans": 4062,
      "wander": 4063,
      "anne": 4064,
      "ios": 4065,
      "macht": 4066,
      "ĠJournalist": 4067,
      "ĠBereits": 4068,
      "swahl": 4069,
      "park": 4070,
      "Ã¶rter": 4071,
      "Ġweltweit": 4072,
      "ĠauÃŁerdem": 4073,
      "Ġminde": 4074,
      "ĠLÃ¤nder": 4075,
      "ĠUrs": 4076,
      "pers": 4077,
      "ĠTur": 4078,
      "ĠverÃ¶ffentlicht": 4079,
      "utzen": 4080,
      "Ġbeh": 4081,
      "Ġmindestens": 4082,
      "gliche": 4083,
      "74": 4084,
      "xis": 4085,
      "Ġ1946": 4086,
      "En": 4087,
      "ĠSoldaten": 4088,
      "Ã¼ler": 4089,
      "Ġak": 4090,
      "West": 4091,
      "ssystem": 4092,
      "ĠErsten": 4093,
      "Ġledig": 4094,
      "ican": 4095,
      "stÃ¤d": 4096,
      "72": 4097,
      "ĠNationalsozial": 4098,
      "Ġwichtige": 4099,
      "ehmer": 4100,
      "84": 4101,
      "Ġentfern": 4102,
      "arbeiten": 4103,
      "ĠHeer": 4104,
      "ĠUmwelt": 4105,
      "onst": 4106,
      "ĠWirtschafts": 4107,
      "ĠComputer": 4108,
      "ĠPe": 4109,
      "mung": 4110,
      "Ġ80": 4111,
      "ĠBef": 4112,
      "73": 4113,
      "Ġihres": 4114,
      "bewegung": 4115,
      "Ġ1939": 4116,
      "Ã¤ure": 4117,
      "gruppen": 4118,
      "Ġeinzige": 4119,
      "Ġmensch": 4120,
      "Ġlediglich": 4121,
      "Ġeinmal": 4122,
      "Deutsch": 4123,
      "Ġmachte": 4124,
      "Ġkeinen": 4125,
      "arbeitung": 4126,
      "maÃŁ": 4127,
      "ĠGroÃŁb": 4128,
      "hauer": 4129,
      "ĠÂ°": 4130,
      "ĠÃ¼bern": 4131,
      "ĠWerner": 4132,
      "ĠWiener": 4133,
      "ĠDir": 4134,
      "ĠEntwick": 4135,
      "ĠFlor": 4136,
      "ĠLinie": 4137,
      "erne": 4138,
      "beck": 4139,
      "ĠPhilosophie": 4140,
      "Ġwenige": 4141,
      "kret": 4142,
      "Ġ1964": 4143,
      "Ġ1940": 4144,
      "Ġerfolgreich": 4145,
      "ĠStadtteil": 4146,
      "ĠHandels": 4147,
      "ĠMarc": 4148,
      "Ġ1966": 4149,
      "ĠAllgemein": 4150,
      "ĠJer": 4151,
      "wegen": 4152,
      "ĠPreuÃŁen": 4153,
      "Ġ1965": 4154,
      "ritannien": 4155,
      "iko": 4156,
      "ĠKonfl": 4157,
      "ĠOrtsteil": 4158,
      "ĠStern": 4159,
      "Ġ1949": 4160,
      "orte": 4161,
      "fassen": 4162,
      "stÃ¼tzung": 4163,
      "ĠVoll": 4164,
      "ĠVertreter": 4165,
      "ĠWeise": 4166,
      "immer": 4167,
      "ĠAkademie": 4168,
      "ĠApp": 4169,
      "ĠRÃ¶m": 4170,
      "ftware": 4171,
      "Ġgemeinsam": 4172,
      "yc": 4173,
      "ĠwÃ¼rde": 4174,
      "kauf": 4175,
      "ada": 4176,
      "mens": 4177,
      "Ã¤ndert": 4178,
      "ĠZentral": 4179,
      "aison": 4180,
      "eicher": 4181,
      "ĠDat": 4182,
      "Ġdu": 4183,
      "Ã¶der": 4184,
      "Ġelektr": 4185,
      "Ġkultur": 4186,
      "Ġpar": 4187,
      "ĠKlaus": 4188,
      "Reg": 4189,
      "gebiete": 4190,
      "finition": 4191,
      "Ġ1961": 4192,
      "auen": 4193,
      "ĠErzbischof": 4194,
      "ausch": 4195,
      "ĠAir": 4196,
      "ics": 4197,
      "lichkeiten": 4198,
      "histor": 4199,
      "uhr": 4200,
      "inkel": 4201,
      "ask": 4202,
      "ĠerhÃ¤lt": 4203,
      "ĠHerk": 4204,
      "Ġbritische": 4205,
      "Ġwollte": 4206,
      "Ġ|": 4207,
      "Ġtyp": 4208,
      "Ã¤dagoge": 4209,
      "ĠArtikel": 4210,
      "lers": 4211,
      "ĠVerkehrs": 4212,
      "Ġgesp": 4213,
      "Ġalt": 4214,
      "Ġhingegen": 4215,
      "Ġir": 4216,
      "66": 4217,
      "ĠOlymp": 4218,
      "anlagen": 4219,
      "Ã¤tzen": 4220,
      "Ġorganis": 4221,
      "ĠPreis": 4222,
      "Ġenglischer": 4223,
      "uell": 4224,
      "ĠZuge": 4225,
      "Ġbesser": 4226,
      "gangs": 4227,
      "Ġbestimmt": 4228,
      "ronen": 4229,
      "ĠTheorie": 4230,
      "ietet": 4231,
      "ĠBrandenburg": 4232,
      "ĠbetrÃ¤gt": 4233,
      "linie": 4234,
      "Ġanderer": 4235,
      "Ġ1962": 4236,
      "pe": 4237,
      "Ġbeein": 4238,
      "Ã¤st": 4239,
      "ĠDazu": 4240,
      "erb": 4241,
      "ĠWol": 4242,
      "ĠVerhÃ¤ltnis": 4243,
      "ĠHeiligen": 4244,
      "ĠmÃ¶": 4245,
      "ĠNamens": 4246,
      "Ġad": 4247,
      "ĠEinige": 4248,
      "markt": 4249,
      "Ġgeschlossen": 4250,
      "blick": 4251,
      "schlieÃŁend": 4252,
      "ĠprÃ¤": 4253,
      "Ġ1963": 4254,
      "ĠStil": 4255,
      "fallen": 4256,
      "strÃ¤ger": 4257,
      "ĠInstr": 4258,
      "ĠUnion": 4259,
      "ĠJosef": 4260,
      "Ġbestand": 4261,
      "ĠHelm": 4262,
      "seite": 4263,
      "ĠStreit": 4264,
      "Ġerweiter": 4265,
      "eidel": 4266,
      "lern": 4267,
      "ĠAuss": 4268,
      "ams": 4269,
      "ish": 4270,
      "Ber": 4271,
      "ikro": 4272,
      "Ġverlie": 4273,
      "ĠTechnik": 4274,
      "Ġerreichte": 4275,
      "ĠGeschÃ¤ft": 4276,
      "Å¡": 4277,
      "Ġkanad": 4278,
      "ĠFormen": 4279,
      "stellte": 4280,
      "aust": 4281,
      "sÃ¤chlich": 4282,
      "Ġentdeck": 4283,
      "Ġentstehen": 4284,
      "technik": 4285,
      "alisierung": 4286,
      "flÃ¤chen": 4287,
      "Ġbeschrieben": 4288,
      "esien": 4289,
      "udem": 4290,
      "ĠProfess": 4291,
      "kund": 4292,
      "ona": 4293,
      "Ġerschienen": 4294,
      "forschung": 4295,
      "gerichtet": 4296,
      "ĠGro": 4297,
      "Jahr": 4298,
      "ĠHom": 4299,
      "81": 4300,
      "Ġschnell": 4301,
      "ĠExp": 4302,
      "ĠScien": 4303,
      "napp": 4304,
      "ummer": 4305,
      "stÃ¤nde": 4306,
      "komp": 4307,
      "onie": 4308,
      "Ġaufgenommen": 4309,
      "ĠForschungs": 4310,
      "iol": 4311,
      "emann": 4312,
      "agn": 4313,
      "Ġverwende": 4314,
      "Ġgeboren": 4315,
      "nehmer": 4316,
      "ĠSonnen": 4317,
      "ĠZudem": 4318,
      "Ġweitgehend": 4319,
      "ĠMÃ¶glichkeit": 4320,
      "schlÃ¤": 4321,
      "ĠEigenschaften": 4322,
      "jekte": 4323,
      "ĠCD": 4324,
      "ĠGal": 4325,
      "Ġentspricht": 4326,
      "denten": 4327,
      "pret": 4328,
      "Ge": 4329,
      "Ġ1956": 4330,
      "ĠBestand": 4331,
      "umente": 4332,
      "Ġauft": 4333,
      "ĠTab": 4334,
      "irg": 4335,
      "Ġgesamten": 4336,
      "ĠVerhalten": 4337,
      "mehr": 4338,
      "Ġgl": 4339,
      "Ġverz": 4340,
      "ĠAllerdings": 4341,
      "Ã¶pf": 4342,
      "autor": 4343,
      "ĠKa": 4344,
      "hte": 4345,
      "53": 4346,
      "alyse": 4347,
      "ĠPfarr": 4348,
      "iftung": 4349,
      "ĠAlten": 4350,
      "gement": 4351,
      "ĠThr": 4352,
      "fil": 4353,
      "stoffe": 4354,
      "fÃ¶rm": 4355,
      "zip": 4356,
      "ĠBrief": 4357,
      "ĠGust": 4358,
      "rechte": 4359,
      "ĠnÃ¤ch": 4360,
      "ĠAufgrund": 4361,
      "ĠHannover": 4362,
      "Ġerheb": 4363,
      "ĠAlle": 4364,
      "Ġbeginnt": 4365,
      "mbH": 4366,
      "Ġgesamte": 4367,
      "ĠRÃ¶": 4368,
      "ĠUnabhÃ¤ng": 4369,
      "umm": 4370,
      "dinand": 4371,
      "Ġfolgt": 4372,
      "Ġversuch": 4373,
      "54": 4374,
      "Ġ1948": 4375,
      "Ġproduz": 4376,
      "Ġjeweiligen": 4377,
      "emb": 4378,
      "Ã¼rn": 4379,
      "zahlen": 4380,
      "ĠGast": 4381,
      "Ġstarb": 4382,
      "ĠÃ¶ffentlichen": 4383,
      "ĠPrivat": 4384,
      "ĠMad": 4385,
      "ĠViele": 4386,
      "Ġbestimmte": 4387,
      "ĠgeprÃ¤gt": 4388,
      "ĠÃľberg": 4389,
      "Ġ2023": 4390,
      "ĠAlfred": 4391,
      "richten": 4392,
      "ĠReaktion": 4393,
      "ĠGrenze": 4394,
      "ĠLo": 4395,
      "odor": 4396,
      "rige": 4397,
      "ront": 4398,
      "ĠComm": 4399,
      "Ġdeshalb": 4400,
      "ĠvollstÃ¤ndig": 4401,
      "ehler": 4402,
      "sd": 4403,
      "akte": 4404,
      "Ġich": 4405,
      "atri": 4406,
      "ĠLeg": 4407,
      "zus": 4408,
      "iar": 4409,
      "Ġgleichzeitig": 4410,
      "wissenschaftler": 4411,
      "namen": 4412,
      "ĠTit": 4413,
      "lu": 4414,
      "ymnas": 4415,
      "Ġbi": 4416,
      "zeiten": 4417,
      "ĠGerman": 4418,
      "ĠOrganisation": 4419,
      "ĠMeister": 4420,
      "ĠGar": 4421,
      "Ã¶rung": 4422,
      "ĠGlauben": 4423,
      "amin": 4424,
      "ĠBezug": 4425,
      "ĠRep": 4426,
      "Ġ1953": 4427,
      "Ġfinanz": 4428,
      "ĠModell": 4429,
      "netz": 4430,
      "Ġreligi": 4431,
      "ĠGeboren": 4432,
      "Ġdanach": 4433,
      "Ġgepl": 4434,
      "ĠspÃ¤teren": 4435,
      "anger": 4436,
      "Ġ1952": 4437,
      "spl": 4438,
      "Ġallein": 4439,
      "Ġ90": 4440,
      "vert": 4441,
      "illa": 4442,
      "Stand": 4443,
      "ĠSter": 4444,
      "Ġsow": 4445,
      "Ġdarin": 4446,
      "ĠAdolf": 4447,
      "64": 4448,
      "ĠSand": 4449,
      "Ġchines": 4450,
      "ikanische": 4451,
      "ĠVerfÃ¼gung": 4452,
      "athl": 4453,
      "Ġwider": 4454,
      "Ġsowjet": 4455,
      "otte": 4456,
      "ĠTre": 4457,
      "Ġunmittel": 4458,
      "ballspieler": 4459,
      "ĠReise": 4460,
      "ĠlÃ¤nger": 4461,
      "ĠProjekt": 4462,
      "fekt": 4463,
      "Ġ1955": 4464,
      "ĠausschlieÃŁlich": 4465,
      "gemeinde": 4466,
      "ĠVerd": 4467,
      "kathol": 4468,
      "58": 4469,
      "ĠSatz": 4470,
      "Ġverloren": 4471,
      "falen": 4472,
      "ĠSign": 4473,
      "ĠWochen": 4474,
      "anen": 4475,
      "ĠFerdinand": 4476,
      "ĠdÃ¼r": 4477,
      "mark": 4478,
      "rate": 4479,
      "gest": 4480,
      "ĠLager": 4481,
      "Re": 4482,
      "ĠBrit": 4483,
      "ĠJazz": 4484,
      "ĠGeburt": 4485,
      "52": 4486,
      "ynam": 4487,
      "ĠSub": 4488,
      "ĠOx": 4489,
      "ĠVarian": 4490,
      "ĠMc": 4491,
      "Ġ1951": 4492,
      "ĠWall": 4493,
      "ĠSicht": 4494,
      "ĠLog": 4495,
      "Ġvergleich": 4496,
      "irn": 4497,
      "ĠSchule": 4498,
      "kra": 4499,
      "go": 4500,
      "ĠFarb": 4501,
      "Ġstammen": 4502,
      "strahl": 4503,
      "Ġto": 4504,
      "ĠUnterstÃ¼tzung": 4505,
      "ight": 4506,
      "Ġprakt": 4507,
      "ĠHerkunft": 4508,
      "ĠCom": 4509,
      "ĠBall": 4510,
      "ĠDo": 4511,
      "ĠErgebnis": 4512,
      "ĠgroÃŁer": 4513,
      "ĠBruder": 4514,
      "Ġnotwend": 4515,
      "ĠJakob": 4516,
      "Ġ150": 4517,
      "ĠMont": 4518,
      "ano": 4519,
      "stÃ¤r": 4520,
      "regierung": 4521,
      "ferenz": 4522,
      "haltung": 4523,
      "ĠZeichen": 4524,
      "abeth": 4525,
      "Mus": 4526,
      "orgung": 4527,
      "Ġro": 4528,
      "57": 4529,
      "Ġverd": 4530,
      "kap": 4531,
      "Ã¼m": 4532,
      "ĠBal": 4533,
      "Be": 4534,
      "ĠLaut": 4535,
      "ĠAutob": 4536,
      "entwicklung": 4537,
      "Ġzahlreichen": 4538,
      "ĠInner": 4539,
      "ĠBrun": 4540,
      "eucht": 4541,
      "bungen": 4542,
      "ival": 4543,
      "Ġsprach": 4544,
      "Ġ1957": 4545,
      "ouver": 4546,
      "ux": 4547,
      "ya": 4548,
      "eilen": 4549,
      "Ġon": 4550,
      "ĠBeispiele": 4551,
      "fasste": 4552,
      "will": 4553,
      "ĠMol": 4554,
      "Ã¶gen": 4555,
      "Ġnorm": 4556,
      "Ġfolgen": 4557,
      "kn": 4558,
      "ckt": 4559,
      "struktion": 4560,
      "ĠInt": 4561,
      "ollar": 4562,
      "ĠStimmen": 4563,
      "ĠArbeiter": 4564,
      "lands": 4565,
      "garn": 4566,
      "ĠDokument": 4567,
      "Ġnimmt": 4568,
      "ichtete": 4569,
      "leitung": 4570,
      "ĠrÃ¶mischen": 4571,
      "ĠBahnhof": 4572,
      "inc": 4573,
      "ĠUhr": 4574,
      "ĠGroÃŁbritannien": 4575,
      "ĠbenÃ¶t": 4576,
      "ĠKenn": 4577,
      "andid": 4578,
      "ĠermÃ¶glich": 4579,
      "Ġ1958": 4580,
      "AS": 4581,
      "Ġbesitzt": 4582,
      "ĠBud": 4583,
      "Ġoben": 4584,
      "Ġ1954": 4585,
      "ĠBank": 4586,
      "teren": 4587,
      "Ġbritischen": 4588,
      "Ġvertreten": 4589,
      "ĠHimm": 4590,
      "gehÃ¶r": 4591,
      "ĠUN": 4592,
      "agd": 4593,
      "ĠAben": 4594,
      "Ġfiel": 4595,
      "99": 4596,
      "Ã¼rgen": 4597,
      "Ġgefunden": 4598,
      "ĠCharakter": 4599,
      "ppe": 4600,
      "stÃ¼ck": 4601,
      "allel": 4602,
      "ĠGroÃŁen": 4603,
      "drÃ¼ck": 4604,
      "ĠAndreas": 4605,
      "OS": 4606,
      "arbeitet": 4607,
      "staaten": 4608,
      "legung": 4609,
      "Ġtrotz": 4610,
      "ĠGmbH": 4611,
      "ĠEU": 4612,
      ");": 4613,
      "ĠMedizin": 4614,
      "las": 4615,
      "Ã§": 4616,
      "ĠPla": 4617,
      "iversitÃ¤t": 4618,
      "Ġgeworden": 4619,
      "âĢ¦": 4620,
      "ĠVog": 4621,
      "stÃ¤ndige": 4622,
      "ĠInternational": 4623,
      "ĠeingefÃ¼hrt": 4624,
      "ĠKranken": 4625,
      "Ġzog": 4626,
      "ĠBaum": 4627,
      "wen": 4628,
      "alismus": 4629,
      "Ġumfasst": 4630,
      "ĠÃĦg": 4631,
      "ĠOpfer": 4632,
      "Ġbas": 4633,
      "Ġverhinder": 4634,
      "Ġ1941": 4635,
      "ĠAmerican": 4636,
      "ĠEhr": 4637,
      "ĠDeutscher": 4638,
      "rechts": 4639,
      "Â²": 4640,
      "Ġwelches": 4641,
      "ĠSinn": 4642,
      "Ġmodernen": 4643,
      "ĠSpanien": 4644,
      "Ġ1959": 4645,
      "ĠLouis": 4646,
      "rak": 4647,
      "ĠNachbar": 4648,
      "ular": 4649,
      "strecke": 4650,
      "Ġspielte": 4651,
      "ĠhauptsÃ¤chlich": 4652,
      "plan": 4653,
      "ĠerwÃ¤hnt": 4654,
      "iertel": 4655,
      "Ġstellen": 4656,
      "ĠPersÃ¶n": 4657,
      "fre": 4658,
      "musik": 4659,
      "auern": 4660,
      "ĠauÃŁerhalb": 4661,
      "ĠOrts": 4662,
      "ĠEntsteh": 4663,
      "ziehungs": 4664,
      "linge": 4665,
      "ĠDefinition": 4666,
      "ĠGrÃ¶ÃŁe": 4667,
      "ĠKopf": 4668,
      "ĠAngriff": 4669,
      "zeugt": 4670,
      "Ġfolgte": 4671,
      "mitglie": 4672,
      "ĠFrieden": 4673,
      "oche": 4674,
      "ĠFÃ¼hr": 4675,
      "Ġ1918": 4676,
      "ĠGrundlage": 4677,
      "Ġwichtigsten": 4678,
      "ĠMassen": 4679,
      "ĠAch": 4680,
      "ĠSchwarz": 4681,
      "ĠKab": 4682,
      "ĠGut": 4683,
      "Ġverbreitet": 4684,
      "ĠAuftrag": 4685,
      "ĠKron": 4686,
      "ĠWehr": 4687,
      "69": 4688,
      "ĠdÃ¤n": 4689,
      "Ġ1943": 4690,
      "ĠDipl": 4691,
      "utlich": 4692,
      "pa": 4693,
      "ĠdarÃ¼ber": 4694,
      "Ġerreichen": 4695,
      "ĠDeutschlands": 4696,
      "insel": 4697,
      "ĠDres": 4698,
      "scheinlich": 4699,
      "ĠBewegung": 4700,
      "ĠPrinzip": 4701,
      "Ġbenannt": 4702,
      "ĠAutomobil": 4703,
      "Ãĸ": 4704,
      "ĠerÃ¶ffnet": 4705,
      "by": 4706,
      "ld": 4707,
      "Ġerlau": 4708,
      "reiten": 4709,
      "ĠZweck": 4710,
      "ĠKrank": 4711,
      "ĠStoff": 4712,
      "imal": 4713,
      "bauten": 4714,
      "ĠWappen": 4715,
      "liegen": 4716,
      "rum": 4717,
      "Ġwiederum": 4718,
      "ĠChe": 4719,
      "Ġaut": 4720,
      "weig": 4721,
      "ĠHessen": 4722,
      "gÃ¤nger": 4723,
      "Ġsicher": 4724,
      "ĠInternet": 4725,
      "ĠAusdruck": 4726,
      "Ges": 4727,
      "ĠFritz": 4728,
      "ĠÃ¼bernahm": 4729,
      "arth": 4730,
      "ommern": 4731,
      "Ġneuer": 4732,
      "Ġbetrieben": 4733,
      "Ã¼ste": 4734,
      "Ġzunehmend": 4735,
      "tliche": 4736,
      "ĠJung": 4737,
      "itte": 4738,
      "wurf": 4739,
      "ene": 4740,
      "ĠNic": 4741,
      "Ġ1947": 4742,
      "ĠHandel": 4743,
      "ĠWirkung": 4744,
      "ĠSchriftstellerin": 4745,
      "zÃ¼ge": 4746,
      "vest": 4747,
      "Ġhistorischen": 4748,
      "athlet": 4749,
      "ĠChristoph": 4750,
      "Ġzeigen": 4751,
      "ypt": 4752,
      "ĠRock": 4753,
      "ĠKas": 4754,
      "krit": 4755,
      "Ġlatein": 4756,
      "ĠBach": 4757,
      "Ġgalt": 4758,
      "ĠBevÃ¶lkerungs": 4759,
      "Ġhielt": 4760,
      "51": 4761,
      "ĠWechsel": 4762,
      "kirchen": 4763,
      "CD": 4764,
      "ĠArm": 4765,
      "atik": 4766,
      "Ġgewann": 4767,
      "Ġspielt": 4768,
      "ĠBrand": 4769,
      "ĠFreund": 4770,
      "ĠGustav": 4771,
      "Ġvan": 4772,
      "ĠBundestag": 4773,
      "Ġ70": 4774,
      "Ġbeeinfl": 4775,
      "ĠLÃ¤nge": 4776,
      "ĠVÃ¶lker": 4777,
      "istisch": 4778,
      "Ġmed": 4779,
      "sitz": 4780,
      "ĠerklÃ¤rt": 4781,
      "ĠpersÃ¶n": 4782,
      "ĠSoc": 4783,
      "Ã¼hm": 4784,
      "ĠOrig": 4785,
      "krie": 4786,
      "ĠgemÃ¤ÃŁ": 4787,
      "ĠBildhauer": 4788,
      "ĠCa": 4789,
      "ĠUnternehmer": 4790,
      "ĠWaffen": 4791,
      "Ġanerk": 4792,
      "ĠAnwendung": 4793,
      "Kon": 4794,
      "sÃ¤tz": 4795,
      "NA": 4796,
      "ĠLib": 4797,
      "gemeinschaft": 4798,
      "ĠgrÃ¶ÃŁere": 4799,
      "isierte": 4800,
      "ĠÃ¼berwiegend": 4801,
      "ĠBd": 4802,
      "amme": 4803,
      "ĠGesund": 4804,
      "ituation": 4805,
      "Ġbem": 4806,
      "arischen": 4807,
      "Ġunver": 4808,
      "Ġbedeutet": 4809,
      "ikon": 4810,
      "achst": 4811,
      "Ġgeringer": 4812,
      "kunde": 4813,
      "Ġehemalige": 4814,
      "istenz": 4815,
      "ĠOrgan": 4816,
      "ĠWett": 4817,
      "ĠHy": 4818,
      "ĠHeraus": 4819,
      "Ġstammt": 4820,
      "Ġersetzt": 4821,
      "apt": 4822,
      "ĠMÃ¤nner": 4823,
      "Ġbrachte": 4824,
      "ĠAktiv": 4825,
      "ĠAns": 4826,
      "tritt": 4827,
      "ĠGÃ¼n": 4828,
      "ĠTel": 4829,
      "Ġdient": 4830,
      "reform": 4831,
      "atoren": 4832,
      "liefer": 4833,
      "Ġzug": 4834,
      "ĠEmpf": 4835,
      "sprechen": 4836,
      "ĠErw": 4837,
      "Ġleicht": 4838,
      "ĠStÃ¤dten": 4839,
      "Ġmittels": 4840,
      "iga": 4841,
      "Ġ1942": 4842,
      "ĠMÃ¼ller": 4843,
      "ional": 4844,
      "entum": 4845,
      "ĠNÃ¼rn": 4846,
      "asch": 4847,
      "ĠSchÃ¼ler": 4848,
      "ĠVerfassung": 4849,
      "ĠwÃ¤re": 4850,
      "ieur": 4851,
      "ĠPubl": 4852,
      "wechsel": 4853,
      "reite": 4854,
      "ĠGebiete": 4855,
      "âĢľ).": 4856,
      "lehn": 4857,
      "ĠHochschullehrer": 4858,
      "bewer": 4859,
      "verwaltung": 4860,
      "ĠPublik": 4861,
      "uropa": 4862,
      "mot": 4863,
      "ĠAnn": 4864,
      "frau": 4865,
      "obel": 4866,
      "ĠBilder": 4867,
      "ĠBundesrepublik": 4868,
      "vention": 4869,
      "ĠZeitpunkt": 4870,
      "ĠbegrÃ¼n": 4871,
      "riester": 4872,
      "ĠPunkt": 4873,
      "Ã¤nn": 4874,
      "Ġgemacht": 4875,
      "ĠBil": 4876,
      "Ġfr": 4877,
      "dass": 4878,
      "ĠBesuch": 4879,
      "ĠVerwaltung": 4880,
      "ĠAstron": 4881,
      "ĠverÃ¶ffentlichte": 4882,
      "male": 4883,
      "AP": 4884,
      "name": 4885,
      "dar": 4886,
      "ĠGas": 4887,
      "Ġfert": 4888,
      "ĠElemente": 4889,
      "ĠKontr": 4890,
      "rif": 4891,
      "ĠEinheit": 4892,
      "row": 4893,
      "ĠSchwar": 4894,
      "ĠGestorben": 4895,
      "Ġ1919": 4896,
      "ĠBeck": 4897,
      "Ġposit": 4898,
      "ĠDemokrat": 4899,
      "ĠSing": 4900,
      "Ch": 4901,
      "ieÃŁ": 4902,
      "weder": 4903,
      "etzung": 4904,
      "ĠGerhard": 4905,
      "ĠKosten": 4906,
      "rucht": 4907,
      "lieben": 4908,
      "Ġentscheiden": 4909,
      "ua": 4910,
      "ĠVersion": 4911,
      "ĠSchmid": 4912,
      "gner": 4913,
      "ĠUnabhÃ¤ngigkeit": 4914,
      "ĠBesatz": 4915,
      "67": 4916,
      "leiter": 4917,
      "68": 4918,
      "ĠAufgaben": 4919,
      "ĠKlass": 4920,
      "ĠDorf": 4921,
      "Ġgenannten": 4922,
      "Ġchem": 4923,
      "ĠInn": 4924,
      "ĠBauern": 4925,
      "Ġunbek": 4926,
      "kultur": 4927,
      "lÃ¤nder": 4928,
      "ĠSpann": 4929,
      "Ġland": 4930,
      "stral": 4931,
      "Ã¤g": 4932,
      "ĠMÃ¼nster": 4933,
      "gÃ¼lt": 4934,
      "ĠRegisseur": 4935,
      "fort": 4936,
      "Bahn": 4937,
      "unge": 4938,
      "Ġabsol": 4939,
      "iente": 4940,
      "ĠGestalt": 4941,
      "ĠAusgabe": 4942,
      "ĠVom": 4943,
      "legt": 4944,
      "ĠWirk": 4945,
      "ĠKard": 4946,
      "Ġvorher": 4947,
      "Ã¼cht": 4948,
      "Ġ1934": 4949,
      "gemeine": 4950,
      "Ġselben": 4951,
      "ĠHafen": 4952,
      "swissenschaft": 4953,
      "untern": 4954,
      "hoch": 4955,
      "ĠSowjetunion": 4956,
      "rÃ¼n": 4957,
      "klus": 4958,
      "ĠRie": 4959,
      "Ġdah": 4960,
      "under": 4961,
      "ĠBlÃ¼": 4962,
      "politik": 4963,
      "ena": 4964,
      "ĠAG": 4965,
      "ĠAnh": 4966,
      "ĠGrie": 4967,
      "mÃ¶glich": 4968,
      "Ġbietet": 4969,
      "gien": 4970,
      "Ġged": 4971,
      "ĠReiches": 4972,
      "ĠÃ¤hnlich": 4973,
      "ĠÅ": 4974,
      "tent": 4975,
      "ĠHeidel": 4976,
      "ĠTrotz": 4977,
      "ĠElement": 4978,
      "ĠTeilen": 4979,
      "ĠrÃ¶misch": 4980,
      "ĠzusÃ¤tzlich": 4981,
      "ĠSach": 4982,
      "ĠNahr": 4983,
      "geln": 4984,
      "rib": 4985,
      "Ġfanden": 4986,
      "ĠLeicht": 4987,
      "ĠSubst": 4988,
      "achim": 4989,
      "ĠAutoren": 4990,
      "Ġdamaligen": 4991,
      "leger": 4992,
      "ula": 4993,
      "Ġcm": 4994,
      "spart": 4995,
      "pflicht": 4996,
      "handlungen": 4997,
      "Ġergibt": 4998,
      "ĠFreiheit": 4999,
      "Ġunterscheiden": 5000,
      "orgen": 5001,
      "rab": 5002,
      "Ã¼nft": 5003,
      "Ġopt": 5004,
      "ulation": 5005,
      "Ġalte": 5006,
      "The": 5007,
      "ee": 5008,
      "anzler": 5009,
      "ĠbeschÃ¤ft": 5010,
      "ener": 5011,
      "ĠJust": 5012,
      "ĠElis": 5013,
      "lad": 5014,
      "erischen": 5015,
      "fÃ¼rst": 5016,
      "Ġdire": 5017,
      "anlage": 5018,
      "Ġlaut": 5019,
      "agement": 5020,
      "reib": 5021,
      "ehrt": 5022,
      "Ġtats": 5023,
      "ĠSong": 5024,
      "Ġbald": 5025,
      "scheidet": 5026,
      "ĠCor": 5027,
      "ĠSat": 5028,
      "ĠâĢ¦": 5029,
      "ĠVide": 5030,
      "Ġ1936": 5031,
      "Ġeng": 5032,
      "ĠBezirk": 5033,
      "fs": 5034,
      "stellten": 5035,
      "Ġzie": 5036,
      "uchte": 5037,
      "Ã¼ge": 5038,
      "aun": 5039,
      "vin": 5040,
      "betrieb": 5041,
      "irm": 5042,
      "ĠProp": 5043,
      "ĠStudenten": 5044,
      "arische": 5045,
      "gewiesen": 5046,
      "ĠWild": 5047,
      "Ġmussten": 5048,
      "ĠHall": 5049,
      "Ġ1900": 5050,
      "ĠgrÃ¶ÃŁeren": 5051,
      "ĠRitter": 5052,
      "Ã¼st": 5053,
      "rimin": 5054,
      "Ġ1937": 5055,
      "eimar": 5056,
      "ĠKop": 5057,
      "iguren": 5058,
      "strom": 5059,
      "dessen": 5060,
      "Ġweiterer": 5061,
      "Ä«": 5062,
      "ĠgefÃ¼hrt": 5063,
      "sa": 5064,
      "etzen": 5065,
      "ĠMitarbeiter": 5066,
      "rick": 5067,
      "itzer": 5068,
      "ĠNur": 5069,
      "ĠnÃ¶rdlich": 5070,
      "Ab": 5071,
      "ĠInformationen": 5072,
      "rochen": 5073,
      "ĠPrinz": 5074,
      "Ġ1929": 5075,
      "ĠFranzÃ¶s": 5076,
      "graf": 5077,
      "ĠSPD": 5078,
      "ĠArzt": 5079,
      "ĠAbl": 5080,
      "63": 5081,
      "ĠHeute": 5082,
      "ĠMaschinen": 5083,
      "ĠEreignisse": 5084,
      "umb": 5085,
      "ĠKonrad": 5086,
      "ala": 5087,
      "ĠWand": 5088,
      "Ġhinzu": 5089,
      "orten": 5090,
      "Ġentsteht": 5091,
      "Ã¤hlung": 5092,
      "aktor": 5093,
      "va": 5094,
      "ĠAufbau": 5095,
      "ĠKirch": 5096,
      "Ġgebaut": 5097,
      "err": 5098,
      "ĠKlima": 5099,
      "Ã³n": 5100,
      "ĠVeranstalt": 5101,
      "ĠTim": 5102,
      "halts": 5103,
      "ĠMehrheit": 5104,
      "ehlen": 5105,
      "stehen": 5106,
      "ernen": 5107,
      "Ġherr": 5108,
      "ĠKateg": 5109,
      "Ġgehen": 5110,
      "ĠGÃ¼ter": 5111,
      "Ġgar": 5112,
      "Ã¼sseld": 5113,
      "Ġspricht": 5114,
      "ĠSaison": 5115,
      "61": 5116,
      "Ġneun": 5117,
      "ĠMathematiker": 5118,
      "kreuz": 5119,
      "aub": 5120,
      "aters": 5121,
      "ĠClau": 5122,
      "ĠPolizei": 5123,
      "ĠRing": 5124,
      "ehm": 5125,
      "ory": 5126,
      "ordin": 5127,
      "ĠKurt": 5128,
      "Ã¼ssel": 5129,
      "gentin": 5130,
      "ision": 5131,
      "ĠzerstÃ¶rt": 5132,
      "ĠbestÃ¤t": 5133,
      "ĠHab": 5134,
      "ĠGrab": 5135,
      "Ġident": 5136,
      "sein": 5137,
      "ĠLeit": 5138,
      "iefer": 5139,
      "ĠRos": 5140,
      "ĠTages": 5141,
      "Ġphys": 5142,
      "Ġunterschiedlichen": 5143,
      "ĠErb": 5144,
      "ĠAugen": 5145,
      "ĠverstÃ¤r": 5146,
      "ĠKom": 5147,
      "haber": 5148,
      "Ġ+": 5149,
      "ĠWissen": 5150,
      "ĠLor": 5151,
      "linien": 5152,
      "stÃ¤ndnis": 5153,
      "ec": 5154,
      "ĠIhre": 5155,
      "ĠBeob": 5156,
      "otel": 5157,
      "Ã¤sser": 5158,
      "ĠTiere": 5159,
      "62": 5160,
      "Ġinternationalen": 5161,
      "gefÃ¤hr": 5162,
      "ĠSem": 5163,
      "Ġdargestellt": 5164,
      "ĠvÃ¶l": 5165,
      "ĠBa": 5166,
      "ĠÃĦn": 5167,
      "irektor": 5168,
      "dat": 5169,
      "ĠAbst": 5170,
      "pfl": 5171,
      "herapie": 5172,
      "chester": 5173,
      "ella": 5174,
      "Ġdr": 5175,
      "ĠDenn": 5176,
      "ĠAnschluss": 5177,
      "ij": 5178,
      "ĠSpieler": 5179,
      "Ein": 5180,
      "AT": 5181,
      "ĠStadtgebiet": 5182,
      "ĠHerrscher": 5183,
      "ĠWÃ¤r": 5184,
      "ĠkÃ¶nnte": 5185,
      "ĠArbeiten": 5186,
      "Ġentsprechend": 5187,
      "selben": 5188,
      "ugen": 5189,
      "ĠRadio": 5190,
      "preuÃŁen": 5191,
      "istr": 5192,
      "Ġ500": 5193,
      "Ġsodass": 5194,
      "Ġbeob": 5195,
      "sprachigen": 5196,
      "ĠZustand": 5197,
      "Ġentweder": 5198,
      "schloss": 5199,
      "Ġ\"": 5200,
      "ĠParteien": 5201,
      "leit": 5202,
      "Ã¤ger": 5203,
      "amerika": 5204,
      "ĠJahrzehn": 5205,
      "ĠÃ¼bertragen": 5206,
      "ĠVerlauf": 5207,
      "fassung": 5208,
      "schuss": 5209,
      "own": 5210,
      "Ġunterschiedliche": 5211,
      "ĠUlrich": 5212,
      "ĠFund": 5213,
      "ĠTheodor": 5214,
      "ĠPraxis": 5215,
      "Ġdomin": 5216,
      "ĠMiss": 5217,
      "ey": 5218,
      "Ġ1935": 5219,
      "ĠÃĸl": 5220,
      "umÃ¤n": 5221,
      "Ġknapp": 5222,
      "lieÃŁt": 5223,
      "ĠVerÃ¤nder": 5224,
      "Ġheutige": 5225,
      "ĠBernhard": 5226,
      "ows": 5227,
      "Ġlok": 5228,
      "industrie": 5229,
      "ifferenz": 5230,
      "ynast": 5231,
      "schaff": 5232,
      "ĠUmgebung": 5233,
      "93": 5234,
      "ris": 5235,
      "ĠDaneben": 5236,
      "Ġwestlichen": 5237,
      "spolit": 5238,
      "ĠGroÃŁe": 5239,
      "ĠFriedens": 5240,
      "Ġkompl": 5241,
      "ĠKonzept": 5242,
      "ĠPian": 5243,
      "iller": 5244,
      "zut": 5245,
      "far": 5246,
      "Ġbleibt": 5247,
      "ĠSauer": 5248,
      "ney": 5249,
      "ĠNeuen": 5250,
      "ony": 5251,
      "ĠSamm": 5252,
      "ĠObwohl": 5253,
      "ĠHerstellung": 5254,
      "ago": 5255,
      "ĠInseln": 5256,
      "yz": 5257,
      "iegen": 5258,
      "geschrieben": 5259,
      "ĠSoftware": 5260,
      "ĠstÃ¤rker": 5261,
      "ĠKre": 5262,
      "ĠNap": 5263,
      "Ġres": 5264,
      "ĠBÃ¼cher": 5265,
      "ĠFÃ¤llen": 5266,
      "Ã¤her": 5267,
      "Ã¼tt": 5268,
      "Ġumfassen": 5269,
      "prÃ¤sident": 5270,
      "alk": 5271,
      "ĠBew": 5272,
      "Ġ)": 5273,
      "Ġgesellschaft": 5274,
      "ĠRand": 5275,
      "Ġgeschaffen": 5276,
      "geschwindigkeit": 5277,
      "Ġdienen": 5278,
      "Ġwill": 5279,
      "Ġentgegen": 5280,
      "trem": 5281,
      "ĠStunden": 5282,
      "stritten": 5283,
      "UniversitÃ¤t": 5284,
      "ta": 5285,
      "ĠDÃ¼sseld": 5286,
      "spann": 5287,
      "ĠtÃ¤t": 5288,
      "durch": 5289,
      "gol": 5290,
      "eisen": 5291,
      "Ġsetzt": 5292,
      "Ġentlang": 5293,
      "Ġwesentlich": 5294,
      "Ġ1914": 5295,
      "Ġ170": 5296,
      "riebe": 5297,
      "garten": 5298,
      "ĠEntstehung": 5299,
      "ĠAlbum": 5300,
      "Ã¤tigkeit": 5301,
      "Ġgebildet": 5302,
      "hilosoph": 5303,
      "ington": 5304,
      "ĠAusbildung": 5305,
      "ĠEuropÃ¤ischen": 5306,
      "ĠDoppel": 5307,
      "ĠHoff": 5308,
      "Ġmacht": 5309,
      "cc": 5310,
      "einer": 5311,
      "Ġbesonder": 5312,
      "ĠjÃ¤hrlich": 5313,
      "Ġjede": 5314,
      "Ã¶lf": 5315,
      "ĠStÃ¼ck": 5316,
      "Ġgerade": 5317,
      "werte": 5318,
      "ĠQuad": 5319,
      "Ġgebracht": 5320,
      "ĠWebs": 5321,
      "ĠzÃ¤hlen": 5322,
      "Ġmon": 5323,
      "schlieÃŁen": 5324,
      "ĠsÃ¼dlich": 5325,
      "ĠFlughafen": 5326,
      "iedlung": 5327,
      "ĠLeop": 5328,
      "ohl": 5329,
      "Ã¡n": 5330,
      "ĠMetall": 5331,
      "een": 5332,
      "fÃ¤lle": 5333,
      "ĠEss": 5334,
      "ĠDaniel": 5335,
      "Ġgeben": 5336,
      "ĠEntdeck": 5337,
      ".-": 5338,
      "ĠGru": 5339,
      "ĠGewalt": 5340,
      "ual": 5341,
      "ĠdurchgefÃ¼hrt": 5342,
      "losen": 5343,
      "ienste": 5344,
      "ĠHart": 5345,
      "Ġ35": 5346,
      "ction": 5347,
      "liga": 5348,
      "ĠSum": 5349,
      "ĠFÃ¼hrung": 5350,
      "waff": 5351,
      "ĠAbt": 5352,
      "ĠSant": 5353,
      "fur": 5354,
      "ĠCas": 5355,
      "Ã¤uft": 5356,
      "Ġvermutlich": 5357,
      "Ġgeist": 5358,
      "ĠNeue": 5359,
      "gie": 5360,
      "lehre": 5361,
      "Ġneg": 5362,
      "ridge": 5363,
      "ĠMaxim": 5364,
      "ĠAusnahme": 5365,
      "ĠVerteid": 5366,
      "rÃ¤nkt": 5367,
      "gebot": 5368,
      "ĠLaufe": 5369,
      "Ġ1926": 5370,
      "Ġtritt": 5371,
      "ĠAuseinander": 5372,
      "deutsche": 5373,
      "wohnern": 5374,
      "Ġorient": 5375,
      "Ġpsych": 5376,
      "ora": 5377,
      "Ġreich": 5378,
      "95": 5379,
      "Fl": 5380,
      "ĠLuc": 5381,
      "ĠVier": 5382,
      "schine": 5383,
      "ifik": 5384,
      "Ġkommun": 5385,
      "Ã¤tter": 5386,
      "ausgabe": 5387,
      "Ġmax": 5388,
      "ĠElisabeth": 5389,
      "kennen": 5390,
      "Ġanges": 5391,
      "Ġ1932": 5392,
      "ĠNo": 5393,
      "Ġangesehen": 5394,
      "ĠStrecke": 5395,
      "lowak": 5396,
      "kop": 5397,
      "Ġ1000": 5398,
      "ĠThema": 5399,
      "ĠSchles": 5400,
      "ĠÃľbersetzung": 5401,
      "aiser": 5402,
      "ĠRegionen": 5403,
      "grenzen": 5404,
      "ales": 5405,
      "uck": 5406,
      "igh": 5407,
      "ĠÎ": 5408,
      "Ġmm": 5409,
      "Ġgestellt": 5410,
      "ritor": 5411,
      "ausend": 5412,
      "âĢ¯": 5413,
      "onn": 5414,
      "rient": 5415,
      "frage": 5416,
      "bis": 5417,
      "ower": 5418,
      "ĠExper": 5419,
      "ĠHerbst": 5420,
      "ĠKrieges": 5421,
      "ĠObjekt": 5422,
      "orph": 5423,
      "vel": 5424,
      "ĠDÃ¤n": 5425,
      "ĠSicherheit": 5426,
      "ĠÃ¼bernommen": 5427,
      "ĠLit": 5428,
      "ĠUngarn": 5429,
      "ĠWh": 5430,
      "Ġzugleich": 5431,
      "ĠVerÃ¶ffentlich": 5432,
      "ĠScience": 5433,
      "ĠGlas": 5434,
      "ĠLehrer": 5435,
      "hÃ¤user": 5436,
      "bil": 5437,
      "ĠKamer": 5438,
      "ĠKlasse": 5439,
      "ĠHug": 5440,
      "ĠFÃ¼rsten": 5441,
      "ĠBert": 5442,
      "ĠFlÃ¤che": 5443,
      "kor": 5444,
      "abrik": 5445,
      "Ġbleiben": 5446,
      "onischen": 5447,
      "Ġdahin": 5448,
      "ĠEich": 5449,
      "Ġunmittelbar": 5450,
      "Ġberu": 5451,
      "oot": 5452,
      "za": 5453,
      "iers": 5454,
      "echnet": 5455,
      "ĠniederlÃ¤ndischer": 5456,
      "ĠSchulen": 5457,
      "ĠRichter": 5458,
      "bank": 5459,
      "sichtlich": 5460,
      "ĠAf": 5461,
      "ĠEdu": 5462,
      "ĠfÃ¤l": 5463,
      "ĠDarÃ¼ber": 5464,
      "gelassen": 5465,
      "ĠWissenschaften": 5466,
      "dt": 5467,
      "li": 5468,
      "ĠDaher": 5469,
      "ĠunabhÃ¤ngig": 5470,
      "ĠGran": 5471,
      "ĠLÃ¼": 5472,
      "Ã¼cksicht": 5473,
      "istin": 5474,
      "ehrte": 5475,
      "ĠHohen": 5476,
      "ĠBonn": 5477,
      "92": 5478,
      "ĠLeon": 5479,
      "igent": 5480,
      "ĠPhysiker": 5481,
      "Ġgenommen": 5482,
      "ĠMenge": 5483,
      "Ġerforder": 5484,
      "Ġkleiner": 5485,
      "ĠDiet": 5486,
      "Ġ300": 5487,
      "Ġ1928": 5488,
      "inken": 5489,
      "ĠLi": 5490,
      "ĠHenry": 5491,
      "Mar": 5492,
      "ĠgehÃ¶rten": 5493,
      "gelÃ¶st": 5494,
      "Ġwenigen": 5495,
      "inzen": 5496,
      "versammlung": 5497,
      "eind": 5498,
      "Ġauszu": 5499,
      "Ġ1925": 5500,
      "ĠRel": 5501,
      "ĠHeinz": 5502,
      "Ġreduz": 5503,
      "ĠZeitschrift": 5504,
      "upp": 5505,
      "irge": 5506,
      "Ġobwohl": 5507,
      "Ġgeeig": 5508,
      "Ġenglischen": 5509,
      "ĠzÃ¤hlt": 5510,
      "ĠGolden": 5511,
      "ĠVal": 5512,
      "ĠGÃ¶ttingen": 5513,
      "hi": 5514,
      "ĠStar": 5515,
      "ĠWorld": 5516,
      "ulen": 5517,
      "ĠErich": 5518,
      "ĠMonate": 5519,
      "ita": 5520,
      "Ġstets": 5521,
      "chron": 5522,
      "ĠRob": 5523,
      "rÃ¤t": 5524,
      "Ġganze": 5525,
      "ĠfÃ¼hrten": 5526,
      "Ġra": 5527,
      "ktiv": 5528,
      "ĠCamp": 5529,
      "ĠLandwirtschaft": 5530,
      "ĠnÃ¤chsten": 5531,
      "ĠendgÃ¼lt": 5532,
      "stern": 5533,
      "ĠPier": 5534,
      "Ġspielen": 5535,
      "ĠGarten": 5536,
      "Ġamerikanischen": 5537,
      "Ġnehmen": 5538,
      "Ġveran": 5539,
      "ĠKontakt": 5540,
      "Ġhalten": 5541,
      "ĠEbene": 5542,
      "fÃ¤higkeit": 5543,
      "ĠKathol": 5544,
      "Ġbehand": 5545,
      "ico": 5546,
      "hagen": 5547,
      "ĠNutzung": 5548,
      "Ġunterschiedlich": 5549,
      "ouverne": 5550,
      "Ex": 5551,
      "aup": 5552,
      "ĠPolitikerin": 5553,
      "Ġbl": 5554,
      "ĠRec": 5555,
      "ĠFolgen": 5556,
      "ĠÃĦgyp": 5557,
      "asien": 5558,
      "ĠÃ¶sterreichische": 5559,
      "Ġgeschrieben": 5560,
      "famil": 5561,
      "ĠDresden": 5562,
      "ĠLieder": 5563,
      "achtet": 5564,
      "ĠRegional": 5565,
      "andlung": 5566,
      "stÃ¤tte": 5567,
      "ĠHarr": 5568,
      "ĠKons": 5569,
      "ĠVoraus": 5570,
      "Ã¤dagog": 5571,
      "bn": 5572,
      "ĠBeziehungen": 5573,
      "ĠGriechen": 5574,
      "ĠÃĹ": 5575,
      "wirkung": 5576,
      "ĠProfessor": 5577,
      "ĠSilber": 5578,
      "phen": 5579,
      "ĠVerbreitung": 5580,
      "rÃ¤um": 5581,
      "ript": 5582,
      "Ġinzwischen": 5583,
      "Ã¶ss": 5584,
      "zent": 5585,
      "Ġzweit": 5586,
      "ĠBildungs": 5587,
      "ĠKos": 5588,
      "ĠAbgeord": 5589,
      "sprung": 5590,
      "ziehung": 5591,
      "eidung": 5592,
      "ĠFranken": 5593,
      "Ġbesitzen": 5594,
      "grenze": 5595,
      "ĠMac": 5596,
      "eigte": 5597,
      "ĠPriester": 5598,
      "ĠRicht": 5599,
      "blatt": 5600,
      "ĠfrÃ¼h": 5601,
      "renz": 5602,
      "stÃ¤ndigen": 5603,
      "irk": 5604,
      "ĪĴ": 5605,
      "ĠKÃ¶nigin": 5606,
      "ĠMond": 5607,
      "reif": 5608,
      "ĠPrÃ¤sidenten": 5609,
      "gebracht": 5610,
      "inos": 5611,
      "Ãľ": 5612,
      "Ġzul": 5613,
      "ĠMd": 5614,
      "1945": 5615,
      "gas": 5616,
      "ĠDarm": 5617,
      "lege": 5618,
      "Ġunters": 5619,
      "ĠÃĸffentlich": 5620,
      "Ġbedeutend": 5621,
      "produktion": 5622,
      "ĠOrdnung": 5623,
      "ĠGeschÃ¤fts": 5624,
      "Ã¤ne": 5625,
      "derungen": 5626,
      "ĠStefan": 5627,
      "view": 5628,
      "endes": 5629,
      "weite": 5630,
      "Ġ1927": 5631,
      "iziert": 5632,
      "ĠRang": 5633,
      "gut": 5634,
      "ĠRechte": 5635,
      "Ġjedem": 5636,
      "System": 5637,
      "Ġsonst": 5638,
      "Ġbetrachtet": 5639,
      "unternehmen": 5640,
      "forscher": 5641,
      "Ġkatholischen": 5642,
      "180": 5643,
      "ĠPartner": 5644,
      "rand": 5645,
      "Ã¼llt": 5646,
      "ĠDrehbuch": 5647,
      "ĠEltern": 5648,
      "ĠPrem": 5649,
      "ĠRoy": 5650,
      "Ġentfernt": 5651,
      "agnet": 5652,
      "ĠZer": 5653,
      "ĠLeichtathlet": 5654,
      "ĠBla": 5655,
      "94": 5656,
      "ĠSÃ¤ngerin": 5657,
      "ĠVersuch": 5658,
      "ĠStellung": 5659,
      "indest": 5660,
      "ĠSchweden": 5661,
      "ĠProbleme": 5662,
      "act": 5663,
      "frastruktur": 5664,
      "WÃ¼rttemberg": 5665,
      "ĠPan": 5666,
      "sdorf": 5667,
      "ologisch": 5668,
      "Ġ1924": 5669,
      "SC": 5670,
      "ĠWegen": 5671,
      "krÃ¤fte": 5672,
      "Ġdefiniert": 5673,
      "Ġversuchte": 5674,
      "eichen": 5675,
      "Ġgesetz": 5676,
      "ifikation": 5677,
      "ĠZivil": 5678,
      "Ġumfang": 5679,
      "Ġnichts": 5680,
      "ĠPortug": 5681,
      "iÄ": 5682,
      "wÃ¤rt": 5683,
      "Ã¶rden": 5684,
      "alem": 5685,
      "ĠVorsitzen": 5686,
      "ĠPet": 5687,
      "ĠRosen": 5688,
      "ĠAngaben": 5689,
      "Ġbekannten": 5690,
      "ĠRath": 5691,
      "ĠTat": 5692,
      "ĠMikro": 5693,
      "ĠTexte": 5694,
      "agte": 5695,
      "ĠGall": 5696,
      "ĠChor": 5697,
      "ĠhÃ¤tte": 5698,
      "Ġarbeitete": 5699,
      "ĠGot": 5700,
      "ĠJÃ¼rgen": 5701,
      "Ġunbe": 5702,
      "grÃ¶ÃŁ": 5703,
      "ĠregelmÃ¤ÃŁig": 5704,
      "ĠIst": 5705,
      "ĠJoachim": 5706,
      "Ġzusammenge": 5707,
      "sky": 5708,
      "anal": 5709,
      "orweg": 5710,
      "Ġrussischer": 5711,
      "III": 5712,
      "ĠHoll": 5713,
      "ĠDadurch": 5714,
      "konom": 5715,
      "uz": 5716,
      "Ġhistorische": 5717,
      "ĠLab": 5718,
      "Ã¶se": 5719,
      "ĠWander": 5720,
      "ocken": 5721,
      "odurch": 5722,
      "istischer": 5723,
      "gebÃ¤ude": 5724,
      "ĠNationalsozialismus": 5725,
      "illen": 5726,
      "ĠFrancis": 5727,
      "Ġsieht": 5728,
      "Ġgehalten": 5729,
      "Ġanzu": 5730,
      "halte": 5731,
      "Ġexistieren": 5732,
      "andte": 5733,
      "ĠGrenzen": 5734,
      "iode": 5735,
      "Ġdauer": 5736,
      "ĠRis": 5737,
      "ror": 5738,
      "Ġtschech": 5739,
      "Ġjedes": 5740,
      "Ġbenutzt": 5741,
      "PDF": 5742,
      "Ġwodurch": 5743,
      "ĠJesu": 5744,
      "ĠPrim": 5745,
      "Ġ1912": 5746,
      "ziehungsweise": 5747,
      "its": 5748,
      "ĠDro": 5749,
      "ĠViz": 5750,
      "Ã¶sterreich": 5751,
      "ĠAward": 5752,
      "ĠIslam": 5753,
      "icherung": 5754,
      "ĠFC": 5755,
      "ĠKarls": 5756,
      "schicht": 5757,
      "omot": 5758,
      "tragung": 5759,
      "ĠLeopold": 5760,
      "zum": 5761,
      "ĠAndr": 5762,
      "eta": 5763,
      "Ġerscheint": 5764,
      "kampf": 5765,
      "ĠBul": 5766,
      "ĠIdent": 5767,
      "ĠSzen": 5768,
      "DP": 5769,
      "Ġ160": 5770,
      "aktoren": 5771,
      "istan": 5772,
      "Ġgesprochen": 5773,
      "Ġunterscheidet": 5774,
      "ĠAbschnitt": 5775,
      "ĠÃ¤lteste": 5776,
      "Ġwahrscheinlich": 5777,
      "ĠBol": 5778,
      "ĠSchon": 5779,
      "edig": 5780,
      "ĠSammlung": 5781,
      "kat": 5782,
      "ĠtrÃ¤gt": 5783,
      "orb": 5784,
      "Ġhergestellt": 5785,
      "ymnasium": 5786,
      "Ġlau": 5787,
      "inus": 5788,
      "dehn": 5789,
      "wÃ¤rts": 5790,
      "98": 5791,
      "ĠAv": 5792,
      "ĠjÃ¼nger": 5793,
      "ĠNikol": 5794,
      "ĠLux": 5795,
      "lant": 5796,
      "ĠMy": 5797,
      "ĠHeidelberg": 5798,
      "ĠDonau": 5799,
      "ĠMatth": 5800,
      "halle": 5801,
      "ĠAnna": 5802,
      "holz": 5803,
      "maler": 5804,
      "ĠGerichts": 5805,
      "odox": 5806,
      "jÃ¤hrige": 5807,
      "ĠMau": 5808,
      "schall": 5809,
      "ĠSpÃ¤t": 5810,
      "ĠDÃ¼sseldorf": 5811,
      "ĠSituation": 5812,
      "ĠKardinal": 5813,
      "staben": 5814,
      "ĠDach": 5815,
      "ĠWÃ¶rter": 5816,
      "ĠOrient": 5817,
      "ĠThron": 5818,
      "ĠPoly": 5819,
      "Ã¼hle": 5820,
      "ĠErfahr": 5821,
      "ĠMilliar": 5822,
      "onien": 5823,
      "igungen": 5824,
      "ĠZukunft": 5825,
      "gerichts": 5826,
      "ĠZusammenarbeit": 5827,
      "Ġgetr": 5828,
      "Ġwerde": 5829,
      "Ġwelcher": 5830,
      "Ġkomplex": 5831,
      "ĠAnhÃ¤nger": 5832,
      "ĠÃ¶ffentlich": 5833,
      "ĠOffen": 5834,
      "ĠSchach": 5835,
      "sal": 5836,
      "Ġbesondere": 5837,
      "schulen": 5838,
      "ĠBremen": 5839,
      "ĠfrÃ¼heren": 5840,
      "ĠPfer": 5841,
      "elef": 5842,
      "ĠGet": 5843,
      "ĠberÃ¼hm": 5844,
      "Ġteils": 5845,
      "sberg": 5846,
      "Ġkor": 5847,
      "gewicht": 5848,
      "ĠBerufs": 5849,
      "ĠSchmidt": 5850,
      "Ġbeziehungsweise": 5851,
      "astrop": 5852,
      "ĠZeitung": 5853,
      "ĠUntersuchungen": 5854,
      "reihe": 5855,
      "bern": 5856,
      "ĠHau": 5857,
      "jen": 5858,
      "nungs": 5859,
      "Å«": 5860,
      "Ġ1922": 5861,
      "ĠKohlen": 5862,
      "irch": 5863,
      "ĠLinien": 5864,
      "sÃ¤tzlich": 5865,
      "ĠÃĸffentlichkeit": 5866,
      "US": 5867,
      "ĠTher": 5868,
      "ĠDoch": 5869,
      "ĠIhr": 5870,
      "ĠMusikp": 5871,
      "bezirk": 5872,
      "Ġlangen": 5873,
      "ĠLeitung": 5874,
      "ĠSex": 5875,
      "ĠHelmut": 5876,
      "ĠKlav": 5877,
      "ĠAnwend": 5878,
      "ĠAufnahme": 5879,
      "westen": 5880,
      "bas": 5881,
      "rÃ¼fung": 5882,
      "Ġintegr": 5883,
      "ique": 5884,
      "Ġ1910": 5885,
      "kriegs": 5886,
      "Ã¤nz": 5887,
      "Ã¤nglich": 5888,
      "sprachen": 5889,
      "lande": 5890,
      "ĠWeimar": 5891,
      "ĠverfÃ¼gt": 5892,
      "ĠCap": 5893,
      "ikaner": 5894,
      "ĠMinuten": 5895,
      "ĠGegenwart": 5896,
      "weile": 5897,
      "amerikanischen": 5898,
      "ĠMinder": 5899,
      "ĠEntscheidung": 5900,
      "Ġdaraufhin": 5901,
      "ĠGeistlicher": 5902,
      "aner": 5903,
      "Deutschland": 5904,
      "Ġbezeichnete": 5905,
      "geleg": 5906,
      "kunst": 5907,
      "ĠZus": 5908,
      "stechn": 5909,
      "ĠMÃ¤nn": 5910,
      "tlichen": 5911,
      "Ġumstritten": 5912,
      "Ġzuletzt": 5913,
      "ĠFunktionen": 5914,
      "ĠAlbrecht": 5915,
      "meer": 5916,
      "ĠIndivid": 5917,
      "grad": 5918,
      "Ġ1931": 5919,
      "pft": 5920,
      "ĠTÃ¼r": 5921,
      "ĠSchlag": 5922,
      "âĢľ),": 5923,
      "Ġdarf": 5924,
      "ĠerklÃ¤rte": 5925,
      "ĠSchu": 5926,
      "Ġeinzelne": 5927,
      "ĠanschlieÃŁend": 5928,
      "ologen": 5929,
      "ĠWebsite": 5930,
      "stitution": 5931,
      "ramm": 5932,
      "ĠMission": 5933,
      "ĠIngen": 5934,
      "ĠBibliothek": 5935,
      "ĠHir": 5936,
      "Ġrep": 5937,
      "wertung": 5938,
      "Ġuns": 5939,
      "Ġabzu": 5940,
      "ĠAufgabe": 5941,
      "Ġdisk": 5942,
      "ĠLied": 5943,
      "ĠStart": 5944,
      "ces": 5945,
      "ĠThemen": 5946,
      "iction": 5947,
      "chner": 5948,
      "ĠDet": 5949,
      "ĠArchitektur": 5950,
      "wirkungen": 5951,
      "Ġdritten": 5952,
      "erweise": 5953,
      "ĨĴ": 5954,
      "lose": 5955,
      "Der": 5956,
      "Ġarch": 5957,
      "Ġ1913": 5958,
      "ĠwÃ¼rden": 5959,
      "Ġoffiziell": 5960,
      "ĠFlÃ¤chen": 5961,
      "Ġeingesch": 5962,
      "unkten": 5963,
      "ĠBezirks": 5964,
      "unschweig": 5965,
      "chmal": 5966,
      "hilfe": 5967,
      "eider": 5968,
      "ĠDomin": 5969,
      "teilen": 5970,
      "ĠIsrael": 5971,
      "ĠPopul": 5972,
      "Ġ1923": 5973,
      "Ġrussischen": 5974,
      "ĠKer": 5975,
      "ĠNÃ¼rnberg": 5976,
      "onisten": 5977,
      "ĠEber": 5978,
      "tinent": 5979,
      "Ġrad": 5980,
      "Ġru": 5981,
      "ĠAuflÃ¶sung": 5982,
      "ikanischer": 5983,
      "ĠAntike": 5984,
      "schm": 5985,
      "vertrag": 5986,
      "ĠNieders": 5987,
      "Ġsub": 5988,
      "Ġangew": 5989,
      "nes": 5990,
      "Ġ45": 5991,
      "gliedert": 5992,
      "ĠManfred": 5993,
      "ĠsÃ¼dlichen": 5994,
      "ĠSig": 5995,
      "ĠLehre": 5996,
      "ĠPhysik": 5997,
      "hor": 5998,
      "ĠLandschaft": 5999,
      "ĠBasel": 6000,
      "ĠÂ§": 6001,
      "Ġmehrfach": 6002,
      "frist": 6003,
      "andelt": 6004,
      "organisation": 6005,
      "statt": 6006,
      "ĠSS": 6007,
      "ĠHitler": 6008,
      "sper": 6009,
      "ĠBeschreibung": 6010,
      "ĠPop": 6011,
      "ĠIll": 6012,
      "Ġ1921": 6013,
      "etische": 6014,
      "ĠHintergrund": 6015,
      "ther": 6016,
      "isation": 6017,
      "ĠTurm": 6018,
      "Ġeinzu": 6019,
      "ĠQualitÃ¤t": 6020,
      "pul": 6021,
      "Ġrechts": 6022,
      "stock": 6023,
      "Ġnorweg": 6024,
      "Ã¤um": 6025,
      "raut": 6026,
      "ĠgrÃ¼ndete": 6027,
      "ransport": 6028,
      "ĠÃĦhn": 6029,
      "ĠAfrika": 6030,
      "ga": 6031,
      "rats": 6032,
      "ĠEuropas": 6033,
      "Ġklassischen": 6034,
      "ĠunterstÃ¼tzt": 6035,
      "das": 6036,
      "Ġeinst": 6037,
      "Ġetabl": 6038,
      "ĠLandtag": 6039,
      "ĠHerbert": 6040,
      "ki": 6041,
      "ones": 6042,
      "ĠLeiter": 6043,
      "wahr": 6044,
      "herzog": 6045,
      "ĠAltstadt": 6046,
      "umenten": 6047,
      "ĠBetriebs": 6048,
      "ĠGrad": 6049,
      "ellschaften": 6050,
      "manischen": 6051,
      "Ġgewonnen": 6052,
      "ĠFrem": 6053,
      "ĠDirigent": 6054,
      "Land": 6055,
      "ĠBibel": 6056,
      "ĠMethoden": 6057,
      "ID": 6058,
      "nehm": 6059,
      "kÃ¶rper": 6060,
      "region": 6061,
      "ĠTransport": 6062,
      "Ġmar": 6063,
      "stÃ¤nden": 6064,
      "ĠStad": 6065,
      "ĠNah": 6066,
      "Ġdiente": 6067,
      "gerufen": 6068,
      "dh": 6069,
      "ĠBrie": 6070,
      "ĠGebrauch": 6071,
      "sprÃ¼": 6072,
      "aktiv": 6073,
      "ĠOpern": 6074,
      "Ġaktiv": 6075,
      "ĠEduard": 6076,
      "pflich": 6077,
      "thur": 6078,
      "ĠInformation": 6079,
      "ters": 6080,
      "ĠSpiegel": 6081,
      "ĠErste": 6082,
      "ĠStahl": 6083,
      "ps": 6084,
      "ĠArchÃ¤": 6085,
      "ĠDenkmal": 6086,
      "hrop": 6087,
      "ĠTom": 6088,
      "Ġzeigte": 6089,
      "ĠzwÃ¶lf": 6090,
      "ĠKonstantin": 6091,
      "trainer": 6092,
      "anisch": 6093,
      "ĠSchleswig": 6094,
      "IN": 6095,
      "fiel": 6096,
      "ĠAustr": 6097,
      "con": 6098,
      "ĠBron": 6099,
      "Ġlebte": 6100,
      "ĠSuper": 6101,
      "any": 6102,
      "gramme": 6103,
      "ĠVerbindungen": 6104,
      "Ġ1905": 6105,
      "ĠSonne": 6106,
      "Dollar": 6107,
      "furter": 6108,
      "assel": 6109,
      "ĠTenn": 6110,
      "ĠMiner": 6111,
      "Ġha": 6112,
      "ynastie": 6113,
      "ieller": 6114,
      "ĠOrdens": 6115,
      "Ġus": 6116,
      "schte": 6117,
      "Ġspanischer": 6118,
      "ĠTats": 6119,
      "bauer": 6120,
      "rig": 6121,
      "ĠBÃ¤nde": 6122,
      "ĠHon": 6123,
      "Ġheil": 6124,
      "edition": 6125,
      "Ġheira": 6126,
      "ĠAust": 6127,
      "ĠGebieten": 6128,
      "ĠJos": 6129,
      "del": 6130,
      "hu": 6131,
      "ĠFreiburg": 6132,
      "ress": 6133,
      "punkte": 6134,
      "tert": 6135,
      "undert": 6136,
      "Ġtragen": 6137,
      "Pl": 6138,
      "gor": 6139,
      "auber": 6140,
      "eutr": 6141,
      "96": 6142,
      "Ã©s": 6143,
      "Ġnutz": 6144,
      "ffer": 6145,
      "ĠErster": 6146,
      "echseln": 6147,
      "stud": 6148,
      "ĠjÃ¼dischen": 6149,
      "ĠDor": 6150,
      "ĠMyth": 6151,
      "ĠLiebe": 6152,
      "Ġbegrenz": 6153,
      "ĠSpezial": 6154,
      "afrika": 6155,
      "lÃ¶": 6156,
      "ĠWellen": 6157,
      "ĠHÃ¶hen": 6158,
      "Ġstanden": 6159,
      "stands": 6160,
      "kern": 6161,
      "ria": 6162,
      "ĠInteressen": 6163,
      "hebung": 6164,
      "Ġat": 6165,
      "born": 6166,
      "geg": 6167,
      "ĠSkla": 6168,
      "ĠAber": 6169,
      "ĠLad": 6170,
      "Ġbefand": 6171,
      "ĠTo": 6172,
      "rober": 6173,
      "ĠBrenn": 6174,
      "Ã¶rungen": 6175,
      "ouverneur": 6176,
      "do": 6177,
      "zwei": 6178,
      "zone": 6179,
      "begriff": 6180,
      "Ġas": 6181,
      "Ġunser": 6182,
      "ĠEngel": 6183,
      "ĠOpp": 6184,
      "ĠkÃ¶nne": 6185,
      "ĠLex": 6186,
      "Ġgesehen": 6187,
      "ĠThÃ¼r": 6188,
      "zur": 6189,
      "ziplin": 6190,
      "ĠAsp": 6191,
      "ĠAktion": 6192,
      "ĠMass": 6193,
      "zenz": 6194,
      "Ġblieben": 6195,
      "Ġgriechischen": 6196,
      "iland": 6197,
      "heater": 6198,
      "Ã¶rde": 6199,
      "ĠAndere": 6200,
      "Ġletzt": 6201,
      "jew": 6202,
      "elli": 6203,
      "imen": 6204,
      "ĠGrÃ¼nden": 6205,
      "ĠHÃ¤us": 6206,
      "ĠSpÃ¤ter": 6207,
      "ĠGÃ¶t": 6208,
      "Ġunten": 6209,
      "ĠChemie": 6210,
      "dam": 6211,
      "Ġinternationale": 6212,
      "ohn": 6213,
      "steuer": 6214,
      "Hol": 6215,
      "ĠBeweg": 6216,
      "Ġliter": 6217,
      "Ġstarke": 6218,
      "ĠMilliarden": 6219,
      "ĠRem": 6220,
      "aiss": 6221,
      "Ã¼rd": 6222,
      "ĠMosk": 6223,
      "onym": 6224,
      "ĠVern": 6225,
      "Â°": 6226,
      "ĠSymbol": 6227,
      "Ġverkehr": 6228,
      "ĠÃī": 6229,
      "ĠPlat": 6230,
      "atische": 6231,
      "ĠUnterschied": 6232,
      "ĠNeum": 6233,
      "Ġ1901": 6234,
      "zul": 6235,
      "Ġkanadischer": 6236,
      "Ġintens": 6237,
      "reistrÃ¤ger": 6238,
      "ĠMio": 6239,
      "ĠKombin": 6240,
      "fle": 6241,
      "ĠOstpreuÃŁen": 6242,
      "ĠDiplomat": 6243,
      "ĠGrÃ¤": 6244,
      "straÃŁen": 6245,
      "ĠKommunal": 6246,
      "iana": 6247,
      "edt": 6248,
      "ĠGeschwindigkeit": 6249,
      "Ġentdeckt": 6250,
      "Ġverurs": 6251,
      "ĠOnline": 6252,
      "ĠRede": 6253,
      "ĠOriginal": 6254,
      "ĠMat": 6255,
      "ĠMand": 6256,
      "Ġexistiert": 6257,
      "ĠStellen": 6258,
      "ĠBrem": 6259,
      "car": 6260,
      "ĠSÃ¤": 6261,
      "Ġnennt": 6262,
      "Ġregion": 6263,
      "Ġ32": 6264,
      "ĠSerie": 6265,
      "Ġstarken": 6266,
      "messer": 6267,
      "Ġvoraus": 6268,
      "ĠabhÃ¤ng": 6269,
      "ĠInteresse": 6270,
      "ĠBill": 6271,
      "Ġniedr": 6272,
      "Ġversucht": 6273,
      "ĠhÃ¤tten": 6274,
      "seits": 6275,
      "ĠExistenz": 6276,
      "ĠnÃ¶rdlichen": 6277,
      "ii": 6278,
      "Ġans": 6279,
      "neter": 6280,
      "Ã¼ll": 6281,
      "ĠGeschlecht": 6282,
      "ĠBeide": 6283,
      "horn": 6284,
      "ĠMaÃŁnahmen": 6285,
      "ĠvÃ¶llig": 6286,
      "oks": 6287,
      "edia": 6288,
      "ifiziert": 6289,
      "ehnt": 6290,
      "hÃ¤ltnisse": 6291,
      "ĠJagd": 6292,
      "serie": 6293,
      "Ã¼ndnis": 6294,
      "ĠSociet": 6295,
      "ĠJack": 6296,
      "val": 6297,
      "gemeinden": 6298,
      "ĠHochschule": 6299,
      "ĠJacob": 6300,
      "Ã¤hlte": 6301,
      "ĠBesonders": 6302,
      "Ġmittelalter": 6303,
      "Ġangegeben": 6304,
      "ison": 6305,
      "ĠLeistung": 6306,
      "way": 6307,
      "ĠStatt": 6308,
      "ĠTÃ¼b": 6309,
      "Ġwor": 6310,
      "ĠIniti": 6311,
      "ĠPhase": 6312,
      "troll": 6313,
      "zieht": 6314,
      "Ġnahezu": 6315,
      "leistung": 6316,
      "ĠZeiten": 6317,
      "Ã¤hler": 6318,
      "Ġverschiedener": 6319,
      "ĠEinwohnern": 6320,
      "ĠstÃ¤nd": 6321,
      "rÃ¤nk": 6322,
      "Ġweib": 6323,
      "Ã¤dt": 6324,
      "ĠEh": 6325,
      "ĠWeil": 6326,
      "werken": 6327,
      "ĠÃ¶ffentliche": 6328,
      "kamp": 6329,
      "ĠgewÃ¤hr": 6330,
      "sphÃ¤re": 6331,
      "instr": 6332,
      "rÃ¤ume": 6333,
      "Ġfertig": 6334,
      "Ġbeteiligt": 6335,
      "ĠErober": 6336,
      "ĠBedingungen": 6337,
      "menge": 6338,
      "ĠEntwicklungs": 6339,
      "ĠSar": 6340,
      "Â»": 6341,
      "ĠDanach": 6342,
      "igitalis": 6343,
      "Ġbau": 6344,
      "oler": 6345,
      "ĠGeheim": 6346,
      "war": 6347,
      "Ġhal": 6348,
      "Ġop": 6349,
      "que": 6350,
      "Ġ1911": 6351,
      "Ã¤den": 6352,
      "artige": 6353,
      "Berlin": 6354,
      "Ġverfol": 6355,
      "ĠIndien": 6356,
      "ior": 6357,
      "zun": 6358,
      "ĠKub": 6359,
      "ĠGeburts": 6360,
      "Ġaustral": 6361,
      "ĠKonflikt": 6362,
      "Ġerbaut": 6363,
      "Ġarab": 6364,
      "ques": 6365,
      "Ã¼mer": 6366,
      "ani": 6367,
      "ĠPri": 6368,
      "Ġerle": 6369,
      "holt": 6370,
      "Ġgering": 6371,
      "hafte": 6372,
      ".),": 6373,
      "ĠAdam": 6374,
      "setzer": 6375,
      "Ġenglische": 6376,
      "ffÃ¼hrung": 6377,
      "ĠHimmel": 6378,
      "stall": 6379,
      "Ġzer": 6380,
      "hocke": 6381,
      "Ġbringen": 6382,
      "ĠOrte": 6383,
      "ils": 6384,
      "empl": 6385,
      "ĠBraunschweig": 6386,
      "ĠhÃ¶chste": 6387,
      "ĠKath": 6388,
      "Ġerinn": 6389,
      "lenburg": 6390,
      "Ã¼pf": 6391,
      "ĠTar": 6392,
      "ĠKÃ¶r": 6393,
      "ulf": 6394,
      "âĢ¦]": 6395,
      "ĠMult": 6396,
      "ĠMetern": 6397,
      "Ġsolchen": 6398,
      "Ġweder": 6399,
      "ĠMur": 6400,
      "stÃ¤tten": 6401,
      "ĠPresse": 6402,
      "eiÃŁen": 6403,
      "Ġbeweg": 6404,
      "geschlagen": 6405,
      "heimer": 6406,
      "erte": 6407,
      "ĠGesprÃ¤": 6408,
      "otent": 6409,
      "Ġbildete": 6410,
      "gliederung": 6411,
      "ĠKolonial": 6412,
      "Ġangeboten": 6413,
      "ĠMeeres": 6414,
      "ĠNapole": 6415,
      "ungsver": 6416,
      "wan": 6417,
      "ĠZeu": 6418,
      "ĠIntegr": 6419,
      "Ã¤mpfer": 6420,
      "hmen": 6421,
      "Ġleich": 6422,
      "ĠVerfassungs": 6423,
      "Ã¤hrung": 6424,
      "Ġjeden": 6425,
      "DF": 6426,
      "ĠKrist": 6427,
      "usion": 6428,
      "Ġweist": 6429,
      "herrschaft": 6430,
      "Ġgingen": 6431,
      "ĠLetz": 6432,
      "ĠNav": 6433,
      "xid": 6434,
      "einheit": 6435,
      "Preis": 6436,
      "ĠMisch": 6437,
      "ĠGemeinschaft": 6438,
      "ĠermÃ¶glicht": 6439,
      "raucht": 6440,
      "teile": 6441,
      "ĠmÃ¤nn": 6442,
      "ĠTÃ¼rk": 6443,
      "Ġjapanischer": 6444,
      "ĠWel": 6445,
      "ĠBre": 6446,
      "sÃ¤nger": 6447,
      "stab": 6448,
      "mut": 6449,
      "dex": 6450,
      "rifft": 6451,
      "ĠPfalz": 6452,
      "ĠAtom": 6453,
      "ĠhÃ¶heren": 6454,
      "Ġ1907": 6455,
      "Ġerkennen": 6456,
      "Ġrein": 6457,
      "ĠMasse": 6458,
      "ĠLuther": 6459,
      "ĠMathematik": 6460,
      "sÃ¤tze": 6461,
      "alition": 6462,
      "teils": 6463,
      "ando": 6464,
      "baum": 6465,
      "ĠEdition": 6466,
      "ĠKonzentr": 6467,
      "ĠSchnitt": 6468,
      "ĠVerwand": 6469,
      "ĠMarie": 6470,
      "Ġ400": 6471,
      "tret": 6472,
      "97": 6473,
      "ĠMatthias": 6474,
      "Ġdurchschnitt": 6475,
      "ĠVerband": 6476,
      "ĠtÃ¤tig": 6477,
      "ĠMÃ¶n": 6478,
      "IS": 6479,
      "ĠBarbar": 6480,
      "Ġalles": 6481,
      "brÃ¼cke": 6482,
      "ĠKontrolle": 6483,
      "Ġrei": 6484,
      "ĠEth": 6485,
      "kord": 6486,
      "wes": 6487,
      "archie": 6488,
      "ĠNachrichten": 6489,
      "fÃ¼hrte": 6490,
      "ĠTagen": 6491,
      "ĠKlavier": 6492,
      "Mit": 6493,
      "ethe": 6494,
      "ĠPot": 6495,
      "ĠUkra": 6496,
      "ektor": 6497,
      "ĠLÃ¶sung": 6498,
      "Ġ%.": 6499,
      "Ġbelegt": 6500,
      "Ġth": 6501,
      "ĠMex": 6502,
      "ĠProdukt": 6503,
      "phan": 6504,
      "ĠInfrastruktur": 6505,
      "kunden": 6506,
      "Ġ1908": 6507,
      "iedelt": 6508,
      "ĠInsgesamt": 6509,
      "ĠMengen": 6510,
      "genÃ¶ss": 6511,
      "ĠVis": 6512,
      "ĠgefÃ¤hr": 6513,
      "ĠVI": 6514,
      "Ġverpflich": 6515,
      "ypen": 6516,
      "zustellen": 6517,
      "ĠÃĦgypten": 6518,
      "ĠPu": 6519,
      "Ġganzen": 6520,
      "Ġverlor": 6521,
      "rÃ¼nder": 6522,
      "ĠArg": 6523,
      "ĠRathaus": 6524,
      "Ġsyn": 6525,
      "geordnet": 6526,
      "usalem": 6527,
      "Westfalen": 6528,
      "phil": 6529,
      "ĠWerte": 6530,
      "Ġpolnischer": 6531,
      "Ġ1917": 6532,
      "atischen": 6533,
      "ĠWagen": 6534,
      "Ġunterschieden": 6535,
      "ology": 6536,
      "wal": 6537,
      "ĠLim": 6538,
      "ĠLatein": 6539,
      "ictor": 6540,
      "ĠPersÃ¶nlichkeiten": 6541,
      "Ã¤nomen": 6542,
      "ĠErinner": 6543,
      "achstum": 6544,
      "Ġzumindest": 6545,
      "ĠKart": 6546,
      "ĠAnspruch": 6547,
      "amens": 6548,
      "Ġbenach": 6549,
      "Ġausgeb": 6550,
      "Ġsozialen": 6551,
      "Ġbetrug": 6552,
      "bÃ¼cher": 6553,
      "ĠrÃ¼ck": 6554,
      "figur": 6555,
      "ĠJed": 6556,
      "ĠKaisers": 6557,
      "spiegel": 6558,
      "Ġverboten": 6559,
      "Ġsystem": 6560,
      "ĠMas": 6561,
      "Ġ1906": 6562,
      "Br": 6563,
      "Ġangenommen": 6564,
      "wood": 6565,
      "etischen": 6566,
      "ĠZerst": 6567,
      "ĠFak": 6568,
      "ĠNobel": 6569,
      "ĠOrgel": 6570,
      "Ġbeschreibt": 6571,
      "ĠGreg": 6572,
      "ĠÃ¼brigen": 6573,
      "bahnen": 6574,
      "ĠErweiter": 6575,
      "stheorie": 6576,
      "ĠHyp": 6577,
      "ĠStock": 6578,
      "ĠFilme": 6579,
      "ĠKapital": 6580,
      "Ġsicht": 6581,
      "rin": 6582,
      "com": 6583,
      "ĠÃ¤ltesten": 6584,
      "fels": 6585,
      "tums": 6586,
      "ĠFrÃ¼hjahr": 6587,
      "gau": 6588,
      "indet": 6589,
      "ĠSym": 6590,
      "ĠKle": 6591,
      "ĠMethode": 6592,
      "ĠInsbesondere": 6593,
      "ĠVorbild": 6594,
      "hoff": 6595,
      "emm": 6596,
      "finden": 6597,
      "ĠÂ«": 6598,
      "Ġauftreten": 6599,
      "ĠauÃŁen": 6600,
      "handel": 6601,
      "werbe": 6602,
      "Ġforder": 6603,
      "ĠDauer": 6604,
      "eten": 6605,
      "eiert": 6606,
      "Ġdaraus": 6607,
      "Ġse": 6608,
      "igem": 6609,
      "spolitik": 6610,
      "uc": 6611,
      "ĠZo": 6612,
      "var": 6613,
      "Ġlinks": 6614,
      "ba": 6615,
      "ĠAtt": 6616,
      "Ġstud": 6617,
      "nissen": 6618,
      "gehÃ¶rigen": 6619,
      "eiteten": 6620,
      "ĠNeuzeit": 6621,
      "gesprochen": 6622,
      "Ã¶hne": 6623,
      "ikas": 6624,
      "Ġ120": 6625,
      "ĠVorder": 6626,
      "Ġbay": 6627,
      "Ã¼ssen": 6628,
      "stellungs": 6629,
      "ecklenburg": 6630,
      "ĠIdee": 6631,
      "Ġchristlichen": 6632,
      "Ġschle": 6633,
      "aissance": 6634,
      "emark": 6635,
      "gÃ¤nge": 6636,
      "ĠGrÃ¼nder": 6637,
      "emals": 6638,
      "Ġfunktion": 6639,
      "ĠAltern": 6640,
      "owski": 6641,
      "ĠStandort": 6642,
      "Ã¤chsischen": 6643,
      "Ġevangelischer": 6644,
      "Ġweiteres": 6645,
      "ĠAutobahn": 6646,
      "verkehrs": 6647,
      "ĠAbend": 6648,
      "Ġvern": 6649,
      "genossen": 6650,
      "ĠDeb": 6651,
      "setzte": 6652,
      "Ã¼h": 6653,
      "ĠNoch": 6654,
      "Ġvorgesehen": 6655,
      "ordnet": 6656,
      "ĠhÃ¶chsten": 6657,
      "berecht": 6658,
      "finder": 6659,
      "adel": 6660,
      "ĠspÃ¤ten": 6661,
      "Ġverantwort": 6662,
      "Ġanders": 6663,
      "ĠMainz": 6664,
      "ĠGericht": 6665,
      "ĠAusstellung": 6666,
      "annen": 6667,
      "ĠTempel": 6668,
      "ĠBeziehung": 6669,
      "ĠChristen": 6670,
      "Ġentsprechenden": 6671,
      "Ġ1909": 6672,
      "Ã¶ren": 6673,
      "Ã¤ume": 6674,
      "Ġeindeut": 6675,
      "fÃ¼hrten": 6676,
      "ĠReihen": 6677,
      "ĠOffizier": 6678,
      "ĠfrÃ¼he": 6679,
      "ĠHerren": 6680,
      "Ġverliehen": 6681,
      "Ġbein": 6682,
      "aris": 6683,
      "Ġanal": 6684,
      "Ġport": 6685,
      "ĠPersonal": 6686,
      "ĠEinheiten": 6687,
      "kÃ¼rz": 6688,
      "ĠEinrichtungen": 6689,
      "ĠArthur": 6690,
      "ĠElektro": 6691,
      "arriere": 6692,
      "ĠAlexand": 6693,
      "Ġarbeiten": 6694,
      "Ġverur": 6695,
      "ĠZun": 6696,
      "ĠGegner": 6697,
      "alisiert": 6698,
      "ĠFirma": 6699,
      "ĠInternationale": 6700,
      "ĠÃ¶stlich": 6701,
      "ĠAutomobilrennfahrer": 6702,
      "ĠGeden": 6703,
      "ĠBist": 6704,
      "ĠDiss": 6705,
      "licherweise": 6706,
      "Ġbegonnen": 6707,
      "ĠKonzert": 6708,
      "ĠCamb": 6709,
      "Ġdaran": 6710,
      "ruf": 6711,
      "ĠKommunikation": 6712,
      "ĠÐ": 6713,
      "ĠTie": 6714,
      "ĠFragen": 6715,
      "bahnhof": 6716,
      "ĠMund": 6717,
      "ĠRezept": 6718,
      "ĠVorgÃ¤nger": 6719,
      "ĠUntersuchung": 6720,
      "Ġnatur": 6721,
      "Ã¤mpfen": 6722,
      "ĠStrahl": 6723,
      "ĠEck": 6724,
      "lied": 6725,
      "ĠGattung": 6726,
      "ĠWohl": 6727,
      "Ġunbekannt": 6728,
      "Ġerl": 6729,
      "ĠHandballspieler": 6730,
      "ĠÃĦr": 6731,
      "Ã¤nen": 6732,
      "arbeitete": 6733,
      "programm": 6734,
      "ĠGefahr": 6735,
      "Ġlebten": 6736,
      "ĠGramm": 6737,
      "nee": 6738,
      "ĠFal": 6739,
      "ĠEinsch": 6740,
      "ĠTestament": 6741,
      "Stra": 6742,
      "lim": 6743,
      "zeugung": 6744,
      "ĠÃ¼blich": 6745,
      "endorf": 6746,
      "otten": 6747,
      "ela": 6748,
      "aph": 6749,
      "ĠEdward": 6750,
      "itar": 6751,
      "Ġy": 6752,
      "richter": 6753,
      "Spiel": 6754,
      "tes": 6755,
      "ĠHard": 6756,
      "ĠImm": 6757,
      "ĠVideo": 6758,
      "ĠSehen": 6759,
      "Ġgemeinsamen": 6760,
      "91": 6761,
      "iziner": 6762,
      "hockey": 6763,
      "Mod": 6764,
      "ĠTu": 6765,
      "regisseur": 6766,
      "ji": 6767,
      "sbaden": 6768,
      "ram": 6769,
      "zÃ¼glich": 6770,
      "Ġschwedischer": 6771,
      "ried": 6772,
      "fassungs": 6773,
      "ĠArchiv": 6774,
      "krieges": 6775,
      "werks": 6776,
      "ĠBart": 6777,
      "kas": 6778,
      "ĠInstrument": 6779,
      "Ġallgemeinen": 6780,
      "gestalt": 6781,
      "anda": 6782,
      "ydro": 6783,
      "Ġ1848": 6784,
      "anteil": 6785,
      "utzung": 6786,
      "bund": 6787,
      "chern": 6788,
      "Ġinternational": 6789,
      "ĠSpringer": 6790,
      "ĠVogel": 6791,
      "ĠIch": 6792,
      "-)": 6793,
      "ool": 6794,
      "Ġlegte": 6795,
      "ĠRÃ¶mer": 6796,
      "Ã¤ndler": 6797,
      "ĠRoh": 6798,
      "wach": 6799,
      "Ġverlassen": 6800,
      "Ġ[âĢ¦]": 6801,
      "ĠColle": 6802,
      "ĠAbschluss": 6803,
      "ĠCity": 6804,
      "ĠGottfried": 6805,
      "Ġgleichnam": 6806,
      "ĠSchle": 6807,
      "ĠAusland": 6808,
      "bef": 6809,
      "tinu": 6810,
      "ĠViol": 6811,
      "historiker": 6812,
      "Ġ1904": 6813,
      "Ġmenschlichen": 6814,
      "ĠPierre": 6815,
      "formation": 6816,
      "ĠSchreib": 6817,
      "ption": 6818,
      "ĠWÃ¤rme": 6819,
      "ses": 6820,
      "ĠEmil": 6821,
      "Ġ*": 6822,
      "Ã¶d": 6823,
      "ĠSozi": 6824,
      "ĠWeiÃŁ": 6825,
      "ĠGrafen": 6826,
      "ĠPatienten": 6827,
      "ĠHuman": 6828,
      "reicher": 6829,
      "achtung": 6830,
      "ĠIndividu": 6831,
      "ĠCDU": 6832,
      "no": 6833,
      "ĠIdeen": 6834,
      "ĠWurz": 6835,
      "ĠBeam": 6836,
      "ĠhÃ¶here": 6837,
      "Ġphilosoph": 6838,
      "lÃ¤ndischen": 6839,
      "ĠfÃ¤llt": 6840,
      "ĠMusikpÃ¤dagoge": 6841,
      "ĠAbstand": 6842,
      "ĠHell": 6843,
      "ĠTonnen": 6844,
      "ĠPatri": 6845,
      "Ġergeben": 6846,
      "Ġabgeschlossen": 6847,
      "Ġmiteinander": 6848,
      "falt": 6849,
      "zugs": 6850,
      "ĠSociety": 6851,
      "ĠNaturschutz": 6852,
      "Ġstieg": 6853,
      "Ġfolgten": 6854,
      "Ġschwar": 6855,
      "gekehr": 6856,
      "ĠJulius": 6857,
      "Ġzuerst": 6858,
      "Ġcharakter": 6859,
      "Ġbegl": 6860,
      "Ġmoderne": 6861,
      "Ġverwendete": 6862,
      "ĠFen": 6863,
      "gehÃ¶rige": 6864,
      "idenz": 6865,
      "kal": 6866,
      "sbach": 6867,
      "ĠNordrhein": 6868,
      "ĠChemiker": 6869,
      "Ġsex": 6870,
      "ura": 6871,
      "ĠTÃ¼bingen": 6872,
      "Ã¼rzt": 6873,
      "ĠGrundlagen": 6874,
      "oden": 6875,
      "ĠMech": 6876,
      "ilde": 6877,
      "ĠspÃ¤tere": 6878,
      "lor": 6879,
      "tend": 6880,
      "freiheit": 6881,
      "wissenschaften": 6882,
      "ĠFert": 6883,
      "Ġusw": 6884,
      "oben": 6885,
      "Ġgener": 6886,
      "Welt": 6887,
      "pas": 6888,
      "ĠSieben": 6889,
      "ĠZahn": 6890,
      "rachte": 6891,
      "ĠZeitraum": 6892,
      "zte": 6893,
      "ĠErschein": 6894,
      "Ġeingestellt": 6895,
      "ĠFriedhof": 6896,
      "datum": 6897,
      "ĠPhot": 6898,
      "ĠSpekt": 6899,
      "ĠVictor": 6900,
      "ĠInvest": 6901,
      "blei": 6902,
      "ĠmÃ¶glichst": 6903,
      "ĠFeder": 6904,
      "ĠReichstag": 6905,
      "Ġvieler": 6906,
      "ĠStudie": 6907,
      "Ġmark": 6908,
      "ĠZy": 6909,
      "hnte": 6910,
      "ĠJerusalem": 6911,
      "ĠEntfern": 6912,
      "ĠGelÃ¤nde": 6913,
      "artet": 6914,
      "onische": 6915,
      "lÃ¤sslich": 6916,
      "anzer": 6917,
      "produz": 6918,
      "nitz": 6919,
      "arischer": 6920,
      "Ġeinheit": 6921,
      "ĠVul": 6922,
      "Ġzufolge": 6923,
      "ĠÃ¤lteren": 6924,
      "ĠRundfunk": 6925,
      "regel": 6926,
      "Ġkennen": 6927,
      "ĠSÃ¤u": 6928,
      "leun": 6929,
      "ĠBeteil": 6930,
      "schlÃ¤ge": 6931,
      "ĠHugo": 6932,
      "uliert": 6933,
      "ĠstÃ¤dt": 6934,
      "ĠVielzahl": 6935,
      "ĠKro": 6936,
      "reiber": 6937,
      "Ã¤b": 6938,
      "Ġnotwendig": 6939,
      "Ġnation": 6940,
      "Ġpopul": 6941,
      "ĠKupfer": 6942,
      "ĠBehandlung": 6943,
      "Ġnennen": 6944,
      "Ġwachsen": 6945,
      "Ġfehlen": 6946,
      "ingu": 6947,
      "Ġ1903": 6948,
      "sprÃ¤sident": 6949,
      "sburger": 6950,
      "abet": 6951,
      "ĠArnold": 6952,
      "ĠWag": 6953,
      "ĠLen": 6954,
      "ĠDieter": 6955,
      "ĠBestandteil": 6956,
      "rennen": 6957,
      "ĠÃ¼berhaupt": 6958,
      "rian": 6959,
      "500": 6960,
      "ife": 6961,
      "Ġdel": 6962,
      "Ġmedizin": 6963,
      "irt": 6964,
      "gu": 6965,
      "ĠKÃ¼sten": 6966,
      "Ġkleinere": 6967,
      "ĠWiesbaden": 6968,
      "Ġwirtschaftliche": 6969,
      "Ġunge": 6970,
      "ĠDiskuss": 6971,
      "mension": 6972,
      "ĠStatus": 6973,
      "Neu": 6974,
      "mord": 6975,
      "versorgung": 6976,
      "ĠSaint": 6977,
      "ĠGlaubens": 6978,
      "ĠIngenieur": 6979,
      "bnis": 6980,
      "ĠAlph": 6981,
      "offiz": 6982,
      "hauses": 6983,
      "Ġrussische": 6984,
      "Ġbelg": 6985,
      "ĠMannschaft": 6986,
      "Ġverschw": 6987,
      "Ġbetroffen": 6988,
      "emburg": 6989,
      "ĠSpiele": 6990,
      "Ġdiver": 6991,
      "ĠkÃ¶nig": 6992,
      "ischÃ¶": 6993,
      "Ġerzeugt": 6994,
      "Ã¤chte": 6995,
      "redit": 6996,
      "Ġte": 6997,
      "ĠKandid": 6998,
      "ĠmaÃŁ": 6999,
      "ĠTop": 7000,
      "ĠzurÃ¼ckzu": 7001,
      "ĠWÃ¼rttemberg": 7002,
      "Ġbesten": 7003,
      "hem": 7004,
      "Ġaufzu": 7005,
      "ĠInterpret": 7006,
      "dio": 7007,
      "eisch": 7008,
      "verlag": 7009,
      "rauer": 7010,
      "eland": 7011,
      "ĠÃ¶stlichen": 7012,
      "ĠKategorie": 7013,
      "ĠKe": 7014,
      "Ã¤nderte": 7015,
      "hes": 7016,
      "ministerium": 7017,
      "Ġwestlich": 7018,
      "essel": 7019,
      "ĠRau": 7020,
      "ĠLok": 7021,
      "imme": 7022,
      "Ã¶nt": 7023,
      "bast": 7024,
      "Ġtreten": 7025,
      "Ã¤dchen": 7026,
      "annter": 7027,
      "ĠtatsÃ¤chlich": 7028,
      "ket": 7029,
      "ĠKurfÃ¼rst": 7030,
      "hardt": 7031,
      "rÃ¼ck": 7032,
      "ĠAlpen": 7033,
      "schiede": 7034,
      "ĠRoten": 7035,
      "Pf": 7036,
      "ĠMarx": 7037,
      "ĠBeitrÃ¤ge": 7038,
      "ĠOxford": 7039,
      "Ġ1890": 7040,
      "SS": 7041,
      "ĠRoyal": 7042,
      "Ġfal": 7043,
      "erie": 7044,
      "ĠKolle": 7045,
      "Ġmusikal": 7046,
      "ĠFÃ¶r": 7047,
      "ussen": 7048,
      "Ġerstre": 7049,
      "Ã¤mlich": 7050,
      "ĠRuhr": 7051,
      "kretÃ¤r": 7052,
      "ĠGesundheit": 7053,
      "ĠDist": 7054,
      "Ġmanchmal": 7055,
      "Ã¼gen": 7056,
      "rauffÃ¼hrung": 7057,
      "ĠEg": 7058,
      "iale": 7059,
      "bad": 7060,
      "ĠTschech": 7061,
      "eda": 7062,
      "pfel": 7063,
      "ĠNiederl": 7064,
      "ĠReal": 7065,
      "ringer": 7066,
      "Ġil": 7067,
      "Ã¶glichen": 7068,
      "spunkt": 7069,
      "ĠLeistungs": 7070,
      "Ġbehaup": 7071,
      "ĠRiver": 7072,
      "ĠProtest": 7073,
      "Zeit": 7074,
      "ird": 7075,
      "ĠdÃ¼rfen": 7076,
      "ĠStift": 7077,
      "ĠTÃ¤tigkeit": 7078,
      "ilen": 7079,
      "ĠMak": 7080,
      "ĠKoch": 7081,
      "fordert": 7082,
      "ĠHorst": 7083,
      "Ġausreichen": 7084,
      "ĠAqu": 7085,
      "ĠFehler": 7086,
      "Ġbereit": 7087,
      "mith": 7088,
      "Ġentsprechende": 7089,
      "ĠabhÃ¤ngig": 7090,
      "ĠStrecken": 7091,
      "ville": 7092,
      "Ã¶tet": 7093,
      "ĠSpeicher": 7094,
      "geblich": 7095,
      "Ġbesuchte": 7096,
      "ĠÃ¼bersetzt": 7097,
      "iation": 7098,
      "landes": 7099,
      "temperatur": 7100,
      "ichert": 7101,
      "ĠDampf": 7102,
      "Ġtief": 7103,
      "itÃ¤ts": 7104,
      "iÄĩ": 7105,
      "ĠgegrÃ¼ndete": 7106,
      "ĠAllgemeinen": 7107,
      "Ġ1902": 7108,
      "fession": 7109,
      "Ġwirtschaftlichen": 7110,
      "ĠHex": 7111,
      "Ġtrug": 7112,
      "Ġerober": 7113,
      "ĠweiÃŁ": 7114,
      "verl": 7115,
      "ĠSÃ¶hne": 7116,
      "ĠTermin": 7117,
      "Ġide": 7118,
      "ĠCan": 7119,
      "Ġindivid": 7120,
      "ĠDarmstadt": 7121,
      "afr": 7122,
      "heute": 7123,
      "Ġjungen": 7124,
      "ĠSysteme": 7125,
      "Kreis": 7126,
      "ĠTourismus": 7127,
      "ĠKindern": 7128,
      "aneten": 7129,
      "forderungen": 7130,
      "ĠFÃ¤h": 7131,
      "ĠTode": 7132,
      "Ġreag": 7133,
      "ays": 7134,
      "Kl": 7135,
      "anik": 7136,
      "ĠFrankfurter": 7137,
      "material": 7138,
      "Ġdritte": 7139,
      "skon": 7140,
      "enter": 7141,
      "ĠAthen": 7142,
      "ĠtÃ¤": 7143,
      "ĠQuadrat": 7144,
      "ĠTheologie": 7145,
      "ĠBuchstaben": 7146,
      "ĠWin": 7147,
      "Ġnamens": 7148,
      "ĠEuropÃ¤ische": 7149,
      "Ġverhindern": 7150,
      "ĠChron": 7151,
      "ĠNahrungs": 7152,
      "ĠWas": 7153,
      "ida": 7154,
      "Ġkaiser": 7155,
      "ĠÃ¶sterreichischen": 7156,
      "ppel": 7157,
      "ĠCat": 7158,
      "ĠFarben": 7159,
      "ĠPianist": 7160,
      "ĠRegeln": 7161,
      "ĠChar": 7162,
      "Ġbewir": 7163,
      "Ġ33": 7164,
      "ĠKarten": 7165,
      "Ã¸": 7166,
      "bringen": 7167,
      "Ġentwickelten": 7168,
      "ĠGeburtstag": 7169,
      "Ġschloss": 7170,
      "ĠFarbe": 7171,
      "rechung": 7172,
      "Ġerweitert": 7173,
      "ĠIndian": 7174,
      "iforn": 7175,
      "ĠrÃ¶mische": 7176,
      "Ġelektron": 7177,
      "ĠFigur": 7178,
      "ĠLande": 7179,
      "euten": 7180,
      "ĠspÃ¤t": 7181,
      "ĠMarien": 7182,
      "Ġerhoben": 7183,
      "alerie": 7184,
      "ĠSauerstoff": 7185,
      "ĠKapit": 7186,
      "ĠKÃ¼n": 7187,
      "Ġandererseits": 7188,
      "ĠKohl": 7189,
      "arkt": 7190,
      "Ġkeiner": 7191,
      "Ã¶ffnung": 7192,
      "endel": 7193,
      "ĠHalle": 7194,
      "fÃ¤lt": 7195,
      "oral": 7196,
      "ehren": 7197,
      "ĠOrden": 7198,
      "ĠAusgang": 7199,
      "Ġsoziale": 7200,
      "ĠhÃ¤uf": 7201,
      "innung": 7202,
      "seud": 7203,
      "ĠErf": 7204,
      "ĠSimon": 7205,
      "ĠBesonder": 7206,
      "ĠtÃ¼rk": 7207,
      "Ġinteress": 7208,
      "Ãº": 7209,
      "etik": 7210,
      "Ã¶rdert": 7211,
      "erz": 7212,
      "ĠZell": 7213,
      "Ġzeich": 7214,
      "ichteten": 7215,
      "ĠEntscheid": 7216,
      "etwa": 7217,
      "schlesien": 7218,
      "ĠFisch": 7219,
      "erer": 7220,
      "Hz": 7221,
      "lÃ¤nge": 7222,
      "ĠFlugzeug": 7223,
      "ĠGewicht": 7224,
      "ĠgrundsÃ¤tzlich": 7225,
      "ĠWerken": 7226,
      "ĠSw": 7227,
      "ĠLÃ¶s": 7228,
      "ĠZul": 7229,
      "Ġerhielten": 7230,
      "ĠKÃ¶n": 7231,
      "rÃ¤cht": 7232,
      "cks": 7233,
      "ĠWettbewer": 7234,
      "ĠLyr": 7235,
      "Ã¼hlen": 7236,
      "ĠAster": 7237,
      "ĠBÃ¼r": 7238,
      "ĠZe": 7239,
      "ĠnÃ¤mlich": 7240,
      "ĠÃľbergang": 7241,
      "ĠWindows": 7242,
      "uster": 7243,
      "Ġuner": 7244,
      "ĠBlick": 7245,
      "ĠStudium": 7246,
      "Ġislam": 7247,
      "Ġbenachbar": 7248,
      "ĠAnlage": 7249,
      "ĠLiber": 7250,
      "ĠkÃ¼nstler": 7251,
      "gebirge": 7252,
      "ĠStÃ¤r": 7253,
      "Ã¼nde": 7254,
      "ieÃŁen": 7255,
      "gebieten": 7256,
      "ĠStaatsb": 7257,
      "cy": 7258,
      "ĠnÃ¤her": 7259,
      "erkennung": 7260,
      "Ġscheiter": 7261,
      "spielen": 7262,
      "Ġmittlerweile": 7263,
      "well": 7264,
      "Ġbedeutende": 7265,
      "ĠSiedlung": 7266,
      "alte": 7267,
      "besch": 7268,
      "rik": 7269,
      "Ġ1899": 7270,
      "ĠHersteller": 7271,
      "ĠKrankheit": 7272,
      "ĠSchall": 7273,
      "eige": 7274,
      "ates": 7275,
      "Ġzumeist": 7276,
      "ĠServ": 7277,
      "schritt": 7278,
      "ĠTief": 7279,
      "ĠÃľbersetzer": 7280,
      "ĠQuelle": 7281,
      "ĠSus": 7282,
      "ĠGeographie": 7283,
      "mech": 7284,
      "Ã©e": 7285,
      "ĠGroÃŁteil": 7286,
      "Ã¢": 7287,
      "ĠDÃ¶r": 7288,
      "ĠGouverneur": 7289,
      "Ġint": 7290,
      "ĠStraÃŁ": 7291,
      "Ġerheblich": 7292,
      "ĠCambridge": 7293,
      "schauer": 7294,
      "stedt": 7295,
      "rett": 7296,
      "Ġ1916": 7297,
      "ĠBegriffe": 7298,
      "Ġparallel": 7299,
      "ĠHrsg": 7300,
      "ĠBened": 7301,
      "unsten": 7302,
      "ĠInnenstadt": 7303,
      "Ġerlaubt": 7304,
      "ĠVergangen": 7305,
      "ĠEthn": 7306,
      "Ġeingerichtet": 7307,
      "Ġneues": 7308,
      "ĠungefÃ¤hr": 7309,
      "Ġbelieb": 7310,
      "ĠEugen": 7311,
      "Ġweite": 7312,
      "ĠursprÃ¼nglichen": 7313,
      "ĠDÃ¤nemark": 7314,
      "able": 7315,
      "ĠKathar": 7316,
      "endung": 7317,
      "Ġspanischen": 7318,
      "ĠTrag": 7319,
      "dition": 7320,
      "weist": 7321,
      "Ġtheoret": 7322,
      "ĠPapier": 7323,
      "ĠErgebnisse": 7324,
      "ĠKonstruktion": 7325,
      "ĠKammer": 7326,
      "Ã¤mme": 7327,
      "ĠbenÃ¶tigt": 7328,
      "ĠWeiteren": 7329,
      "Ġgemeinsame": 7330,
      "mond": 7331,
      "Ġdur": 7332,
      "ĠSehensw": 7333,
      "dor": 7334,
      "ĠprÃ¤sent": 7335,
      "ĠMaximilian": 7336,
      "Ġmathemat": 7337,
      "etts": 7338,
      "ĠUrauffÃ¼hrung": 7339,
      "ĠKanton": 7340,
      "Ġko": 7341,
      "haften": 7342,
      "laf": 7343,
      "ĠFahrzeug": 7344,
      "Art": 7345,
      "Ġgenannte": 7346,
      "onstr": 7347,
      "ĠMarine": 7348,
      "Ġverstanden": 7349,
      "ĠWeltkriegs": 7350,
      "ĠJournal": 7351,
      "ĠhÃ¤lt": 7352,
      "AC": 7353,
      "zern": 7354,
      "Ġ1915": 7355,
      "ĠSchr": 7356,
      "sens": 7357,
      "Ã¼nden": 7358,
      "ĠMah": 7359,
      "mitteln": 7360,
      "Holstein": 7361,
      "ĠMi": 7362,
      "ĠWetter": 7363,
      "Ġ36": 7364,
      "Ġhe": 7365,
      "ĠDram": 7366,
      "Ġinfolge": 7367,
      "ĠSoph": 7368,
      "Ġbieten": 7369,
      "ĠLandkreises": 7370,
      "ston": 7371,
      "ĠWÃ¼rz": 7372,
      "Ġfallen": 7373,
      "Ġklar": 7374,
      "IC": 7375,
      "ĠLegen": 7376,
      "utsch": 7377,
      "Ã¤gypt": 7378,
      "alin": 7379,
      "van": 7380,
      "enntnisse": 7381,
      "ĠTurn": 7382,
      "flex": 7383,
      "gener": 7384,
      "ĠFÃ¶rder": 7385,
      "gesp": 7386,
      "witz": 7387,
      "ĠMis": 7388,
      "gewÃ¶hn": 7389,
      "Ġerlang": 7390,
      "Ã¤ler": 7391,
      "ippe": 7392,
      "Ġpr": 7393,
      "ommerz": 7394,
      "ĠWaren": 7395,
      "geschicht": 7396,
      "ĠNeur": 7397,
      "ĠBom": 7398,
      "umin": 7399,
      "ĠpreuÃŁischen": 7400,
      "deutschland": 7401,
      "Ġhoher": 7402,
      "brÃ¼": 7403,
      "musiker": 7404,
      "ĠMitgliedern": 7405,
      "ĠAustralien": 7406,
      "Ġheiratete": 7407,
      "ĠHaut": 7408,
      "felder": 7409,
      "Ã¶gel": 7410,
      "ĠBab": 7411,
      "Ġnachgewiesen": 7412,
      "Ã¼llen": 7413,
      "air": 7414,
      "Ð¾": 7415,
      "ĠStaates": 7416,
      "Ġfestgelegt": 7417,
      "une": 7418,
      "ĠlÃ¶": 7419,
      "Ã¤lde": 7420,
      "ĠKoalition": 7421,
      "ĠKongress": 7422,
      "ED": 7423,
      "itor": 7424,
      "eilung": 7425,
      "ĠNiederlage": 7426,
      "Ġgezeigt": 7427,
      "ĠBell": 7428,
      "ĠNationen": 7429,
      "greifen": 7430,
      "ĠFe": 7431,
      "ots": 7432,
      "SÃ¼d": 7433,
      "app": 7434,
      "hel": 7435,
      "ĠPremier": 7436,
      "Ġpubl": 7437,
      "Ġpolitisch": 7438,
      "ĠmilitÃ¤rischen": 7439,
      "aj": 7440,
      "Ġstren": 7441,
      "ĠRÃ¼ckkehr": 7442,
      "ku": 7443,
      "ĠStephan": 7444,
      "AN": 7445,
      "mol": 7446,
      "rock": 7447,
      "verbindungen": 7448,
      "ĠmÃ¶glicherweise": 7449,
      "ader": 7450,
      "ĠVaters": 7451,
      "stÃ¼cke": 7452,
      "ĠVereins": 7453,
      "ingung": 7454,
      "Ġzentrale": 7455,
      "ĠGenau": 7456,
      "Ġfreien": 7457,
      "kohol": 7458,
      "Ġitalienische": 7459,
      "ĠFormel": 7460,
      "ĠWeihn": 7461,
      "ĠMediziner": 7462,
      "ĠVerkauf": 7463,
      "baus": 7464,
      "ĠEishockey": 7465,
      "Ġmech": 7466,
      "ĠGewerk": 7467,
      "ĠModerne": 7468,
      "ugies": 7469,
      "ĠVariante": 7470,
      "Ġwissenschaftlichen": 7471,
      "ĠSalzburg": 7472,
      "Ġvorwiegend": 7473,
      "haben": 7474,
      "spf": 7475,
      "ĠBlatt": 7476,
      "ĠGedanken": 7477,
      "orthodox": 7478,
      "ĠKlassen": 7479,
      "ĠMerkmale": 7480,
      "oÃŁ": 7481,
      "gern": 7482,
      "Ġdeutschsprachigen": 7483,
      "Ġwirken": 7484,
      "vÃ¶lkerung": 7485,
      "aku": 7486,
      "Ġbesetzt": 7487,
      "chem": 7488,
      "ologischer": 7489,
      "Ġbeeinflusst": 7490,
      "Ġdigit": 7491,
      "ĠBem": 7492,
      "Ġetc": 7493,
      "geld": 7494,
      "Ġenglisch": 7495,
      "ĠBeschÃ¤ft": 7496,
      "ĠVenedig": 7497,
      "altete": 7498,
      "ĠToten": 7499,
      "Ġ1870": 7500,
      "ĠNiederlande": 7501,
      "fÃ¤llen": 7502,
      "Ġpost": 7503,
      "ĠFlucht": 7504,
      "essin": 7505,
      "skirche": 7506,
      "handlung": 7507,
      "ĠFeuerwehr": 7508,
      "Ġmanchen": 7509,
      "ĠWeber": 7510,
      "ĠVit": 7511,
      "Ġrest": 7512,
      "ĠUnternehmens": 7513,
      "ĠBruch": 7514,
      "ĠâĨĴ": 7515,
      "ĠFiguren": 7516,
      "ĠBefehl": 7517,
      "Ê¿": 7518,
      "ĠEinen": 7519,
      "archiv": 7520,
      ".).": 7521,
      "ĠBras": 7522,
      "ĠTerritor": 7523,
      "rafen": 7524,
      "05": 7525,
      "isieren": 7526,
      "Ġnutzen": 7527,
      "ĠRett": 7528,
      "etrie": 7529,
      "liegenden": 7530,
      "ĠSab": 7531,
      "isen": 7532,
      "ĠOster": 7533,
      "ĠArist": 7534,
      "anwalt": 7535,
      "Ġmass": 7536,
      "opt": 7537,
      "grÃ¶ÃŁe": 7538,
      "ĠCorn": 7539,
      "atter": 7540,
      "maÃŁen": 7541,
      "familie": 7542,
      "IP": 7543,
      "Ã¤ub": 7544,
      "isierten": 7545,
      "zunehmen": 7546,
      "igr": 7547,
      "Ãľber": 7548,
      "Ġwuchs": 7549,
      "ĠMem": 7550,
      "seh": 7551,
      "Ġverwenden": 7552,
      "ĠEbenfalls": 7553,
      "zep": 7554,
      "ĠUrsprung": 7555,
      "AR": 7556,
      "ĠAnne": 7557,
      "Ġjetzt": 7558,
      "skop": 7559,
      "ĠFernsehen": 7560,
      "ĠStrukturen": 7561,
      "hÃ¶he": 7562,
      "Bundes": 7563,
      "ĠDrittel": 7564,
      "ĠJud": 7565,
      "bÃ¼rgermeister": 7566,
      "ĠVeranstaltungen": 7567,
      "manns": 7568,
      "schafft": 7569,
      "ĠRÃ¶mischen": 7570,
      "col": 7571,
      "ĠLind": 7572,
      "DAP": 7573,
      "ĠPommern": 7574,
      "Ġderzeit": 7575,
      "ĠZoll": 7576,
      "Ġsprechen": 7577,
      "aufhin": 7578,
      "tal": 7579,
      "zellen": 7580,
      "Ġglau": 7581,
      "ĠSchritt": 7582,
      "weichen": 7583,
      "ĠNiedersachsen": 7584,
      "antas": 7585,
      "Ġendet": 7586,
      "Ġabgeb": 7587,
      "yle": 7588,
      "ĠGefangen": 7589,
      "demokrat": 7590,
      "rolle": 7591,
      "oslaw": 7592,
      "ĠBrÃ¼der": 7593,
      "einde": 7594,
      "umpf": 7595,
      "ĠStiftung": 7596,
      "ĠNikolaus": 7597,
      "ĠOpen": 7598,
      "Stadt": 7599,
      "partner": 7600,
      "Ġverantwortlich": 7601,
      "erien": 7602,
      "Äį": 7603,
      "orient": 7604,
      "ĠGatt": 7605,
      "ĠMÃ¶glichkeiten": 7606,
      "weiht": 7607,
      "hamm": 7608,
      "Ġausger": 7609,
      "Ġanerkannt": 7610,
      "ĠMach": 7611,
      "ĠBlÃ¼ten": 7612,
      "Ġag": 7613,
      "Ġverkauft": 7614,
      "Ġgewinnen": 7615,
      "ĠBekannt": 7616,
      "ĠErklÃ¤rung": 7617,
      "Ġkurze": 7618,
      "onenten": 7619,
      "Ġwechsel": 7620,
      "ĠTrieb": 7621,
      "cl": 7622,
      "ĠBesatzungs": 7623,
      "ips": 7624,
      "bildungs": 7625,
      "Ġproduziert": 7626,
      "Ġmein": 7627,
      "anni": 7628,
      "ĠKonflik": 7629,
      "ĠWasserstoff": 7630,
      "Ġkirch": 7631,
      "ĠerhÃ¶ht": 7632,
      "sprechend": 7633,
      "Gem": 7634,
      "Ġwid": 7635,
      "Ġkatholische": 7636,
      "Ġrot": 7637,
      "ĠTanz": 7638,
      "entin": 7639,
      "ĠSebast": 7640,
      "samkeit": 7641,
      "kopf": 7642,
      "eise": 7643,
      "Ġeinerseits": 7644,
      "Ġbeginnen": 7645,
      "ĠEbenso": 7646,
      "ags": 7647,
      "ĠKonkur": 7648,
      "ĠTeilchen": 7649,
      "Ġschwier": 7650,
      "ĠRenaissance": 7651,
      "ĠbÃ¼rger": 7652,
      "ĠWash": 7653,
      "Ġnannte": 7654,
      "ĠPrag": 7655,
      "ĠAusbau": 7656,
      "Ã§ois": 7657,
      "ĠberÃ¼cksicht": 7658,
      "ikum": 7659,
      "ĠErzÃ¤hl": 7660,
      "ĠVergangenheit": 7661,
      "pon": 7662,
      "ĠSchiffe": 7663,
      "Ġkosten": 7664,
      "Ġzugeordnet": 7665,
      "ries": 7666,
      "imeter": 7667,
      "Ġwichtigen": 7668,
      "Ġernannt": 7669,
      "ĠVerz": 7670,
      "ĠLas": 7671,
      "ĠNorth": 7672,
      "rÃ¤uch": 7673,
      "ĠAussage": 7674,
      "mir": 7675,
      "heoret": 7676,
      "zell": 7677,
      "..": 7678,
      "ĠMecklenburg": 7679,
      "ĠUmfang": 7680,
      "ĠVari": 7681,
      "ĠnÃ¶t": 7682,
      "Ġprotest": 7683,
      "ĠTemp": 7684,
      "ĠermÃ¶glichen": 7685,
      "ĠDennoch": 7686,
      "ĠjÃ¼dische": 7687,
      "tement": 7688,
      "Ġbildeten": 7689,
      "Ð°": 7690,
      "ero": 7691,
      "ĠElektronen": 7692,
      "100": 7693,
      "Ġmin": 7694,
      "ĠPre": 7695,
      "endete": 7696,
      "ĠExempl": 7697,
      "Ġ1898": 7698,
      "ĠHaft": 7699,
      "Ġitalienischen": 7700,
      "ĠendgÃ¼ltig": 7701,
      "urb": 7702,
      "ĠDiv": 7703,
      "ebene": 7704,
      "ĠSonn": 7705,
      "ĠMinisterprÃ¤sident": 7706,
      "ĠWÃ¼r": 7707,
      "iertes": 7708,
      "ĠFlÃ¼gel": 7709,
      "spielerin": 7710,
      "ĠWahlen": 7711,
      "Ġeiniger": 7712,
      "Ġrom": 7713,
      "alender": 7714,
      "Ġ%)": 7715,
      "ĠverlÃ¤uft": 7716,
      "ĠPau": 7717,
      "ĠAnsicht": 7718,
      "ĠErkrank": 7719,
      "Ġgelegentlich": 7720,
      "modell": 7721,
      "ĠViertel": 7722,
      "ĠHerzogtum": 7723,
      "strecken": 7724,
      "Ġhierbei": 7725,
      "ĠHamburger": 7726,
      "igitalisat": 7727,
      "Ġ1897": 7728,
      "kul": 7729,
      "aux": 7730,
      "Ġgesetzt": 7731,
      "ĠFrequenz": 7732,
      "ĠAuffassung": 7733,
      "ĠbestÃ¤tigt": 7734,
      "bestand": 7735,
      "glas": 7736,
      "Ġbesetz": 7737,
      "streit": 7738,
      "bilder": 7739,
      "iffen": 7740,
      "yk": 7741,
      "rÃ¼st": 7742,
      "ĠTÃ¶": 7743,
      "ĠgÃ¼lt": 7744,
      "Ġost": 7745,
      "Ġsofort": 7746,
      "haf": 7747,
      "sprozess": 7748,
      "gegangen": 7749,
      "ĠHenn": 7750,
      "uste": 7751,
      "ĠBack": 7752,
      "ĠMars": 7753,
      "ĠFo": 7754,
      "ĠkÃ¶nnten": 7755,
      "ĠNomin": 7756,
      "ĠWesentlichen": 7757,
      "quelle": 7758,
      "Ġargentin": 7759,
      "Ġermor": 7760,
      "ĠRod": 7761,
      "ĠLebensmittel": 7762,
      "Ġwichtiger": 7763,
      "Ġwichtigste": 7764,
      "ĠGau": 7765,
      "ĠSicherheits": 7766,
      "ĠLos": 7767,
      "Ġenth": 7768,
      "fÃ¼rsten": 7769,
      "systeme": 7770,
      "analyse": 7771,
      "ĠZit": 7772,
      "ĠKÃ¼ste": 7773,
      "bindung": 7774,
      "Ġfehl": 7775,
      "igital": 7776,
      "iw": 7777,
      "Ġvari": 7778,
      "opol": 7779,
      "ĠVerÃ¤nderungen": 7780,
      "immungen": 7781,
      "ĠAcadem": 7782,
      "erische": 7783,
      "Ã¤tzt": 7784,
      "bezeichnung": 7785,
      "ĠVerantwort": 7786,
      "Ġjunge": 7787,
      "Ã©r": 7788,
      "ĠTennis": 7789,
      "ĠNull": 7790,
      "ova": 7791,
      "ĠVermÃ¶gen": 7792,
      "ĠBlock": 7793,
      "wÃ¤l": 7794,
      "ring": 7795,
      "ĠCro": 7796,
      "Ġdiskut": 7797,
      "eton": 7798,
      "ĠFlag": 7799,
      "Ġ1896": 7800,
      "bauen": 7801,
      "ĠMolek": 7802,
      "ĠBan": 7803,
      "uft": 7804,
      "Ġkonzentr": 7805,
      "ĠOrganisationen": 7806,
      "ĠreprÃ¤sent": 7807,
      "Ġreform": 7808,
      "ĠSchwester": 7809,
      "yzantin": 7810,
      "ĠCent": 7811,
      "ĠDrehbuchautor": 7812,
      "zustand": 7813,
      "ĠRheinland": 7814,
      "ĠergÃ¤n": 7815,
      "ĠBeitrag": 7816,
      "maschinen": 7817,
      "ianischen": 7818,
      "Ġweshalb": 7819,
      "kreise": 7820,
      "zn": 7821,
      "ĠSau": 7822,
      "Ġspeziell": 7823,
      "europa": 7824,
      "pir": 7825,
      "Ġschrift": 7826,
      "ĠInternationalen": 7827,
      "ĠBrÃ¼cke": 7828,
      "ĠAnalyse": 7829,
      "Ġeigentlich": 7830,
      "Ġdennoch": 7831,
      "Ġgetrennt": 7832,
      "ĠWicht": 7833,
      "ĠPhÃ¤nomen": 7834,
      "ĠHeide": 7835,
      "ĠSav": 7836,
      "Ġberichtet": 7837,
      "Ġautomat": 7838,
      "Ġwirk": 7839,
      "Ġ1895": 7840,
      "prozess": 7841,
      "lehnung": 7842,
      "Ġbeschlossen": 7843,
      "ĠunterstÃ¼tz": 7844,
      "Ġschweren": 7845,
      "worfen": 7846,
      "sprachige": 7847,
      "ĠFahrzeuge": 7848,
      "Ġbehandelt": 7849,
      "Ġanhand": 7850,
      "vo": 7851,
      "ĠPor": 7852,
      "zens": 7853,
      "ĠLandschafts": 7854,
      "Ġnahmen": 7855,
      "orbenen": 7856,
      "franzÃ¶s": 7857,
      "oe": 7858,
      "Ġgute": 7859,
      "ĠMetrop": 7860,
      "ĠSehenswÃ¼rd": 7861,
      "elen": 7862,
      "ÃŁig": 7863,
      "ĠAnlagen": 7864,
      "ĠBewohner": 7865,
      "Ã«": 7866,
      "VP": 7867,
      "Ġpass": 7868,
      "2000": 7869,
      "ĠEssen": 7870,
      "azin": 7871,
      "ĠMes": 7872,
      "gers": 7873,
      "ĠUt": 7874,
      "aar": 7875,
      "Ġverwendeten": 7876,
      "ĠDok": 7877,
      "ĠMÃ¤dchen": 7878,
      "rocken": 7879,
      "ĠDurchschnitt": 7880,
      "ĠAstronom": 7881,
      "sender": 7882,
      "ĠReformation": 7883,
      "Ġfolgender": 7884,
      "fabrik": 7885,
      "hten": 7886,
      "ĠHorn": 7887,
      "klasse": 7888,
      "ĠDortmund": 7889,
      "Ne": 7890,
      "Ã¼ndet": 7891,
      "sm": 7892,
      "schlÃ¼sse": 7893,
      "ĠSiedlungs": 7894,
      "rafe": 7895,
      "ĠSchluss": 7896,
      "ĠQuer": 7897,
      "ĠEhefrau": 7898,
      "scheinlichkeit": 7899,
      "artigen": 7900,
      "emin": 7901,
      "bevÃ¶lkerung": 7902,
      "ĠOberflÃ¤che": 7903,
      "ĠMeinung": 7904,
      "Ġschott": 7905,
      "ĠDemokratie": 7906,
      "ĠAx": 7907,
      "ĠDenken": 7908,
      "Syn": 7909,
      "oment": 7910,
      "ĠGeschichts": 7911,
      "ordens": 7912,
      "stitute": 7913,
      "ittelt": 7914,
      "ĠRoll": 7915,
      "ĠSchott": 7916,
      "Ã¤ufer": 7917,
      "Ã±": 7918,
      "ĠRam": 7919,
      "Ġeinzigen": 7920,
      "ĠNie": 7921,
      "waffen": 7922,
      "Ġter": 7923,
      "maschine": 7924,
      "ĠEhrenbÃ¼rger": 7925,
      "Ġerscheinen": 7926,
      "Ġtraditionellen": 7927,
      "entwick": 7928,
      "ĠSpitze": 7929,
      "dauer": 7930,
      "ĠCast": 7931,
      "ĠKoordin": 7932,
      "ĠGiov": 7933,
      "Ġendete": 7934,
      "ĠMoskau": 7935,
      "IV": 7936,
      "klar": 7937,
      "Ġtechnischen": 7938,
      "strahlung": 7939,
      "ĠGÃ¼nter": 7940,
      "Ġgespielt": 7941,
      "Ġportugies": 7942,
      "oid": 7943,
      "sprecher": 7944,
      "SPD": 7945,
      "ĠOrchester": 7946,
      "griff": 7947,
      "gehÃ¶rigkeit": 7948,
      "ĠChl": 7949,
      "ĠAnerkennung": 7950,
      "Ġ1880": 7951,
      "ĠSignal": 7952,
      "stoffen": 7953,
      "schafter": 7954,
      "werten": 7955,
      "ĠAussagen": 7956,
      "ĠPortrÃ¤t": 7957,
      "lichem": 7958,
      "ĠBasket": 7959,
      "ĠCarol": 7960,
      "pression": 7961,
      "ĠOpposition": 7962,
      "ĠFront": 7963,
      "ĠNicol": 7964,
      "mannschaft": 7965,
      "auff": 7966,
      "Ġkreis": 7967,
      "El": 7968,
      "Lin": 7969,
      "ĠMuseen": 7970,
      "Ġangelegt": 7971,
      "ĠFunk": 7972,
      "maÃŁnahmen": 7973,
      "ĠPfarrer": 7974,
      "Ġ600": 7975,
      "ĠMichel": 7976,
      "aker": 7977,
      "Ġantiken": 7978,
      "Ġerb": 7979,
      "ĠSaar": 7980,
      "freie": 7981,
      "ĠBraun": 7982,
      "ĠnatÃ¼rlichen": 7983,
      "Ġeingeb": 7984,
      "ĠUkraine": 7985,
      "ĠHub": 7986,
      "ĠMagnet": 7987,
      "ĠMauer": 7988,
      "ĠVerleger": 7989,
      "ĠInhalt": 7990,
      "ierend": 7991,
      "oxid": 7992,
      "Ġerforderlich": 7993,
      "ĠObjekte": 7994,
      "Ġausgestat": 7995,
      "Ã¶rg": 7996,
      "Ġweisen": 7997,
      "spir": 7998,
      "ĠAufstand": 7999,
      "Ġspezielle": 8000,
      "spannung": 8001,
      "178": 8002,
      "ĠHav": 8003,
      "Ġtrans": 8004,
      "ĠBlack": 8005,
      "ĠScha": 8006,
      "ĠSystems": 8007,
      "ĠGleichzeitig": 8008,
      "icro": 8009,
      "plÃ¤tze": 8010,
      "ĠOpt": 8011,
      "ĠGrafschaft": 8012,
      "ĠBetriebssystem": 8013,
      "ĠMang": 8014,
      "blÃ¤tter": 8015,
      "Ġ1871": 8016,
      "ĠWik": 8017,
      "ĠzustÃ¤ndig": 8018,
      "Ġstabil": 8019,
      "halter": 8020,
      "ĠaufgelÃ¶st": 8021,
      "gefÃ¼": 8022,
      "uchten": 8023,
      "ĠTerror": 8024,
      "ĠProvinzen": 8025,
      "ĠSankt": 8026,
      "hart": 8027,
      "empf": 8028,
      "ĠGrÃ¼nd": 8029,
      "ziger": 8030,
      "rachen": 8031,
      "nicht": 8032,
      "So": 8033,
      "ileg": 8034,
      "ĠBetracht": 8035,
      "ĠmilitÃ¤rische": 8036,
      "ĠUniversitÃ¤ten": 8037,
      "ĠAmerika": 8038,
      "got": 8039,
      "steigen": 8040,
      "usk": 8041,
      "these": 8042,
      "ĠverstÃ¤rkt": 8043,
      "Ġ75": 8044,
      "ĠZusatz": 8045,
      "Ġallgemeine": 8046,
      "Ġletzter": 8047,
      "ĠUrsache": 8048,
      "inett": 8049,
      "ĠlÃ¤ng": 8050,
      "asilian": 8051,
      "pal": 8052,
      "Ġdat": 8053,
      "Ġsinn": 8054,
      "ĠKlin": 8055,
      "mitglied": 8056,
      "Ġheim": 8057,
      "ehrten": 8058,
      "station": 8059,
      "Ġgrundle": 8060,
      "Le": 8061,
      "oi": 8062,
      "itekten": 8063,
      "ĠFranzosen": 8064,
      "ĠKontinent": 8065,
      "Ã¤hlten": 8066,
      "Ġentwickeln": 8067,
      "Ġgeringen": 8068,
      "ementen": 8069,
      "ĠDra": 8070,
      "ĠHistorische": 8071,
      "ĠDialekt": 8072,
      "Vers": 8073,
      "cen": 8074,
      "owitsch": 8075,
      "minist": 8076,
      "ĠAtlant": 8077,
      "ĠHÃ¶ch": 8078,
      "sex": 8079,
      "Ã¶die": 8080,
      "euert": 8081,
      "ĠAufstieg": 8082,
      "duktion": 8083,
      "Ã¤rung": 8084,
      "wies": 8085,
      "ĠMagde": 8086,
      "ĠHierbei": 8087,
      "ĠMonaten": 8088,
      "kosten": 8089,
      "ava": 8090,
      "ĠInterview": 8091,
      "ĠPortugal": 8092,
      "ĠSmith": 8093,
      "flÃ¼sse": 8094,
      "Ġbegannen": 8095,
      "iologie": 8096,
      "ĠBord": 8097,
      "ĠPunkte": 8098,
      "ruhe": 8099,
      "bie": 8100,
      "vorg": 8101,
      "atisch": 8102,
      "auss": 8103,
      "ĠVorstellung": 8104,
      "ĠHeb": 8105,
      "Ġdemokrat": 8106,
      "ĠFas": 8107,
      "Ġ(,": 8108,
      "wege": 8109,
      "liste": 8110,
      "Ġevangelisch": 8111,
      "ĠCre": 8112,
      "ĠHandlung": 8113,
      "rund": 8114,
      "ometr": 8115,
      "Ġ34": 8116,
      "deutscher": 8117,
      "heil": 8118,
      "beam": 8119,
      "Ġricht": 8120,
      "Ġspezif": 8121,
      "ĠSklaven": 8122,
      "Ã¤rm": 8123,
      "ĠpreuÃŁischer": 8124,
      "ĠWinkel": 8125,
      "Ġluther": 8126,
      "ĠPlaneten": 8127,
      "griffen": 8128,
      "ĠMagn": 8129,
      "Ġphysikal": 8130,
      "quenzen": 8131,
      "ĠSamuel": 8132,
      "odes": 8133,
      "ĠverfÃ¼g": 8134,
      "hau": 8135,
      "rÃ¶": 8136,
      "ĠBÃ¼ndnis": 8137,
      "ĠGa": 8138,
      "ĠChristus": 8139,
      "ĠRadrennfahrer": 8140,
      "ĠWashington": 8141,
      "ipl": 8142,
      "jor": 8143,
      "Ġversehen": 8144,
      "ues": 8145,
      "ĠTsch": 8146,
      "ĠHeft": 8147,
      "ĠGrÃ¶ÃŁen": 8148,
      "gekehrt": 8149,
      "Ġ130": 8150,
      "ged": 8151,
      "orgt": 8152,
      "Ã¼ng": 8153,
      "ĠReligions": 8154,
      "ĠCaes": 8155,
      "Gesellschaft": 8156,
      "Ġ38": 8157,
      "olt": 8158,
      "kÃ¼ste": 8159,
      "ĠAnmerk": 8160,
      "Ã¤ngnis": 8161,
      "iot": 8162,
      "ionier": 8163,
      "ĠverÃ¤ndert": 8164,
      "ĠeinschlieÃŁlich": 8165,
      "ĠKie": 8166,
      "ĠErkenntnis": 8167,
      "ĠEroberung": 8168,
      "ĠBox": 8169,
      "schiffe": 8170,
      "ĠSehenswÃ¼rdigkeiten": 8171,
      "platten": 8172,
      "Ġsorg": 8173,
      "ĠRol": 8174,
      "ĠGlÃ¼ck": 8175,
      "einheiten": 8176,
      "ilber": 8177,
      "lieferung": 8178,
      "irol": 8179,
      "rauen": 8180,
      "ĠFle": 8181,
      "ĠGewerbe": 8182,
      "ĠWiederauf": 8183,
      "ĠJesus": 8184,
      "ĠHÃ¤user": 8185,
      "Ġnationalen": 8186,
      "ĠVerlags": 8187,
      "kÃ¶nig": 8188,
      "ĠFÃ¶rderung": 8189,
      "CS": 8190,
      "icus": 8191
    },
    "merges": [
      [
        "e",
        "r"
      ],
      [
        "e",
        "n"
      ],
      [
        "c",
        "h"
      ],
      [
        "Ġ",
        "d"
      ],
      [
        "e",
        "i"
      ],
      [
        "u",
        "n"
      ],
      [
        "i",
        "e"
      ],
      [
        "s",
        "t"
      ],
      [
        "a",
        "n"
      ],
      [
        "i",
        "n"
      ],
      [
        "s",
        "ch"
      ],
      [
        "o",
        "n"
      ],
      [
        "Ġ",
        "S"
      ],
      [
        "e",
        "s"
      ],
      [
        "a",
        "l"
      ],
      [
        "ei",
        "n"
      ],
      [
        "un",
        "d"
      ],
      [
        "a",
        "u"
      ],
      [
        "Ġd",
        "er"
      ],
      [
        "e",
        "l"
      ],
      [
        "Ã",
        "¤"
      ],
      [
        "Ã",
        "¼"
      ],
      [
        "a",
        "r"
      ],
      [
        "i",
        "ch"
      ],
      [
        "i",
        "t"
      ],
      [
        "Ġ",
        "A"
      ],
      [
        "Ġ",
        "w"
      ],
      [
        "u",
        "r"
      ],
      [
        "g",
        "e"
      ],
      [
        "t",
        "e"
      ],
      [
        "Ġ",
        "v"
      ],
      [
        "o",
        "r"
      ],
      [
        "un",
        "g"
      ],
      [
        "Ġ",
        "B"
      ],
      [
        "Ġ",
        "und"
      ],
      [
        "Ġ",
        "D"
      ],
      [
        "Ġ",
        "s"
      ],
      [
        "Ġd",
        "ie"
      ],
      [
        "a",
        "t"
      ],
      [
        "Ġ",
        "Ċ"
      ],
      [
        "Ġ",
        "1"
      ],
      [
        "Ġ",
        "M"
      ],
      [
        "i",
        "sch"
      ],
      [
        "Ġ",
        "b"
      ],
      [
        "e",
        "m"
      ],
      [
        "Ġ",
        "ein"
      ],
      [
        "a",
        "s"
      ],
      [
        "Ġ",
        "K"
      ],
      [
        "t",
        "en"
      ],
      [
        "h",
        "r"
      ],
      [
        "Ġ",
        "E"
      ],
      [
        "Ġ",
        "G"
      ],
      [
        "Ġ",
        "z"
      ],
      [
        "Ġ",
        "in"
      ],
      [
        "Ġ",
        "F"
      ],
      [
        "Ġ",
        "("
      ],
      [
        "t",
        "er"
      ],
      [
        "Ġ",
        "P"
      ],
      [
        "g",
        "en"
      ],
      [
        "o",
        "l"
      ],
      [
        "Ġ",
        "i"
      ],
      [
        "d",
        "e"
      ],
      [
        "Ġ",
        "au"
      ],
      [
        "â",
        "Ģ"
      ],
      [
        "Ã",
        "¶"
      ],
      [
        "d",
        "er"
      ],
      [
        "d",
        "en"
      ],
      [
        "a",
        "m"
      ],
      [
        "Ġ",
        "H"
      ],
      [
        "Ġ",
        "m"
      ],
      [
        "Ġ",
        "W"
      ],
      [
        "Ġ",
        "R"
      ],
      [
        "i",
        "s"
      ],
      [
        "b",
        "er"
      ],
      [
        "Ġ",
        "n"
      ],
      [
        "Ġ",
        "L"
      ],
      [
        "e",
        "t"
      ],
      [
        "Ġ",
        "T"
      ],
      [
        "Ġv",
        "on"
      ],
      [
        "Ġ",
        "I"
      ],
      [
        "a",
        "ch"
      ],
      [
        "u",
        "s"
      ],
      [
        "Ġ",
        "V"
      ],
      [
        "Ġ",
        "f"
      ],
      [
        "i",
        "l"
      ],
      [
        "l",
        "ich"
      ],
      [
        "i",
        "g"
      ],
      [
        "u",
        "m"
      ],
      [
        "u",
        "t"
      ],
      [
        "Ġ",
        "N"
      ],
      [
        "Ġ",
        "J"
      ],
      [
        "Ġ1",
        "9"
      ],
      [
        "an",
        "d"
      ],
      [
        "ei",
        "t"
      ],
      [
        "i",
        "on"
      ],
      [
        "i",
        "er"
      ],
      [
        "Ġ",
        "er"
      ],
      [
        "o",
        "m"
      ],
      [
        "l",
        "e"
      ],
      [
        "r",
        "e"
      ],
      [
        "Ġd",
        "en"
      ],
      [
        "Ġ",
        "h"
      ],
      [
        "Ġd",
        "es"
      ],
      [
        "Ġ",
        "2"
      ],
      [
        "i",
        "k"
      ],
      [
        "ĠS",
        "t"
      ],
      [
        "Ġ",
        "k"
      ],
      [
        "Ã¼",
        "r"
      ],
      [
        "r",
        "a"
      ],
      [
        "r",
        "o"
      ],
      [
        "Ġ",
        "al"
      ],
      [
        "en",
        "t"
      ],
      [
        "i",
        "r"
      ],
      [
        "Ã",
        "Ł"
      ],
      [
        "c",
        "k"
      ],
      [
        "r",
        "ei"
      ],
      [
        "Ġd",
        "as"
      ],
      [
        "Ġ",
        "g"
      ],
      [
        "a",
        "b"
      ],
      [
        "Ġ",
        "ge"
      ],
      [
        "f",
        "t"
      ],
      [
        "Ġm",
        "it"
      ],
      [
        "Ġ",
        "C"
      ],
      [
        "isch",
        "en"
      ],
      [
        "Ġ",
        "Z"
      ],
      [
        "ĠD",
        "ie"
      ],
      [
        "Ġi",
        "m"
      ],
      [
        "Ġ",
        "an"
      ],
      [
        "s",
        "e"
      ],
      [
        "ĠS",
        "ch"
      ],
      [
        "k",
        "t"
      ],
      [
        "Ġz",
        "u"
      ],
      [
        "Ġv",
        "er"
      ],
      [
        "Ġ",
        "âĢ"
      ],
      [
        "s",
        "en"
      ],
      [
        "Ġ",
        "U"
      ],
      [
        "an",
        "n"
      ],
      [
        "Ġb",
        "e"
      ],
      [
        "el",
        "l"
      ],
      [
        "Ġau",
        "f"
      ],
      [
        "Ġ",
        "O"
      ],
      [
        "a",
        "hr"
      ],
      [
        "s",
        "p"
      ],
      [
        "b",
        "en"
      ],
      [
        "ich",
        "t"
      ],
      [
        "ĠV",
        "er"
      ],
      [
        "ĠI",
        "n"
      ],
      [
        "0",
        "0"
      ],
      [
        "i",
        "st"
      ],
      [
        "a",
        "h"
      ],
      [
        "Ġd",
        "em"
      ],
      [
        "f",
        "f"
      ],
      [
        "Ġal",
        "s"
      ],
      [
        "Ġw",
        "ur"
      ],
      [
        "Ġ",
        "o"
      ],
      [
        "Ã¤",
        "n"
      ],
      [
        "ie",
        "l"
      ],
      [
        "i",
        "en"
      ],
      [
        "a",
        "d"
      ],
      [
        "isch",
        "e"
      ],
      [
        "e",
        "h"
      ],
      [
        "w",
        "ei"
      ],
      [
        "g",
        "er"
      ],
      [
        "Ġi",
        "st"
      ],
      [
        "Ġf",
        "Ã¼r"
      ],
      [
        "e",
        "ut"
      ],
      [
        "Ġau",
        "s"
      ],
      [
        "Ġs",
        "ich"
      ],
      [
        "ei",
        "ch"
      ],
      [
        "Ġein",
        "e"
      ],
      [
        "m",
        "en"
      ],
      [
        "ĠA",
        "n"
      ],
      [
        "h",
        "e"
      ],
      [
        "ĠG",
        "e"
      ],
      [
        "u",
        "l"
      ],
      [
        "v",
        "er"
      ],
      [
        "r",
        "ie"
      ],
      [
        "ung",
        "en"
      ],
      [
        "Ġ",
        "l"
      ],
      [
        "r",
        "i"
      ],
      [
        "e",
        "g"
      ],
      [
        "at",
        "ion"
      ],
      [
        "sch",
        "a"
      ],
      [
        "Ġ",
        "un"
      ],
      [
        "isch",
        "er"
      ],
      [
        "e",
        "u"
      ],
      [
        "a",
        "g"
      ],
      [
        "o",
        "t"
      ],
      [
        "eut",
        "sch"
      ],
      [
        "ĠE",
        "r"
      ],
      [
        "o",
        "s"
      ],
      [
        "âĢ",
        "ľ"
      ],
      [
        "ĠE",
        "in"
      ],
      [
        "ur",
        "ch"
      ],
      [
        "er",
        "n"
      ],
      [
        "ei",
        "l"
      ],
      [
        "Ġwur",
        "de"
      ],
      [
        "Ġb",
        "ei"
      ],
      [
        "Ã¼",
        "n"
      ],
      [
        "r",
        "u"
      ],
      [
        "in",
        "d"
      ],
      [
        "ĠA",
        "u"
      ],
      [
        "Ã¼",
        "ber"
      ],
      [
        "ĠJ",
        "ahr"
      ],
      [
        "o",
        "ch"
      ],
      [
        "ĠâĢ",
        "ŀ"
      ],
      [
        "e",
        "st"
      ],
      [
        "Ġs",
        "ein"
      ],
      [
        "Ġ",
        "st"
      ],
      [
        "r",
        "an"
      ],
      [
        "Ġau",
        "ch"
      ],
      [
        "e",
        "hr"
      ],
      [
        "et",
        "z"
      ],
      [
        "h",
        "n"
      ],
      [
        ")",
        ","
      ],
      [
        "o",
        "p"
      ],
      [
        "Ġ",
        "p"
      ],
      [
        "ung",
        "s"
      ],
      [
        "i",
        "m"
      ],
      [
        "o",
        "g"
      ],
      [
        "Ġw",
        "ar"
      ],
      [
        "e",
        "d"
      ],
      [
        "Ġn",
        "ach"
      ],
      [
        "Ġ",
        "t"
      ],
      [
        "an",
        "g"
      ],
      [
        "Ġ2",
        "0"
      ],
      [
        "Ġw",
        "ir"
      ],
      [
        "al",
        "l"
      ],
      [
        "Ġ",
        "Ã¼ber"
      ],
      [
        "scha",
        "ft"
      ],
      [
        "Ġ1",
        "8"
      ],
      [
        "Ġd",
        "urch"
      ],
      [
        "st",
        "en"
      ],
      [
        "er",
        "t"
      ],
      [
        "in",
        "g"
      ],
      [
        "i",
        "gen"
      ],
      [
        "Ġw",
        "er"
      ],
      [
        "Ã¤",
        "t"
      ],
      [
        "ch",
        "en"
      ],
      [
        "i",
        "v"
      ],
      [
        "Ã¤",
        "r"
      ],
      [
        "ĠB",
        "e"
      ],
      [
        "ĠA",
        "l"
      ],
      [
        "or",
        "t"
      ],
      [
        "Ġwer",
        "den"
      ],
      [
        "s",
        "er"
      ],
      [
        "l",
        "er"
      ],
      [
        "ĠS",
        "p"
      ],
      [
        "Ġs",
        "o"
      ],
      [
        "Ġwir",
        "d"
      ],
      [
        "ch",
        "t"
      ],
      [
        "Ġein",
        "er"
      ],
      [
        "Ġo",
        "der"
      ],
      [
        "ĠD",
        "er"
      ],
      [
        "ĠU",
        "n"
      ],
      [
        "Ã¶",
        "r"
      ],
      [
        "Ġun",
        "ter"
      ],
      [
        "ĠA",
        "r"
      ],
      [
        "Ġn",
        "icht"
      ],
      [
        "r",
        "Ã¤"
      ],
      [
        "Ġz",
        "ur"
      ],
      [
        "en",
        "d"
      ],
      [
        "l",
        "ie"
      ],
      [
        "st",
        "er"
      ],
      [
        "l",
        "a"
      ],
      [
        "Ġ",
        "j"
      ],
      [
        "Ġ",
        "3"
      ],
      [
        "Ġ",
        "um"
      ],
      [
        "Ġb",
        "is"
      ],
      [
        "Ġv",
        "or"
      ],
      [
        "âĢ",
        "ĵ"
      ],
      [
        "st",
        "ell"
      ],
      [
        "ar",
        "t"
      ],
      [
        "Ã¶",
        "n"
      ],
      [
        "ad",
        "t"
      ],
      [
        "Ġd",
        "eutsch"
      ],
      [
        "Ġ",
        "ent"
      ],
      [
        "au",
        "s"
      ],
      [
        "Ġ2",
        "00"
      ],
      [
        "ĠE",
        "n"
      ],
      [
        "Ġ",
        "sch"
      ],
      [
        "Ġw",
        "ie"
      ],
      [
        "Ġs",
        "ind"
      ],
      [
        "n",
        "en"
      ],
      [
        "ĠâĢ",
        "ĵ"
      ],
      [
        "i",
        "ge"
      ],
      [
        "Ġ",
        "Ã"
      ],
      [
        "lich",
        "en"
      ],
      [
        "Ġ",
        "am"
      ],
      [
        "b",
        "e"
      ],
      [
        "h",
        "l"
      ],
      [
        "Ġz",
        "um"
      ],
      [
        "p",
        "p"
      ],
      [
        "h",
        "al"
      ],
      [
        "it",
        "t"
      ],
      [
        "1",
        "9"
      ],
      [
        "ĠR",
        "e"
      ],
      [
        "el",
        "t"
      ],
      [
        "st",
        "e"
      ],
      [
        "ol",
        "l"
      ],
      [
        "Ã¼",
        "hr"
      ],
      [
        "Ġ",
        "es"
      ],
      [
        "h",
        "er"
      ],
      [
        "ier",
        "t"
      ],
      [
        "Ġs",
        "ie"
      ],
      [
        ")",
        "."
      ],
      [
        "b",
        "l"
      ],
      [
        "g",
        "r"
      ],
      [
        "en",
        "n"
      ],
      [
        "Ġ",
        "ab"
      ],
      [
        "er",
        "k"
      ],
      [
        "lich",
        "e"
      ],
      [
        "Ġi",
        "hr"
      ],
      [
        "sp",
        "iel"
      ],
      [
        "l",
        "and"
      ],
      [
        "ah",
        "l"
      ],
      [
        "ĠP",
        "ro"
      ],
      [
        "rei",
        "ch"
      ],
      [
        "ĠA",
        "us"
      ],
      [
        "z",
        "en"
      ],
      [
        "Ġ",
        "a"
      ],
      [
        "Ġh",
        "at"
      ],
      [
        "ge",
        "b"
      ],
      [
        "m",
        "er"
      ],
      [
        "o",
        "d"
      ],
      [
        "i",
        "c"
      ],
      [
        "Ġein",
        "em"
      ],
      [
        "b",
        "ur"
      ],
      [
        "or",
        "m"
      ],
      [
        "ei",
        "ter"
      ],
      [
        "z",
        "u"
      ],
      [
        "u",
        "ch"
      ],
      [
        "ĠA",
        "b"
      ],
      [
        "ĠB",
        "er"
      ],
      [
        "Ã¼",
        "ck"
      ],
      [
        "ĠI",
        "m"
      ],
      [
        "e",
        "ben"
      ],
      [
        "or",
        "d"
      ],
      [
        "te",
        "t"
      ],
      [
        "g",
        "t"
      ],
      [
        "Ġ20",
        "1"
      ],
      [
        "ĠD",
        "as"
      ],
      [
        "g",
        "el"
      ],
      [
        "a",
        "p"
      ],
      [
        "n",
        "e"
      ],
      [
        "de",
        "t"
      ],
      [
        "ĠM",
        "a"
      ],
      [
        "Ġdas",
        "s"
      ],
      [
        "r",
        "ach"
      ],
      [
        "as",
        "s"
      ],
      [
        "Ġs",
        "p"
      ],
      [
        "er",
        "s"
      ],
      [
        "ĠG",
        "r"
      ],
      [
        "r",
        "it"
      ],
      [
        "g",
        "es"
      ],
      [
        "l",
        "in"
      ],
      [
        "us",
        "s"
      ],
      [
        "h",
        "en"
      ],
      [
        "i",
        "z"
      ],
      [
        "ĠSt",
        "adt"
      ],
      [
        "p",
        "t"
      ],
      [
        "p",
        "f"
      ],
      [
        "au",
        "f"
      ],
      [
        "Ã¤",
        "l"
      ],
      [
        "es",
        "s"
      ],
      [
        "Ġein",
        "en"
      ],
      [
        "ter",
        "n"
      ],
      [
        "Ġ",
        "r"
      ],
      [
        "an",
        "t"
      ],
      [
        "i",
        "d"
      ],
      [
        "u",
        "st"
      ],
      [
        "ĠAu",
        "f"
      ],
      [
        "Ġ19",
        "9"
      ],
      [
        "n",
        "er"
      ],
      [
        "o",
        "b"
      ],
      [
        "k",
        "eit"
      ],
      [
        "ÃŁ",
        "en"
      ],
      [
        "ik",
        "er"
      ],
      [
        "ĠN",
        "ach"
      ],
      [
        "ol",
        "it"
      ],
      [
        "ar",
        "d"
      ],
      [
        "i",
        "ck"
      ],
      [
        "ĠL",
        "and"
      ],
      [
        "Ġwur",
        "den"
      ],
      [
        "ĠK",
        "on"
      ],
      [
        "ĠH",
        "er"
      ],
      [
        "w",
        "ie"
      ],
      [
        "al",
        "t"
      ],
      [
        "r",
        "au"
      ],
      [
        "ĠM",
        "ar"
      ],
      [
        "a",
        "k"
      ],
      [
        "il",
        "l"
      ],
      [
        "Ã¤",
        "hr"
      ],
      [
        "g",
        "l"
      ],
      [
        "ch",
        "e"
      ],
      [
        "u",
        "d"
      ],
      [
        "f",
        "l"
      ],
      [
        "ĠI",
        "S"
      ],
      [
        "Ġ(",
        "*"
      ],
      [
        "ĠO",
        "r"
      ],
      [
        "bur",
        "g"
      ],
      [
        "m",
        "e"
      ],
      [
        "r",
        "ich"
      ],
      [
        "Ġan",
        "der"
      ],
      [
        "h",
        "eit"
      ],
      [
        "i",
        "b"
      ],
      [
        "B",
        "N"
      ],
      [
        "ĠJ",
        "o"
      ],
      [
        "ĠD",
        "eutsch"
      ],
      [
        "ĠIS",
        "BN"
      ],
      [
        "w",
        "a"
      ],
      [
        "e",
        "kt"
      ],
      [
        "z",
        "e"
      ],
      [
        "Ġdeutsch",
        "er"
      ],
      [
        "i",
        "al"
      ],
      [
        "ĠM",
        "it"
      ],
      [
        "i",
        "a"
      ],
      [
        "Ġz",
        "w"
      ],
      [
        "at",
        "ur"
      ],
      [
        "o",
        "k"
      ],
      [
        "ĠV",
        "or"
      ],
      [
        "Ã¤",
        "u"
      ],
      [
        "ĠS",
        "ie"
      ],
      [
        "Ġn",
        "ur"
      ],
      [
        "b",
        "ar"
      ],
      [
        "f",
        "en"
      ],
      [
        "ei",
        "ten"
      ],
      [
        "at",
        "z"
      ],
      [
        "e",
        "ch"
      ],
      [
        "z",
        "eich"
      ],
      [
        "o",
        "w"
      ],
      [
        "il",
        "d"
      ],
      [
        "Ġ1",
        "7"
      ],
      [
        "ĠR",
        "eg"
      ],
      [
        "on",
        "der"
      ],
      [
        "am",
        "m"
      ],
      [
        "p",
        "h"
      ],
      [
        "wei",
        "se"
      ],
      [
        "ĠC",
        "h"
      ],
      [
        "rei",
        "s"
      ],
      [
        "s",
        "s"
      ],
      [
        "at",
        "en"
      ],
      [
        "ĠA",
        "m"
      ],
      [
        "ĠF",
        "ran"
      ],
      [
        "Ġ19",
        "8"
      ],
      [
        "ĠS",
        "e"
      ],
      [
        "sch",
        "l"
      ],
      [
        "om",
        "p"
      ],
      [
        "ik",
        "an"
      ],
      [
        "ĠZ",
        "eit"
      ],
      [
        "ĠB",
        "ei"
      ],
      [
        "ar",
        "b"
      ],
      [
        "k",
        "en"
      ],
      [
        "s",
        "k"
      ],
      [
        "ĠF",
        "l"
      ],
      [
        "n",
        "is"
      ],
      [
        "f",
        "ol"
      ],
      [
        "Ġ",
        "re"
      ],
      [
        "Ġd",
        "a"
      ],
      [
        "r",
        "Ã¼"
      ],
      [
        "Ġm",
        "ehr"
      ],
      [
        "el",
        "n"
      ],
      [
        "ber",
        "g"
      ],
      [
        "Ġ",
        "9"
      ],
      [
        "Ġ",
        "4"
      ],
      [
        "ĠU",
        "S"
      ],
      [
        "1",
        "8"
      ],
      [
        "kt",
        "ion"
      ],
      [
        "at",
        "t"
      ],
      [
        "ier",
        "en"
      ],
      [
        "i",
        "an"
      ],
      [
        "Ġz",
        "wei"
      ],
      [
        "Ġ19",
        "7"
      ],
      [
        "Ġ",
        "et"
      ],
      [
        "u",
        "g"
      ],
      [
        "ein",
        "e"
      ],
      [
        "sch",
        "ie"
      ],
      [
        "om",
        "m"
      ],
      [
        "p",
        "er"
      ],
      [
        "Ġ(",
        "âĢ"
      ],
      [
        "ĠS",
        "o"
      ],
      [
        "f",
        "Ã¼hr"
      ],
      [
        "it",
        "Ã¤t"
      ],
      [
        "h",
        "o"
      ],
      [
        "ab",
        "en"
      ],
      [
        "ĠD",
        "e"
      ],
      [
        "ich",
        "te"
      ],
      [
        "a",
        "st"
      ],
      [
        "m",
        "us"
      ],
      [
        "ier",
        "ung"
      ],
      [
        "ro",
        "ÃŁ"
      ],
      [
        "q",
        "u"
      ],
      [
        "e",
        "x"
      ],
      [
        "Ã¶",
        "l"
      ],
      [
        "an",
        "z"
      ],
      [
        "f",
        "ahr"
      ],
      [
        "it",
        "z"
      ],
      [
        "h",
        "und"
      ],
      [
        "t",
        "eil"
      ],
      [
        "al",
        "e"
      ],
      [
        "Ġv",
        "om"
      ],
      [
        "ol",
        "og"
      ],
      [
        "sch",
        "en"
      ],
      [
        "am",
        "er"
      ],
      [
        "Ġbe",
        "st"
      ],
      [
        "el",
        "le"
      ],
      [
        "ei",
        "st"
      ],
      [
        "ar",
        "l"
      ],
      [
        "Ã¤n",
        "d"
      ],
      [
        "Ġa",
        "ber"
      ],
      [
        "Ġal",
        "l"
      ],
      [
        "ĠT",
        "he"
      ],
      [
        "b",
        "au"
      ],
      [
        "Ġn",
        "och"
      ],
      [
        "ach",
        "t"
      ],
      [
        "Ġ",
        "5"
      ],
      [
        "Ġk",
        "on"
      ],
      [
        "n",
        "et"
      ],
      [
        "ĠJahr",
        "hund"
      ],
      [
        "Ġ19",
        "6"
      ],
      [
        "ier",
        "te"
      ],
      [
        "ĠK",
        "l"
      ],
      [
        "en",
        "z"
      ],
      [
        "Ġd",
        "ar"
      ],
      [
        "ff",
        "en"
      ],
      [
        "ig",
        "er"
      ],
      [
        "ah",
        "n"
      ],
      [
        "eh",
        "en"
      ],
      [
        "Ġge",
        "gen"
      ],
      [
        "Ġein",
        "es"
      ],
      [
        "r",
        "at"
      ],
      [
        "al",
        "s"
      ],
      [
        "spiel",
        "er"
      ],
      [
        "k",
        "s"
      ],
      [
        "Ġw",
        "eiter"
      ],
      [
        "ĠUn",
        "ter"
      ],
      [
        "e",
        "b"
      ],
      [
        "ĠJahrhund",
        "ert"
      ],
      [
        "ver",
        "s"
      ],
      [
        "im",
        "m"
      ],
      [
        "Ġ19",
        "4"
      ],
      [
        "ut",
        "z"
      ],
      [
        "k",
        "l"
      ],
      [
        "om",
        "men"
      ],
      [
        "ĠEn",
        "t"
      ],
      [
        "o",
        "v"
      ],
      [
        "f",
        "ten"
      ],
      [
        "em",
[...]
